<pad>	0
<unk>	0
<s>	0
</s>	0
.	-2.23707
▁	-3.94127
▁سامي	-3.9621
؟	-4.10897
▁في	-4.14126
▁من	-4.1975
▁أن	-4.35517
▁لا	-4.62668
ا	-4.70502
▁كان	-4.7634
▁و	-4.84431
،	-4.90933
▁ما	-4.96388
ة	-4.97933
▁ال	-4.98168
▁على	-4.99223
ي	-5.0202
▁توم	-5.04964
▁ليلى	-5.05843
▁إلى	-5.07748
▁لم	-5.08046
ت	-5.08077
▁ب	-5.19606
▁هل	-5.22068
▁أنا	-5.33519
▁أ	-5.34825
▁هذا	-5.34995
▁ي	-5.38646
▁ل	-5.47625
ه	-5.54468
▁ت	-5.58919
ك	-5.62036
▁هو	-5.69308
▁ذلك	-5.75426
!	-5.83646
▁هذه	-5.85043
▁عن	-5.8697
نا	-5.88737
ى	-5.89221
ني	-5.92656
▁فاضل	-5.92932
ها	-5.9518
▁كانت	-5.96443
▁لقد	-5.97092
▁ا	-6.06972
▁كل	-6.12082
▁ليس	-6.16842
ن	-6.16985
▁هنا	-6.17285
▁هي	-6.1864
▁لي	-6.19928
ُ	-6.20416
▁م	-6.20892
م	-6.21366
ما	-6.24965
َ	-6.29124
▁هناك	-6.32378
▁مع	-6.33103
▁"	-6.3901
ون	-6.39199
ين	-6.40171
▁لن	-6.45315
ل	-6.45774
▁ن	-6.47321
▁إن	-6.48647
اً	-6.49674
▁س	-6.49991
▁أنت	-6.52418
▁الذي	-6.53868
▁أين	-6.58443
ات	-6.60139
▁عند	-6.60214
▁كنت	-6.64229
▁شيء	-6.66272
▁إنه	-6.681
▁أحد	-6.68168
▁كيف	-6.69424
▁أي	-6.69752
ش	-6.70007
▁أريد	-6.74842
وا	-6.75142
▁عليك	-6.76731
▁الآن	-6.77347
▁ماري	-6.78366
▁ماذا	-6.7882
ية	-6.80638
▁اليوم	-6.81579
ان	-6.82831
▁ف	-6.84022
▁لك	-6.84721
,	-6.85809
ًا	-6.85833
▁يكن	-6.86629
و	-6.8751
▁أنّ	-6.87854
▁يا	-6.8896
▁بعد	-6.89846
▁تلك	-6.90221
▁كي	-6.94824
▁قبل	-6.96059
ر	-6.97031
▁بال	-6.98403
د	-6.98661
▁يجب	-6.9963
ب	-7.00401
▁الكثير	-7.02548
▁المنزل	-7.03659
▁ك	-7.05137
▁إنها	-7.0587
▁لدي	-7.07213
▁يريد	-7.07437
▁فضلك	-7.07588
▁لماذا	-7.09703
▁التي	-7.10171
▁المال	-7.1159
ِ	-7.11785
▁حياة	-7.13084
▁أحب	-7.1471
▁أنه	-7.152
▁يوم	-7.15687
▁بعض	-7.15776
▁قد	-7.17092
▁نحن	-7.18185
▁الم	-7.1897
▁تريد	-7.20364
▁جداً	-7.20456
▁إ	-7.2173
:	-7.23365
ً	-7.25277
▁أكثر	-7.25694
ّ	-7.25731
▁غير	-7.25844
▁الوقت	-7.28275
▁أو	-7.29432
ّة	-7.2992
ً.	-7.33958
▁فقط	-7.35261
▁يكون	-7.35937
▁المدرسة	-7.36362
▁ان	-7.36487
ال	-7.36902
ع	-7.37093
▁يمكن	-7.37447
▁لست	-7.37945
▁كلّ	-7.3807
▁يحبّ	-7.38236
▁متى	-7.38541
▁الحياة	-7.38587
▁سأ	-7.4036
▁كم	-7.41103
▁أعرف	-7.41556
▁الكتاب	-7.42354
▁حياته	-7.4271
▁قال	-7.44173
ذ	-7.44477
▁بإمكان	-7.46099
▁حتى	-7.46363
▁ذهب	-7.46373
▁يمكنك	-7.46548
س	-7.46637
▁لو	-7.46803
▁إذا	-7.4691
▁واحد	-7.47026
▁أستطيع	-7.47522
▁جدا	-7.48108
▁عليه	-7.48928
"	-7.49224
▁الأمر	-7.5018
▁يبدو	-7.50375
▁به	-7.50443
▁الباب	-7.51179
▁العمل	-7.51333
▁أخرى	-7.52593
▁لديه	-7.53462
▁أصبح	-7.53695
▁بدأ	-7.53725
▁،	-7.55521
هم	-7.55678
▁تكون	-7.55809
▁آخر	-7.56425
▁أبدا	-7.56606
▁سي	-7.57418
▁شخص	-7.57756
▁لكن	-7.58022
▁أنّه	-7.58269
▁علي	-7.60147
▁مكان	-7.60724
▁أعلم	-7.61575
▁يعيش	-7.62366
▁لليلى	-7.63027
يّة	-7.6313
ٍ	-7.64251
▁البيت	-7.6436
▁كذلك	-7.64398
▁أفضل	-7.65779
ته	-7.66239
▁يعرف	-7.66847
▁لل	-7.67041
▁جمال	-7.67138
ف	-7.67604
اء	-7.68588
▁يعلم	-7.68779
▁أبي	-7.69289
▁له	-7.69564
▁بين	-7.69611
▁منّاد	-7.70024
ٌ	-7.7022
دى	-7.70428
▁العالم	-7.70491
▁يحب	-7.70805
▁وقت	-7.7144
▁ع	-7.72846
▁الناس	-7.73203
▁الشّرطة	-7.74529
ق	-7.75862
▁الذهاب	-7.7608
▁الإنجليزية	-7.76138
▁فعل	-7.76408
▁أراد	-7.76532
."	-7.76938
▁شيئا	-7.77307
▁بأن	-7.7747
▁أليس	-7.79255
▁الساعة	-7.80969
▁يستطيع	-7.80993
▁أنك	-7.81182
▁منزل	-7.81741
وجد	-7.82469
▁بسبب	-7.82624
نبغي	-7.83234
▁تعرف	-7.83329
▁مرة	-7.84211
▁المدرّس	-7.84303
▁ه	-7.84532
▁يمكنن	-7.8459
▁إلا	-7.84949
▁تحب	-7.85424
▁بسرعة	-7.86013
▁بذلك	-7.86139
▁العيادة	-7.86283
▁علينا	-7.86319
ح	-7.86377
لا	-7.86678
▁أم	-7.86754
عتقد	-7.86967
▁لديك	-7.87085
▁ذاك	-7.87107
▁تعلم	-7.87686
▁القاهرة	-7.8775
حاجة	-7.88407
▁عندي	-7.88675
▁معي	-7.8922
▁سيارة	-7.8973
▁تنس	-7.90723
▁الأمازيغية	-7.91703
ّا	-7.91887
▁طلب	-7.91985
▁حدث	-7.92147
▁ذهبت	-7.92807
▁بما	-7.92818
▁تستطيع	-7.93149
▁ألا	-7.95856
▁الا	-7.96137
▁ست	-7.96197
▁المستشفى	-7.97054
لي	-7.98137
▁أنتَ	-7.98157
▁رجل	-7.98668
▁دائما	-7.9871
▁جدّا	-7.99136
▁سوف	-7.99265
▁الله	-7.99402
▁عليّ	-8.00177
▁بي	-8.00667
▁انا	-8.00747
▁تقول	-8.00963
هذه	-8.01054
▁تبدو	-8.01072
▁ديما	-8.0125
▁جميلة	-8.01408
▁ح	-8.01729
▁كثيرا	-8.02566
▁الجميع	-8.03075
▁حياتي	-8.03222
▁تكن	-8.03346
▁أجل	-8.03575
يا	-8.04833
▁البارحة	-8.05092
▁طوال	-8.0515
▁السيارة	-8.0516
تُ	-8.05568
▁بإمكانك	-8.05977
▁عام	-8.06523
▁للغاية	-8.07215
▁بشكل	-8.07241
▁العربيّة	-8.0729
▁مثل	-8.07325
▁الكلب	-8.07368
تك	-8.07406
▁غداً	-8.07807
ْ	-8.07938
▁مش	-8.07995
▁دي	-8.08023
▁الإسلام	-8.08204
▁فيه	-8.08446
▁رسالة	-8.08784
▁ولكن	-8.09218
▁الأفضل	-8.09433
▁شعر	-8.09588
▁بك	-8.09669
▁الماء	-8.09682
▁راني	-8.0995
".	-8.10063
▁تحت	-8.10366
▁إنّ	-8.10826
▁اليابان	-8.11092
▁انت	-8.11597
▁الفرنسية	-8.11698
▁تذهب	-8.11731
▁تعمل	-8.12068
▁.	-8.12294
▁هم	-8.12499
▁قام	-8.12812
▁لها	-8.13084
▁معك	-8.13469
▁عشر	-8.13519
▁العديد	-8.13887
▁أظن	-8.13982
▁رأيت	-8.14004
▁الأرض	-8.15493
▁الحقيقة	-8.16246
▁معه	-8.16708
▁اللغة	-8.17019
▁جديدة	-8.17507
▁الماضي	-8.18054
▁حصل	-8.18395
▁حاول	-8.18396
▁أمي	-8.18791
▁أذهب	-8.1898
▁نفس	-8.19076
▁سعيد	-8.19202
▁السياح	-8.2023
▁تتويبا	-8.21026
▁غزّة	-8.21097
تي	-8.21324
▁أيّ	-8.21554
▁بد	-8.21697
▁إنك	-8.22092
▁مصر	-8.22132
▁الوحيد	-8.22858
▁نفسه	-8.23578
▁دع	-8.23811
▁عمل	-8.23827
في	-8.23971
▁مات	-8.24076
▁سمعت	-8.2516
▁يذهب	-8.25296
▁الرجل	-8.26257
▁اتّصل	-8.26291
▁أخذ	-8.26414
▁كلب	-8.26439
من	-8.26565
▁كبير	-8.27061
▁واش	-8.2755
كرة	-8.27835
▁كما	-8.28047
▁صديق	-8.2878
▁أكبر	-8.28872
▁يعمل	-8.29012
▁سبب	-8.29126
▁أنتِ	-8.29461
؟"	-8.29975
▁فيها	-8.30837
▁كتب	-8.30933
▁الموسيقى	-8.31526
▁طوم	-8.31565
▁سيكون	-8.31736
▁الليلة	-8.31771
هُ	-8.3199
▁الجو	-8.32238
▁رب	-8.32622
▁لسامي	-8.32739
ام	-8.33957
▁الكلام	-8.34243
▁أحتاج	-8.34303
▁يحدث	-8.34323
▁تتحدث	-8.34456
▁الجزائر	-8.34531
رة	-8.34739
▁كبيرة	-8.34848
▁حول	-8.34999
▁لغة	-8.35129
▁انتظر	-8.3527
▁توقف	-8.3549
▁الأ	-8.35691
▁سنة	-8.35761
▁اشتر	-8.35785
▁الح	-8.35923
▁أنها	-8.36452
▁بلد	-8.36553
⸮	-8.37015
▁يملك	-8.37109
▁دانية	-8.37226
▁حقا	-8.37355
▁معا	-8.3739
▁جديد	-8.37446
لم	-8.37589
▁بأنه	-8.37689
▁الغرفة	-8.37764
▁ليلة	-8.38036
▁ولا	-8.39277
▁بل	-8.39497
▁ثلاث	-8.39542
غرفة	-8.39848
▁بدأت	-8.39901
▁الأسبوع	-8.40037
مي	-8.40171
▁الإ	-8.40543
▁لهذا	-8.40661
▁سمع	-8.41072
▁ق	-8.41177
▁بها	-8.41237
▁أمر	-8.41611
▁أخبر	-8.41683
▁يُ	-8.42309
▁أسرع	-8.42348
▁ولد	-8.42645
▁صوت	-8.43101
▁تأتي	-8.43108
▁يتحدث	-8.43349
▁حقاً	-8.43591
▁با	-8.43751
▁تفعل	-8.4396
بحث	-8.44032
▁ثلاثة	-8.44154
▁الع	-8.44457
▁كثيراً	-8.44483
▁واحدة	-8.44637
▁أخي	-8.44955
▁سن	-8.4523
▁ترك	-8.45324
▁جميل	-8.45386
▁وصلت	-8.45624
▁جميع	-8.45829
زال	-8.46141
▁المسلمين	-8.46195
▁المدينة	-8.46245
▁تعيش	-8.46258
▁أشعر	-8.46281
▁ده	-8.46522
▁اللي	-8.46632
▁أخبرني	-8.46634
▁بهذا	-8.46926
▁قط	-8.47154
▁منك	-8.47366
ير	-8.47406
▁أكون	-8.4743
▁حال	-8.47519
▁وصل	-8.47675
▁قلت	-8.4789
▁دخل	-8.47928
ار	-8.47977
▁إليه	-8.49032
▁ساعة	-8.49168
▁ينتظر	-8.49376
▁ر	-8.49407
▁تقلق	-8.49442
▁المشكلة	-8.49477
ء	-8.4977
▁لتوم	-8.5034
▁التّ	-8.50542
ول	-8.51174
▁تعال	-8.51186
▁الت	-8.51217
▁أفهم	-8.51291
▁لد	-8.5166
▁تلقّ	-8.51662
▁تع	-8.521
▁الطريق	-8.52172
نهاية	-8.52195
▁التنس	-8.52766
▁الكلاب	-8.52788
▁التلفاز	-8.52822
▁أفعل	-8.52896
▁مشغول	-8.52945
▁أكن	-8.52972
▁أود	-8.5305
▁سمحت	-8.53103
▁حقّا	-8.53138
▁قادر	-8.53614
لك	-8.53732
▁شيئاً	-8.53747
▁تمّ	-8.53782
▁الحق	-8.54365
طلب	-8.5439
▁طويل	-8.5446
▁علم	-8.54755
▁لكل	-8.54831
▁صباح	-8.55319
▁بشأن	-8.55355
▁تُ	-8.5543
▁الجديد	-8.5569
▁الشهر	-8.55853
▁بزّاف	-8.5615
▁الحافلة	-8.56189
▁أيمكنك	-8.56294
▁الخطأ	-8.56327
▁الأطفال	-8.56334
▁أمريكا	-8.5634
▁المرأة	-8.56426
▁شكراً	-8.56426
▁انتقل	-8.56479
▁أتى	-8.56557
▁امرأة	-8.56614
▁دائماً	-8.56689
▁فكرة	-8.56744
▁أت	-8.56757
▁قتل	-8.56834
▁أردت	-8.57047
▁مدرّس	-8.5886
يت	-8.58875
▁تناول	-8.59014
▁عنه	-8.59522
▁ثم	-8.59533
▁راك	-8.59593
▁النّار	-8.5973
▁بخير	-8.59765
▁آسف	-8.59833
▁النوم	-8.60057
▁يأتي	-8.60104
▁نسيت	-8.60175
▁جون	-8.60263
▁بليلى	-8.60268
▁جيد	-8.60988
▁عيد	-8.61235
▁ج	-8.6124
ی	-8.61448
▁صحيح	-8.61729
▁قدّم	-8.6242
▁مساعدتك	-8.63296
▁المتحدة	-8.63421
▁علاقة	-8.63498
▁متأكد	-8.635
▁الشرطة	-8.63514
▁المزيد	-8.63635
▁العام	-8.6395
▁ها	-8.64062
▁يقضي	-8.6413
تها	-8.64192
▁مشكلة	-8.64258
▁سعيدة	-8.64455
▁حين	-8.64576
تصل	-8.65185
▁أعط	-8.65802
يد	-8.66362
▁أيضا	-8.66554
▁الجمل	-8.66887
▁يتكلم	-8.67136
▁الكحول	-8.67267
▁بالأمس	-8.67278
▁اللغات	-8.67301
▁الصباح	-8.67331
▁القهوة	-8.67377
▁بوسطن	-8.67388
▁سنوات	-8.67399
▁نذهب	-8.67399
▁اليوتوب	-8.6741
▁البعض	-8.67459
▁فتاة	-8.67604
▁غدا	-8.67847
▁تعلّم	-8.67848
▁سا	-8.67868
▁الكتب	-8.68032
▁عاد	-8.68149
ليست	-8.682
▁إنهم	-8.68365
▁يقول	-8.68714
▁أول	-8.68729
▁منزله	-8.69039
▁السيد	-8.6917
▁وضع	-8.69653
أ	-8.69787
▁ش	-8.69864
▁تماما	-8.69906
▁اعتقد	-8.70009
▁درس	-8.70339
▁راه	-8.70402
▁لما	-8.70602
▁خطير	-8.70647
▁هكذا	-8.71261
▁بدون	-8.71262
▁تحدث	-8.71275
▁إسرائيل	-8.71344
▁فريد	-8.71411
▁الجامعة	-8.71483
▁الممكن	-8.71502
▁أعيش	-8.71522
▁لازم	-8.71552
▁الهاتف	-8.71659
ج	-8.7177
▁التحدث	-8.71857
▁جيدة	-8.71917
تناول	-8.71998
▁لأن	-8.72194
▁يحتاج	-8.72512
▁واصل	-8.72513
▁مني	-8.73095
▁أقول	-8.73474
نسى	-8.74045
مشاهدة	-8.74128
مل	-8.7421
▁علا	-8.74244
▁معنا	-8.74321
▁طريق	-8.74491
ستعمل	-8.7458
▁يأكل	-8.75106
▁تم	-8.75113
▁منه	-8.75362
▁الطاولة	-8.75441
▁التدخين	-8.75525
▁خارج	-8.75567
▁يشرب	-8.75581
▁الأشياء	-8.75705
▁البلدة	-8.75711
▁بالنسبة	-8.75735
▁عندك	-8.75803
▁نظر	-8.7615
▁تتكلم	-8.76221
▁بقي	-8.76228
▁صغيرة	-8.76229
▁كتاب	-8.76388
▁ألم	-8.7651
نعم	-8.76641
▁جيدا	-8.76663
▁أيمكنن	-8.76764
▁والدي	-8.7712
▁يسمع	-8.77312
▁ممكن	-8.77326
لدينا	-8.77547
▁ربّ	-8.77764
▁بيت	-8.77873
▁فتح	-8.7793
▁خلا	-8.78316
▁اِ	-8.78356
▁كثير	-8.78421
▁يلعب	-8.78434
▁دون	-8.78481
توم	-8.78589
▁الولاي	-8.78887
▁أُ	-8.78899
كتب	-8.79106
▁أمام	-8.7969
▁البيانو	-8.79767
▁العشاء	-8.79809
▁المسجد	-8.79816
▁لعب	-8.79835
▁يستمع	-8.7984
▁يرام	-8.7986
▁القليل	-8.79863
▁بالنّ	-8.79866
ط	-8.7987
▁إلي	-8.79909
▁الولد	-8.7991
▁الرسالة	-8.80002
▁المحطة	-8.8004
▁رائع	-8.80084
▁البقاء	-8.80147
▁سبق	-8.80215
▁عبر	-8.80232
▁مدينة	-8.80392
▁أعمل	-8.80481
▁تلعب	-8.80513
▁أيام	-8.80564
▁السّجن	-8.80652
▁الصين	-8.80846
▁تحتاج	-8.80862
▁وال	-8.81171
سبة	-8.81381
▁أعد	-8.8164
▁قل	-8.81942
تني	-8.82084
▁لديّ	-8.82282
▁فقد	-8.82541
▁يت	-8.82746
تنا	-8.82873
كن	-8.83157
كان	-8.83232
▁تاع	-8.83387
بقى	-8.8357
▁الخارج	-8.84239
▁شهر	-8.84258
▁يسبق	-8.84369
▁القطار	-8.84442
▁نستطيع	-8.84449
▁الأم	-8.84549
▁سيّارة	-8.84802
▁أطلق	-8.84831
▁أرى	-8.85227
▁يكفي	-8.85256
▁يعتقد	-8.85315
ضاء	-8.85444
▁انها	-8.85469
▁أرسل	-8.85497
▁الطفل	-8.85551
▁تأكل	-8.85621
▁لّي	-8.85657
▁خمس	-8.85834
قراءة	-8.8585
▁المطر	-8.85955
دة	-8.85995
▁ذات	-8.86448
▁عادة	-8.86638
▁لنا	-8.86701
وي	-8.86813
▁الك	-8.8684
▁صغير	-8.87061
▁حاولت	-8.87081
▁فقدت	-8.87242
▁خير	-8.87304
عتمد	-8.87531
▁أظنّ	-8.87951
▁طبيب	-8.88139
▁فإن	-8.88502
▁خطأ	-8.88635
▁وجه	-8.88705
▁أني	-8.88873
▁بعيد	-8.89044
▁خطر	-8.89051
▁طوكيو	-8.89063
▁السباحة	-8.89077
▁النّاس	-8.89077
▁الطعام	-8.89192
▁هؤلاء	-8.89225
▁خلف	-8.89257
▁السنة	-8.89296
▁طالب	-8.89308
▁الأكل	-8.89357
▁عليها	-8.89377
▁أمس	-8.89422
▁أختي	-8.89453
▁وجدت	-8.89459
▁أتذكر	-8.89484
▁”	-8.89536
▁اليابانية	-8.89564
▁أراك	-8.89606
▁المكان	-8.89676
▁صح	-8.89753
▁خرج	-8.90171
▁الماضية	-8.90172
▁ظهر	-8.90309
ّي	-8.90313
تكون	-8.90587
▁هيا	-8.90764
▁تق	-8.90831
▁عاش	-8.90835
▁ص	-8.90877
▁صادق	-8.91136
▁سأل	-8.9116
▁رأ	-8.91389
غير	-8.91613
▁البحر	-8.91622
▁نوم	-8.91955
كم	-8.92142
كِ	-8.92224
▁تركت	-8.92452
يات	-8.92634
▁جائع	-8.92851
مت	-8.93121
▁منزلي	-8.93143
▁تذكر	-8.93303
▁مُ	-8.93774
▁حياتها	-8.94068
▁سيأتي	-8.94071
▁شرب	-8.94108
▁غاضب	-8.94196
▁الحليب	-8.94209
▁الشاي	-8.94214
▁أحضر	-8.94247
▁تعرّف	-8.94271
▁انظر	-8.9429
▁نريد	-8.94322
▁اشتريت	-8.94495
▁تدرس	-8.94547
▁شكرا	-8.94792
▁أغلق	-8.9482
▁ط	-8.94993
▁أيضاً	-8.95102
نّ	-8.95342
ز	-8.95395
▁مكتب	-8.95428
كَ	-8.95715
وم	-8.95731
▁إليك	-8.95902
▁أخ	-8.96181
▁ألق	-8.96376
▁هادي	-8.96413
▁أصدقاء	-8.96496
لى	-8.97081
ظهر	-8.97114
▁-	-8.97204
▁تو	-8.97468
▁أبداً	-8.9767
▁يعد	-8.97708
صول	-8.97984
▁لأنه	-8.98062
▁يمكنه	-8.98088
▁ألف	-8.98098
▁خذ	-8.98207
▁أكل	-8.98293
ماشي	-8.98312
كون	-8.98574
حة	-8.98652
▁التّلفاز	-8.99339
▁الفندق	-8.99343
▁فحسب	-8.99345
▁للعيش	-8.99345
▁السرير	-8.9936
▁سأذهب	-8.99361
▁المفاتيح	-8.99373
▁الأولى	-8.99441
▁اللحم	-8.99475
▁رأيك	-8.99563
▁دقيقة	-8.99564
▁مرّة	-8.99614
▁الطائرة	-8.99639
▁نقدر	-8.99674
▁فوق	-8.99675
▁عمر	-8.99676
▁العيش	-8.99683
▁تملك	-8.99685
▁جامعة	-8.99701
▁العربية	-8.99708
▁مستشفى	-8.99715
▁حكما	-8.99855
▁فعله	-9.00043
▁الجملة	-9.00153
▁انه	-9.00159
اب	-9.00319
▁الق	-9.00435
▁الج	-9.00526
ض	-9.00807
▁عشرة	-9.00993
رغب	-9.01079
عظم	-9.01124
▁السمك	-9.01463
-	-9.01493
▁نوع	-9.01583
▁غادر	-9.01631
▁طفل	-9.01648
ةً	-9.01934
▁سرق	-9.02117
▁مال	-9.02153
▁آن	-9.02203
▁فعلت	-9.02465
▁أهل	-9.02538
▁نسي	-9.02624
وسط	-9.02825
هذا	-9.03098
أنا	-9.03161
قيام	-9.0323
▁حاجة	-9.03321
مة	-9.03547
▁الس	-9.03583
▁كن	-9.03623
▁القانون	-9.0378
▁وقع	-9.03839
دي	-9.0398
▁تس	-9.04231
▁مما	-9.04447
▁اختفى	-9.04893
▁الطّبيب	-9.04961
▁الإطلاق	-9.04984
▁رائحة	-9.04993
▁الحرب	-9.05116
▁حيث	-9.05159
▁أسرة	-9.05161
▁كثيرًا	-9.0518
▁كهذا	-9.05236
شي	-9.05261
▁الطبيب	-9.05287
▁قالت	-9.05311
ارة	-9.05463
▁صعبة	-9.05512
▁مدير	-9.05537
▁يح	-9.0555
بة	-9.05739
▁الجنس	-9.05776
▁طويلة	-9.0594
▁طلبت	-9.06244
▁صديقي	-9.06333
▁أخرج	-9.06335
▁تعتقد	-9.0649
ري	-9.06644
▁وين	-9.06704
رغم	-9.06862
▁عدة	-9.0687
▁هاد	-9.06878
تكلم	-9.06969
▁شراء	-9.06973
▁عدد	-9.06981
▁عرض	-9.07002
ور	-9.07035
▁د	-9.07045
▁يحبون	-9.07204
▁اسم	-9.07623
▁الف	-9.07746
▁راح	-9.07992
▁أطفال	-9.08211
▁حادث	-9.08272
▁وجد	-9.08274
▁أقرأ	-9.08407
▁مت	-9.08423
▁كين	-9.0847
▁حار	-9.08608
اد	-9.08779
▁عمي	-9.08795
▁يجد	-9.0886
▁القط	-9.0896
▁أخذت	-9.09135
▁يز	-9.09197
تمنى	-9.09238
▁ير	-9.09251
▁بلا	-9.09359
▁كلاب	-9.0938
▁كا	-9.09511
▁لأ	-9.09566
ذكر	-9.0958
هل	-9.09737
قة	-9.09799
▁حبّ	-9.09985
▁حاجا	-9.10275
▁جاء	-9.10288
▁قليلا	-9.10357
▁ذاهب	-9.10723
▁فرنسا	-9.10745
▁قطّ	-9.1083
▁حتّى	-9.10834
▁النافذة	-9.10879
▁دقائق	-9.10938
▁القدم	-9.10964
▁استمع	-9.10969
▁كتاباً	-9.11128
تحدث	-9.11142
ئ	-9.11144
▁كلمة	-9.11215
▁أحاول	-9.11289
▁الليل	-9.11342
ّ.	-9.11365
حب	-9.11537
▁صورة	-9.11738
▁بوب	-9.11793
تان	-9.11826
▁الجديدة	-9.11903
طة	-9.11958
▁أتت	-9.12709
▁منّي	-9.12873
▁مسلما	-9.13035
▁يفهم	-9.13042
▁ضرب	-9.13065
▁السّ	-9.13128
▁بإمكانه	-9.13226
▁رقم	-9.13566
▁بيته	-9.14265
عزف	-9.14437
▁رأيته	-9.14524
▁لاحقا	-9.14842
▁إل	-9.14918
▁انته	-9.15581
يس	-9.15788
▁أحدا	-9.15813
يف	-9.15878
بعد	-9.15946
▁يرد	-9.15991
ّد	-9.1601
▁بأ	-9.16271
▁اسمه	-9.16459
▁موعد	-9.16578
▁مشهور	-9.16615
▁نظرة	-9.16791
▁حل	-9.16911
▁اتصل	-9.16948
▁الآخر	-9.16989
▁الشّاطئ	-9.17013
▁مجدّدا	-9.17014
▁الأقل	-9.17054
▁المساعدة	-9.1708
▁الأيام	-9.17089
▁يسكن	-9.17097
▁الأمور	-9.17125
▁مطعم	-9.17131
▁آمل	-9.17132
▁الفتاة	-9.17149
▁ساعات	-9.1719
▁القاعدة	-9.17221
▁يشعر	-9.17246
▁بشيء	-9.17253
▁زوجته	-9.17278
▁بنفسك	-9.17302
▁اللّيلة	-9.1733
▁لحظة	-9.17347
▁اذهب	-9.17368
فكّر	-9.17428
▁معنى	-9.1751
▁داخل	-9.17526
▁موقع	-9.17527
نة	-9.17664
▁وراء	-9.17744
▁تبحث	-9.17783
▁عل	-9.17858
▁كونت	-9.17877
لة	-9.17893
▁توقّف	-9.17905
▁يبحث	-9.1794
▁ترجمة	-9.18066
اش	-9.18167
بت	-9.18198
▁مرض	-9.18303
▁جيم	-9.18351
ث	-9.18513
▁بيتي	-9.18625
▁أكتب	-9.18669
▁تر	-9.18696
رى	-9.18752
▁رئيس	-9.18763
▁أنسى	-9.18822
▁ادا	-9.18965
تعرف	-9.19166
▁أنس	-9.19227
تَ	-9.1923
هو	-9.19259
▁ستّ	-9.19379
تعلم	-9.19525
وية	-9.19643
▁تت	-9.19664
خ	-9.19691
تحدّث	-9.197
▁قطع	-9.19734
▁تريدين	-9.19867
▁تقل	-9.19921
▁عندنا	-9.20086
▁أسبوع	-9.20157
حاول	-9.20391
تساءل	-9.20508
▁دعن	-9.20567
▁فلن	-9.21008
▁؟	-9.21123
▁مجر	-9.21155
▁ظننت	-9.21189
▁أحبّ	-9.21279
▁لطيف	-9.21786
كلّ	-9.2191
▁است	-9.22276
▁الشمس	-9.22566
▁طعام	-9.22587
▁خائف	-9.2296
▁استمر	-9.2302
▁الأن	-9.23291
▁تقرأ	-9.23378
▁مفتاح	-9.23386
ّر	-9.23673
▁الخروج	-9.23709
▁الغد	-9.23719
▁أسكن	-9.23755
▁الشجرة	-9.23771
▁السفر	-9.23813
▁تستحق	-9.23854
▁نعرف	-9.23902
▁أصدقائي	-9.23909
▁مهتم	-9.23921
▁جيبه	-9.23929
▁الحديث	-9.23929
▁الحفلة	-9.23962
▁رسائل	-9.2401
▁الأصدقاء	-9.24025
▁ذكي	-9.24049
▁يدرس	-9.24089
▁الش	-9.24125
▁يشاهد	-9.24152
▁يعني	-9.24162
▁الآخرين	-9.24176
▁تصبح	-9.24213
▁عادةً	-9.24228
▁شديد	-9.24272
▁مشكل	-9.24317
▁رفض	-9.24325
▁لذلك	-9.24378
▁تفضل	-9.24406
!"	-9.24416
▁سيارته	-9.24474
ص	-9.24478
▁الصائب	-9.24484
▁زوج	-9.24567
▁ميلاد	-9.2458
▁كاين	-9.24623
▁كنا	-9.24708
دعونا	-9.24744
▁لمدة	-9.24954
▁الرّ	-9.24958
▁حالك	-9.24976
▁يقوم	-9.25038
▁ترى	-9.25144
▁مهم	-9.25285
▁كانوا	-9.25324
تين	-9.25325
▁ياباني	-9.25394
▁الكل	-9.25532
▁مدرّسي	-9.25593
▁فهم	-9.25819
▁وا	-9.25912
▁ين	-9.26015
▁آر	-9.26301
صبح	-9.26554
▁كتبت	-9.26865
يّا	-9.26947
▁طريقة	-9.27222
▁بنفسه	-9.27271
▁نفسها	-9.27482
▁مهما	-9.2788
امي	-9.27936
▁قلبي	-9.28206
▁أجد	-9.28336
▁يد	-9.28553
▁يغادر	-9.28561
▁شخصا	-9.28792
▁الب	-9.28836
▁غريب	-9.289
▁متعب	-9.29004
شى	-9.29135
▁فهمت	-9.29359
▁سو	-9.29429
▁عالم	-9.29584
▁بحث	-9.29676
▁غرفته	-9.29746
▁للتّو	-9.29756
هما	-9.29811
رت	-9.30007
▁الوطني	-9.30229
▁معجب	-9.30242
▁القادم	-9.30245
▁المحل	-9.30276
▁المفضل	-9.30353
▁أر	-9.30366
▁المكتب	-9.30477
▁حايب	-9.30837
▁القطط	-9.30852
▁الفتيات	-9.30856
▁شيئًا	-9.3086
ستحقّ	-9.30872
▁مشاكل	-9.30889
▁أعطاني	-9.30901
▁أنقذ	-9.30903
▁يؤمن	-9.30919
▁تقدر	-9.30964
▁تاريخ	-9.30993
▁جار	-9.31003
▁كيفاش	-9.31009
▁نانسي	-9.31016
▁نيويورك	-9.31035
▁الحيوانات	-9.31044
▁أطول	-9.31109
▁غرفتي	-9.31118
را	-9.31146
▁الثلج	-9.3115
▁الحديقة	-9.31178
▁الأحد	-9.31186
▁يعود	-9.3124
▁لفاضل	-9.31255
▁الصورة	-9.31273
▁تبدأ	-9.31311
▁تقوم	-9.31333
▁يحصل	-9.31333
▁مشغولاً	-9.31334
َت	-9.3134
▁سيارتي	-9.31342
▁المنطقة	-9.31348
▁رجاءً	-9.3136
▁ارتكب	-9.31486
▁وماري	-9.31486
▁مرات	-9.31488
▁وفي	-9.31498
عشرين	-9.31527
قوم	-9.31531
رس	-9.31613
▁مختلفة	-9.31684
▁أملك	-9.31771
▁أنهيت	-9.31918
عة	-9.31919
رفع	-9.3192
▁الصيف	-9.3192
▁عنها	-9.31963
▁جلس	-9.3203
▁فخور	-9.32071
▁جزء	-9.32155
▁كلبه	-9.32161
▁نفسك	-9.3221
▁مايك	-9.32277
▁وقتا	-9.32466
▁دفع	-9.3268
دفع	-9.32819
▁سافر	-9.32824
▁يتم	-9.33077
قود	-9.3315
▁ندير	-9.33241
▁جاهز	-9.33256
ود	-9.33376
▁الحال	-9.33393
▁الصعب	-9.33473
غلق	-9.33796
▁الر	-9.34086
يل	-9.34099
▁مسلم	-9.34185
▁خيار	-9.34209
▁قرّر	-9.34306
تهم	-9.34409
▁بن	-9.3451
▁لكنه	-9.34721
نوع	-9.34738
▁تعرّض	-9.34897
▁خل	-9.34982
▁شك	-9.35005
تلك	-9.35065
كذب	-9.3515
▁الحي	-9.35291
▁عملت	-9.35314
ست	-9.35772
▁بكل	-9.35966
تطلع	-9.35991
▁نعم	-9.36022
كتابة	-9.36038
قرب	-9.36082
▁يكره	-9.36123
لعب	-9.36164
▁ابن	-9.36493
يه	-9.36507
▁كُن	-9.36684
توقف	-9.36762
▁الشخص	-9.36815
▁تعد	-9.36818
▁الحب	-9.36882
غ	-9.37058
▁طول	-9.37076
▁شئ	-9.3722
▁أس	-9.37314
▁عمّ	-9.37548
▁الاجتماع	-9.37549
▁الن	-9.37669
▁قلم	-9.37794
▁زال	-9.38051
دت	-9.38141
▁تظن	-9.38145
▁الحادث	-9.38174
▁مثلي	-9.38302
فكر	-9.38384
▁رايح	-9.3844
▁الفيديو	-9.38513
؛	-9.38515
▁الأقراص	-9.38528
▁المطبخ	-9.38529
▁أخيرا	-9.38538
▁مباشرة	-9.38541
▁السماء	-9.38562
▁وظيفة	-9.38576
▁الكلمة	-9.3858
▁الملابس	-9.38588
▁مستحيل	-9.38591
▁أجمل	-9.38597
▁بالفعل	-9.38603
▁يتكلّم	-9.38629
▁فندق	-9.3863
فضّل	-9.3863
عاصمة	-9.38631
▁كوكب	-9.38641
▁بكثير	-9.38656
▁الإجابة	-9.38669
▁الكلمات	-9.3868
▁السبت	-9.38698
▁المجيء	-9.38704
▁الخير	-9.38706
▁الانتظار	-9.38706
▁كلا	-9.38728
▁الفرق	-9.38729
▁الرياضيات	-9.38744
▁المطار	-9.38747
▁نحتاج	-9.3877
▁المقبل	-9.38802
▁أشهر	-9.38845
عادة	-9.38859
▁تفاحة	-9.38907
▁المعلومات	-9.39007
▁أتيت	-9.39031
▁الحص	-9.39034
لت	-9.39119
▁النساء	-9.39161
▁المكتبة	-9.39172
▁أتعلم	-9.39293
▁يتناول	-9.39332
▁مليئ	-9.39363
▁غاضبة	-9.39366
▁أنظر	-9.39419
▁خمسة	-9.39537
▁مكتبي	-9.39564
مسلمون	-9.39571
▁توفي	-9.39595
▁سقط	-9.40033
ِي	-9.40147
▁خرجت	-9.40226
▁أشتري	-9.40339
تّصل	-9.40398
▁أحدهم	-9.40432
▁اسمي	-9.40532
▁أب	-9.40537
▁عمله	-9.40936
▁بعضنا	-9.4096
شاهد	-9.40965
▁مخطئ	-9.41044
▁الصف	-9.41165
ّى	-9.41317
▁دولار	-9.41342
سمح	-9.41402
▁يفعل	-9.41515
عرف	-9.41521
انا	-9.41757
خر	-9.41767
▁جين	-9.41799
▁المحت	-9.41975
عتبر	-9.42188
رب	-9.42206
▁يس	-9.42282
▁مين	-9.42336
▁نحب	-9.42385
▁وضعت	-9.42433
▁دعين	-9.4295
نشيد	-9.43076
قت	-9.43485
▁لِ	-9.43552
▁عنده	-9.43573
عيادة	-9.43778
لحق	-9.44328
ئة	-9.44521
▁تحبّ	-9.44544
▁آ	-9.44605
▁نشأ	-9.44627
▁يخ	-9.44675
▁أسمع	-9.44954
▁قلب	-9.45109
▁بت	-9.45283
جة	-9.45387
▁لكم	-9.4544
▁الشّ	-9.45449
▁مجددا	-9.45515
▁سؤال	-9.45635
▁سماع	-9.45886
▁بكم	-9.45903
اع	-9.45913
▁أقنع	-9.45938
▁قادرا	-9.45988
▁التفاح	-9.46285
▁أربع	-9.46311
▁الصغير	-9.46339
باش	-9.46448
يني	-9.46465
▁بدا	-9.46538
▁راهي	-9.46597
رق	-9.46634
▁المؤتمر	-9.46849
▁كيوتو	-9.46849
▁شرعيّة	-9.4685
▁باريس	-9.46856
▁الأسئلة	-9.4686
▁الفيلم	-9.46862
▁واضح	-9.46863
▁دائمًا	-9.46866
▁الأرجح	-9.46895
▁التاريخ	-9.46904
حسن	-9.46913
▁المتجر	-9.46922
▁الأغنية	-9.46923
▁التعليم	-9.4694
▁غرفتك	-9.46968
▁انس	-9.46981
▁النّافذة	-9.46996
▁يواعد	-9.47018
▁الفلم	-9.47035
▁ماله	-9.47068
▁يأت	-9.47082
▁القمر	-9.47085
زي	-9.47088
▁قناة	-9.47104
▁لندن	-9.47115
▁أحمق	-9.47132
▁الإنسان	-9.47138
▁يقرأ	-9.47151
▁مساعدة	-9.47156
▁إليّ	-9.47208
▁إيه	-9.47266
▁تغيّر	-9.47275
▁استخدام	-9.47284
▁تأخذ	-9.47293
▁بالتأكيد	-9.47418
▁تخبر	-9.47423
▁ابنة	-9.47429
▁أحمر	-9.47509
▁استمرّ	-9.47545
▁دولة	-9.47612
▁ضحك	-9.47626
▁إنسان	-9.47632
▁عرفت	-9.47656
اض	-9.47696
▁زار	-9.47797
ماد	-9.47822
▁يكتب	-9.47825
▁أخبرك	-9.47855
▁بابا	-9.47923
▁تحمل	-9.48004
▁الحمل	-9.48148
▁بحياته	-9.48174
▁رؤية	-9.48179
▁وجود	-9.48217
▁شكر	-9.48245
لو	-9.48262
▁باية	-9.48417
▁يرى	-9.48596
▁أدرس	-9.48678
▁محق	-9.48842
▁هاتف	-9.48868
▁أمّ	-9.48877
ِ.	-9.48879
▁الصّ	-9.48947
▁صعب	-9.49038
▁أربعة	-9.49118
▁الكرة	-9.49211
▁غسل	-9.493
▁يقتل	-9.49322
خلع	-9.49353
▁نام	-9.49582
▁جيداً	-9.49611
فر	-9.49805
غم	-9.49934
▁كلبي	-9.49937
جد	-9.50144
▁يع	-9.50287
لزيارة	-9.50524
▁أحبك	-9.50734
▁وُلد	-9.50828
▁روح	-9.51059
▁رائعة	-9.51063
اك	-9.51082
▁لكنّ	-9.51153
▁بنفس	-9.512
▁مريض	-9.51234
▁الرئيس	-9.51334
▁حسن	-9.51461
▁بيل	-9.51571
▁قريب	-9.5184
.“	-9.52088
▁عينا	-9.52492
▁بارد	-9.5292
▁مج	-9.53104
اه	-9.5328
▁بم	-9.53296
▁كلها	-9.53419
▁عنك	-9.53458
▁أكره	-9.53469
وة	-9.53549
فضل	-9.5357
تْ	-9.53705
▁بجد	-9.54093
نزل	-9.54199
▁غ	-9.54262
▁حد	-9.54262
▁باب	-9.54357
▁عظيم	-9.54542
▁ملابسه	-9.55012
▁قابلته	-9.55056
▁لوح	-9.55156
▁العربي	-9.55276
▁إطلاق	-9.55342
▁ملابس	-9.55376
دعني	-9.55504
▁تح	-9.55517
▁عد	-9.55864
/	-9.55939
▁رمضان	-9.5594
▁الإنترنت	-9.5594
▁ينتهي	-9.55953
▁ڨع	-9.55956
▁العلاج	-9.5596
▁النّساء	-9.55962
▁لساعات	-9.55968
▁السيارات	-9.55975
▁الأفلام	-9.55978
▁مليح	-9.5598
▁الكرسي	-9.55986
▁القرار	-9.55996
▁بالعربيّة	-9.56006
▁الإثنين	-9.56011
▁بالشّرطة	-9.56012
▁المشاكل	-9.5603
▁فستان	-9.56038
▁ديالي	-9.56051
▁المجتمع	-9.56069
▁ستذهب	-9.56119
▁مفتوحة	-9.56123
▁شركة	-9.56129
▁أضعت	-9.56136
▁تسبح	-9.56139
▁واقف	-9.56183
▁لغات	-9.56183
▁أصغر	-9.56186
▁يستحق	-9.5619
▁بلّي	-9.56209
▁بالمؤبّد	-9.56212
▁رجال	-9.56226
▁اعترف	-9.56256
▁تفكر	-9.56298
فرد	-9.56313
▁العربيه	-9.56317
▁النصف	-9.5634
دمّر	-9.56354
▁ساعدني	-9.5637
▁الخاصة	-9.56389
▁تسأل	-9.56402
▁صباحاً	-9.56405
▁فهو	-9.56439
▁الأخرى	-9.56501
▁قيادة	-9.5651
▁الشيء	-9.5654
وب	-9.56548
▁تجاه	-9.56588
▁غيّر	-9.5659
وجه	-9.5664
▁حيّ	-9.56662
▁جملة	-9.56669
▁جر	-9.56703
▁كتابك	-9.56707
▁زاد	-9.56724
▁يمضي	-9.56747
▁سعيداً	-9.56756
▁مرحباً	-9.56761
▁قلته	-9.57023
▁الشعر	-9.57117
▁عدم	-9.57162
قى	-9.57169
▁كثيرة	-9.57235
▁نكون	-9.57375
▁آكل	-9.57419
▁الظهر	-9.57437
▁بصوت	-9.57442
▁خطيرة	-9.57499
▁جيّدا	-9.57499
▁زيارة	-9.57512
▁المرة	-9.57542
▁حمل	-9.57647
▁هادا	-9.57653
▁مَا	-9.57718
▁مجدداً	-9.57736
▁فِي	-9.57793
دا	-9.57902
فتح	-9.57964
▁الدّ	-9.57967
▁ملك	-9.5797
▁مهمة	-9.58004
اف	-9.5814
▁سائح	-9.58161
▁أمّي	-9.58208
▁غالبا	-9.58464
▁ثمن	-9.58567
▁إذن	-9.58595
▁الصح	-9.58742
ندما	-9.59075
طريقة	-9.59077
▁تفهم	-9.59086
▁دار	-9.59286
▁وجهه	-9.59363
▁قطة	-9.59453
▁هاتفي	-9.59688
▁سعيدا	-9.59819
جئت	-9.59836
لمدّة	-9.59878
ٌ.	-9.59903
▁رأسه	-9.59987
▁تفعله	-9.60058
▁كلما	-9.60095
▁شاهد	-9.60192
▁رد	-9.60285
▁فكر	-9.60309
▁برك	-9.60362
▁أننا	-9.60719
▁الواقع	-9.60803
▁لله	-9.60813
▁لديهم	-9.60863
▁تخرج	-9.60885
قد	-9.61197
لّ	-9.61368
▁يرتد	-9.61513
▁احب	-9.61831
▁تعب	-9.61931
قبض	-9.61935
▁كلمات	-9.61991
▁خط	-9.62194
قام	-9.62368
▁غبي	-9.62382
مضى	-9.62659
▁ارتد	-9.62765
▁شي	-9.62821
▁استيقظ	-9.62988
▁نق	-9.63113
على	-9.63186
▁حاسوب	-9.63243
نظر	-9.63303
هِ	-9.63335
▁كامل	-9.63356
▁عم	-9.63416
▁للتو	-9.63422
▁يجعل	-9.63592
داء	-9.63612
▁ايه	-9.63632
▁موجود	-9.6371
▁مدرّسا	-9.6392
▁الد	-9.63944
▁مثير	-9.64004
اللغة	-9.64086
▁قض	-9.64208
سي	-9.64289
▁هما	-9.64347
مجموعة	-9.64357
ماذا	-9.64417
▁تخبرن	-9.64478
▁تدخل	-9.64571
▁حق	-9.64599
▁بالرّ	-9.64615
▁ثمّ	-9.64726
▁أقراص	-9.64764
▁الحر	-9.64778
راء	-9.64811
▁المر	-9.64949
▁قاموس	-9.64984
▁سألت	-9.65007
▁الموسيقي	-9.65141
حصل	-9.65154
▁يغ	-9.6527
▁لوحده	-9.65328
شاحنة	-9.65335
▁مرحبا	-9.65345
▁الطّريق	-9.65351
لون	-9.65352
▁عمره	-9.65412
▁البلد	-9.65533
أكثر	-9.65688
▁عايز	-9.65713
▁فجأة	-9.65811
▁كسر	-9.65832
▁السادسة	-9.6594
▁التقرير	-9.6594
▁2006	-9.6594
▁الرّسالة	-9.65941
▁فرصة	-9.65941
▁يونيو	-9.65941
▁الغربيّة	-9.65942
▁القدوم	-9.65944
▁سوداء	-9.65949
▁الأوّل	-9.65952
▁دايمن	-9.65958
▁الأحمر	-9.65971
▁يستطع	-9.65977
▁القمامة	-9.65981
▁السؤال	-9.65981
▁النهر	-9.65986
كي	-9.65991
▁باغي	-9.65998
▁المفتاح	-9.66001
▁يتخاصمان	-9.66006
▁سيذهب	-9.66008
▁الأخطاء	-9.66017
▁الرأي	-9.66029
▁الجمعة	-9.66031
▁الفريق	-9.66035
▁بالإنجليزية	-9.66055
▁مساء	-9.66063
▁آتي	-9.66076
▁اكتشف	-9.66088
▁يزور	-9.66096
▁الشاطئ	-9.66112
▁الضّف	-9.66142
▁الجزيرة	-9.66144
▁يبكي	-9.66159
▁الألمانية	-9.6617
▁محطّة	-9.66198
▁تسكن	-9.66227
▁قرأ	-9.66245
▁يجري	-9.66249
▁جث	-9.66252
▁تنتظر	-9.66256
▁وقف	-9.66281
▁الأمس	-9.66284
▁نعلم	-9.66284
▁إسمي	-9.66287
▁تكره	-9.66309
▁السّيّارة	-9.66334
▁الخلفية	-9.66348
▁عطلة	-9.66383
▁أشكرك	-9.66457
▁يده	-9.66463
▁القسم	-9.66488
▁أسوأ	-9.66499
▁استعار	-9.6651
▁يموت	-9.66568
▁يدفع	-9.66604
▁سنين	-9.66616
▁اللعب	-9.66635
▁يسير	-9.66636
▁تشرب	-9.66665
▁جلست	-9.66685
▁زلت	-9.66687
▁عنوان	-9.66703
▁طبيبا	-9.66724
▁جيّدة	-9.66729
بيع	-9.66764
▁رجلاً	-9.66779
عترف	-9.66801
▁حفلة	-9.66837
تصف	-9.66897
▁السبب	-9.6693
▁أكيد	-9.66976
▁موسيقى	-9.6698
▁قصص	-9.67033
▁فصل	-9.67078
▁مِنْ	-9.67094
▁وصلنا	-9.67105
▁الموت	-9.67119
▁قريباً	-9.67228
▁تش	-9.67229
▁بعيدا	-9.67279
▁تعني	-9.67302
▁حب	-9.67303
منطقة	-9.67373
▁ولّا	-9.67401
▁قرأت	-9.67471
▁القراءة	-9.67567
بين	-9.67745
▁هدف	-9.67874
▁قمت	-9.6797
▁أنتظر	-9.6809
▁تلو	-9.68151
جي	-9.68173
▁قرار	-9.68194
▁صديقة	-9.68234
▁لذا	-9.68614
▁تقبل	-9.68645
▁صديقا	-9.68717
▁البحث	-9.68722
محطة	-9.68734
دراسة	-9.68791
▁بتوم	-9.68796
▁قريبا	-9.6881
▁قصة	-9.68932
وحة	-9.68987
▁مالا	-9.69061
▁مستعد	-9.69127
▁وعد	-9.69165
▁جدي	-9.69188
يب	-9.69298
▁كمان	-9.6941
▁كسرت	-9.69532
رتدي	-9.69615
▁أقل	-9.6969
▁نفسي	-9.70125
▁ام	-9.70199
هنّ	-9.7022
وق	-9.70252
هي	-9.70403
▁نح	-9.70476
قطاع	-9.70498
قيد	-9.70738
▁المس	-9.71096
▁خ	-9.71101
▁ضد	-9.71279
▁الياباني	-9.71317
يّ	-9.71757
خبرني	-9.71764
▁مس	-9.71809
▁الثلاث	-9.72172
▁تسمع	-9.72204
ابة	-9.72313
▁أصل	-9.72424
هناك	-9.72451
▁رأس	-9.72552
▁سهل	-9.72671
▁الحد	-9.72738
جانب	-9.72761
▁راي	-9.73102
▁تكلم	-9.73377
قسم	-9.73385
▁بهم	-9.73606
وع	-9.73622
ستيقظ	-9.73823
اة	-9.74058
▁سياحي	-9.74175
▁يست	-9.74374
عي	-9.74393
يع	-9.74666
▁جيّد	-9.7468
▁علمت	-9.74796
▁او	-9.74918
يك	-9.74966
وصول	-9.75133
صنع	-9.75268
ناس	-9.75294
ده	-9.75406
ِب	-9.75444
▁بضع	-9.75561
▁مناد	-9.75576
▁جا	-9.75606
عب	-9.75611
نلعب	-9.75687
ائق	-9.75724
▁أصدق	-9.75821
صدّق	-9.75836
▁يهم	-9.75888
▁متأخر	-9.75932
▁أدخل	-9.75968
اني	-9.75974
▁غني	-9.76025
▁قليل	-9.76036
▁هاذ	-9.76137
بدأ	-9.76276
▁حساب	-9.76298
▁الخاص	-9.7632
▁يوج	-9.76399
▁واحدا	-9.76471
▁اللّيل	-9.76521
▁السر	-9.76595
دّ	-9.76669
مع	-9.76695
أنت	-9.7673
▁ساعتي	-9.76734
▁حلو	-9.76765
▁2	-9.76899
▁بزاف	-9.77051
▁نُقِل	-9.77051
▁الكبرى	-9.77053
▁ستمطر	-9.77054
▁آنذاك	-9.77056
▁إيميلي	-9.77056
▁المستقبل	-9.77061
▁العجوز	-9.77064
▁الّذي	-9.77078
▁الغذاء	-9.77079
▁وزّو	-9.77083
▁بالضبط	-9.77088
▁أمطرت	-9.77088
ِم	-9.77089
▁المسألة	-9.77097
▁الوظيفة	-9.77108
▁النار	-9.77117
▁المصرف	-9.77123
▁مكتوب	-9.77124
▁اللّغ	-9.77125
▁سيارتك	-9.77126
▁الإنجليزيّة	-9.77133
▁السينما	-9.77148
آ	-9.7715
▁الرياضة	-9.77157
▁الحاسوب	-9.77173
▁الموضوع	-9.77174
▁وحدك	-9.77176
▁مبارك	-9.77182
▁السعادة	-9.77183
▁الشركة	-9.77189
ثناء	-9.77196
▁غنياً	-9.77212
▁مسيحيّا	-9.77212
▁استمتع	-9.77214
▁الطلبة	-9.77228
▁أدري	-9.77231
▁أقدر	-9.77233
▁للعمل	-9.77246
▁حياتك	-9.77252
▁أتريد	-9.77266
قيّة	-9.77266
▁تبكي	-9.7727
▁أيّام	-9.77276
▁الحريق	-9.7728
▁يقدر	-9.77289
▁يسبح	-9.77289
▁الحائط	-9.77306
▁الشارع	-9.7731
▁استطيع	-9.77323
▁الخمر	-9.77333
▁الدراجة	-9.77335
▁موقف	-9.77336
عد	-9.77374
▁بالحياة	-9.77374
▁شغل	-9.77383
▁الخطة	-9.77385
▁معها	-9.77416
▁حيوانات	-9.77432
َّ	-9.77466
▁أسنانك	-9.77491
▁بشدة	-9.77499
▁الجريمة	-9.77527
▁تنظر	-9.77541
▁الخطر	-9.77556
▁الحيّ	-9.77556
▁العودة	-9.77563
حفظ	-9.77586
آخذ	-9.7762
▁هدية	-9.77649
▁ظنّ	-9.777
▁بنا	-9.77703
▁القصة	-9.77745
▁جاك	-9.77747
▁تحاول	-9.77749
▁يعزف	-9.77775
▁نساء	-9.77779
▁دليل	-9.77802
▁الصغيرة	-9.77863
▁حجز	-9.77885
▁ركض	-9.77936
▁زرت	-9.77947
▁بجانب	-9.77953
▁يبدأ	-9.77956
▁قادم	-9.77956
▁غريبة	-9.77961
▁تقوله	-9.77963
▁ممارس	-9.78008
▁مسلمة	-9.78012
▁اتصلت	-9.78044
▁فقير	-9.78065
▁ساعتين	-9.78119
▁اسمح	-9.78127
معلومات	-9.78169
▁قوة	-9.78193
▁السهل	-9.78222
▁تتكلّم	-9.78227
▁بِ	-9.78272
▁زوجة	-9.78296
▁يعيشون	-9.78306
رد	-9.78336
▁تجاهل	-9.7842
▁أعود	-9.78546
▁أصبت	-9.78557
▁طالبة	-9.7859
▁سرير	-9.78631
▁ينام	-9.78648
▁الخبز	-9.78713
نية	-9.78772
▁الأول	-9.78774
لديها	-9.7879
بي	-9.78799
▁مختلف	-9.78853
▁فإنك	-9.7887
▁مست	-9.78892
سجّل	-9.78896
▁غرفتها	-9.78918
▁اجتماع	-9.78974
▁أمّه	-9.78976
▁الحين	-9.78996
▁نظف	-9.79116
▁صور	-9.7914
▁التقيت	-9.79175
▁يساعد	-9.79175
▁آلا	-9.79259
▁بواس	-9.79353
▁ناد	-9.79435
▁طفلا	-9.79462
راح	-9.79498
▁كلّها	-9.79498
▁أنّك	-9.79507
سة	-9.7972
▁أمضي	-9.79737
▁الص	-9.79739
▁اسمها	-9.79771
▁را	-9.79793
▁تأخرت	-9.79827
▁شئت	-9.7991
▁بأنّ	-9.80036
▁وقتك	-9.80083
▁يوما	-9.80177
▁قررت	-9.80184
▁لحم	-9.80213
▁مئة	-9.80353
▁كشف	-9.80404
كفّ	-9.80433
تجربة	-9.80483
▁بدلا	-9.80499
الي	-9.80644
▁بس	-9.80746
▁الطّ	-9.8084
▁الزّ	-9.80876
لّا	-9.80906
▁لربم	-9.80911
▁رجلا	-9.8095
رف	-9.81055
مَ	-9.81056
ضع	-9.81075
▁إيجاد	-9.81123
راض	-9.81217
▁صداق	-9.81234
▁كأن	-9.81311
▁قسم	-9.81421
▁الثّ	-9.81539
فيد	-9.81562
بداية	-9.81782
▁اكون	-9.81785
▁جدّ	-9.81809
▁إسمه	-9.82005
صل	-9.82008
▁رسالةً	-9.82091
يبقى	-9.82388
مّا	-9.82488
▁شربت	-9.82566
▁قابلت	-9.82585
▁ستة	-9.82633
▁بالغ	-9.82685
▁البيض	-9.82785
عمل	-9.82888
▁عادت	-9.82927
فى	-9.8293
ستُ	-9.82999
▁الإعت	-9.83007
كا	-9.83157
▁يج	-9.8318
▁عزف	-9.83212
▁وَ	-9.83482
ماري	-9.83508
▁تحدثت	-9.83881
▁لكَ	-9.83914
▁دفعت	-9.83939
▁قول	-9.83951
▁بسامي	-9.84014
▁إحد	-9.84258
كل	-9.84328
▁صاح	-9.84526
ورة	-9.84609
▁دخلت	-9.85033
نتقل	-9.8508
a	-9.85214
▁دين	-9.85216
▁انتظار	-9.85231
▁سيُ	-9.85256
▁مو	-9.85259
▁أخبرت	-9.85539
▁مد	-9.85695
َا	-9.85897
اكتئاب	-9.86122
▁أقلّ	-9.86169
▁انك	-9.86178
اس	-9.86197
عيد	-9.8626
ذا	-9.86312
شتري	-9.86329
رك	-9.86355
▁افعل	-9.86388
▁الآ	-9.86465
يقود	-9.86479
▁السن	-9.86575
ربطة	-9.86771
تصرّف	-9.86787
غسل	-9.87139
▁نطق	-9.87372
سافر	-9.87409
▁شباب	-9.87444
▁يقوله	-9.87483
وك	-9.87809
سوق	-9.87826
▁تحتاجه	-9.87969
▁قرر	-9.88013
▁تن	-9.881
المؤبّد	-9.88119
▁كاش	-9.88166
حركة	-9.88173
▁مر	-9.88428
▁حفل	-9.8844
▁تبق	-9.88489
مناسبة	-9.88503
قطع	-9.8852
▁عش	-9.88565
يش	-9.88588
▁شفت	-9.88617
▁الواحد	-9.88627
▁دروس	-9.88671
▁ثانية	-9.88698
▁جيب	-9.88698
ائدة	-9.8884
َتْ	-9.88846
▁المناسب	-9.88933
▁هاتفه	-9.88935
▁باكر	-9.88966
صّح	-9.89032
حمل	-9.8914
▁الكبير	-9.89162
شرب	-9.89186
▁سأفعل	-9.89189
▁أحيانا	-9.89241
▁اهتمام	-9.89271
▁الجيد	-9.89335
حتاج	-9.89393
▁الصور	-9.89423
▁المسؤول	-9.89433
▁تلمس	-9.89464
كثر	-9.89469
▁بالطبع	-9.89551
▁إيطاليا	-9.89551
▁التّحقيق	-9.89551
▁إطفاء	-9.89551
▁الاثنين	-9.89551
▁الطقس	-9.89551
▁كريهة	-9.89551
▁الفوضى	-9.89552
▁تحصّل	-9.89552
▁النجدة	-9.89553
▁جواز	-9.89556
ركب	-9.8956
▁حمراء	-9.8956
▁توفّي	-9.89564
▁مغرم	-9.8957
▁الطلاب	-9.89582
▁الطيور	-9.89583
▁الدواء	-9.89584
▁أبكر	-9.89593
▁لمساعدتك	-9.89593
▁الطابق	-9.89594
▁ستعود	-9.89594
▁الأخضر	-9.89595
▁للمساعدة	-9.89598
▁المشروع	-9.896
▁النّوم	-9.89603
▁الاتصال	-9.89604
▁الأشجار	-9.89612
▁المطعم	-9.89614
▁الصنبور	-9.89617
▁تمطر	-9.8962
▁العلاقة	-9.89629
▁ضوء	-9.89631
▁دواء	-9.89634
▁بطلا	-9.89635
▁أستخدم	-9.89638
▁أسئلة	-9.89649
▁المساء	-9.89653
اته	-9.89655
▁كندا	-9.89659
▁الانجليزية	-9.89663
▁السابعة	-9.89667
▁نعيش	-9.89682
▁للمنزل	-9.89688
▁يبلغ	-9.89689
▁البحيرة	-9.89693
▁الكنيسة	-9.89695
▁العمر	-9.89708
▁سأبقى	-9.89717
▁انتبه	-9.89731
فه	-9.89732
▁المياه	-9.89732
▁التغيير	-9.89738
▁أُعجب	-9.8974
▁مرّات	-9.8974
▁الشوكولا	-9.89749
▁الأوراق	-9.89752
▁الدّواء	-9.89759
▁بُني	-9.89759
▁استقال	-9.89778
▁حصص	-9.89781
شارك	-9.89781
▁راغب	-9.89793
▁يضحك	-9.89793
▁تنام	-9.89822
▁فمك	-9.89838
▁يمشي	-9.89848
▁فا	-9.89863
▁العاشرة	-9.89866
▁زمن	-9.89872
▁رفاق	-9.89876
▁أوروبا	-9.89876
▁مذنب	-9.89885
▁تقريباً	-9.89903
▁عنصريّ	-9.89911
در	-9.89914
▁لمساعدة	-9.89933
▁كده	-9.89937
▁أقفل	-9.8994
▁عائلة	-9.89945
▁الفصل	-9.89951
▁الصوت	-9.89963
u	-9.8997
▁مرتين	-9.89971
▁يطلق	-9.89984
▁محتاج	-9.89986
▁لأحد	-9.89988
▁صرخ	-9.89996
▁رامي	-9.90004
▁عارف	-9.90007
▁اعتنق	-9.90008
▁النجاح	-9.90011
▁السّادسة	-9.90045
▁يفتح	-9.90071
ندلع	-9.90091
▁يتعلّم	-9.90095
▁هاتفك	-9.90108
▁الفور	-9.9012
▁مجتمع	-9.90236
▁قديمة	-9.90238
▁الثانية	-9.90261
▁ستفعل	-9.90269
▁مسلمين	-9.90285
▁عاماً	-9.90298
▁ممرّضة	-9.90332
يين	-9.90343
▁معرف	-9.90352
▁مريضة	-9.9039
▁أولاً	-9.90391
▁البكاء	-9.90419
▁المغادرة	-9.90488
▁أجرة	-9.90506
▁التفاحة	-9.90548
▁اسمك	-9.90558
عقد	-9.90566
▁الجوع	-9.90566
▁فر	-9.90578
طرح	-9.90589
▁والديك	-9.90667
شحال	-9.90697
▁وحده	-9.90744
▁تب	-9.90772
داعي	-9.90786
ّب	-9.90805
؟“	-9.90806
▁أحسن	-9.90827
▁جالس	-9.90842
▁غادرت	-9.90846
▁قهوة	-9.90869
▁الملك	-9.90878
▁بنفسي	-9.90887
▁النظر	-9.90898
▁نائما	-9.90962
▁تشعر	-9.91035
▁عدّة	-9.91041
▁نقود	-9.91082
▁نروح	-9.91103
▁العشرين	-9.91122
▁العدو	-9.91192
▁موجودة	-9.9125
▁جاءت	-9.91274
▁خطة	-9.91279
▁حوايج	-9.91325
▁مدرسة	-9.91333
▁شكّ	-9.91344
▁تحبني	-9.91412
▁عمري	-9.91442
▁عمرها	-9.91461
▁كلبا	-9.91468
▁فرّ	-9.91546
▁الأمل	-9.91593
ينا	-9.9168
▁نهار	-9.91694
ِك	-9.91695
فة	-9.9178
▁قابل	-9.91798
▁غض	-9.9187
▁إنهاء	-9.92004
▁مفاتيحه	-9.92072
▁وعلا	-9.92077
▁أما	-9.92129
▁أمين	-9.92151
▁كأنّ	-9.92157
▁أحس	-9.92188
▁صحيحة	-9.92193
▁قوله	-9.92257
▁منزلك	-9.92417
▁أتوقع	-9.92437
▁إنّه	-9.9246
▁اسمع	-9.92472
▁الدول	-9.92521
قبول	-9.92521
▁تكلّم	-9.92608
▁حاسوبه	-9.92613
▁متن	-9.92668
▁ز	-9.92699
▁لماري	-9.92727
▁حضر	-9.92828
▁بطاق	-9.92878
كوب	-9.92939
▁جعل	-9.92952
▁معهم	-9.9313
▁هرب	-9.9313
ثق	-9.93133
مغادرة	-9.93222
▁اترك	-9.93259
▁الطريقة	-9.93279
▁بلاد	-9.93431
▁رأيتها	-9.93492
▁غبيا	-9.93509
▁جمل	-9.93554
▁خال	-9.93612
▁تقابل	-9.93691
جمع	-9.93692
▁ظل	-9.937
▁المت	-9.93717
بال	-9.93757
▁بطريق	-9.93781
▁فرق	-9.93815
جر	-9.93865
اعة	-9.93884
▁استيقظت	-9.93906
قدّم	-9.93912
تحب	-9.94077
▁عليهم	-9.94152
▁الجد	-9.94178
▁المن	-9.9425
▁بفضل	-9.94253
يئة	-9.9427
▁أخته	-9.94539
▁لكنّه	-9.94634
▁حفظ	-9.94726
▁شأنه	-9.94922
▁الما	-9.94965
▁جانب	-9.95047
▁كله	-9.95197
▁فريق	-9.95257
▁اعتد	-9.95282
▁شاهدت	-9.95351
السّجن	-9.95354
تة	-9.95421
▁هلا	-9.95427
▁حسب	-9.95504
▁تفو	-9.95718
لع	-9.95817
▁سهلا	-9.95848
فعل	-9.95921
واصل	-9.961
رفة	-9.96123
خرج	-9.96132
اذا	-9.96252
ونه	-9.96374
▁الصحيح	-9.96493
▁فلا	-9.96517
▁المعلم	-9.96813
▁بلده	-9.96892
▁لهم	-9.97078
▁الط	-9.97164
▁الاست	-9.97167
بَ	-9.97223
نت	-9.97225
يلة	-9.9729
حرية	-9.9735
زواج	-9.97487
يز	-9.97757
▁أتمن	-9.97816
نِي	-9.98008
وشك	-9.98321
▁بأي	-9.98326
مس	-9.98359
▁أبيض	-9.98387
▁بح	-9.98501
نها	-9.98508
▁حوا	-9.98558
▁برنامج	-9.98561
ناطق	-9.98594
رحلة	-9.98738
▁جاي	-9.98867
▁لطال	-9.99016
جرح	-9.99065
▁بعمل	-9.99093
▁أقو	-9.99292
▁أق	-9.99304
▁العلم	-9.9933
لتقي	-9.99345
▁لق	-9.9937
▁لإ	-9.99421
ّف	-9.99472
0	-9.9959
▁لمن	-9.99835
▁الاستم	-9.99895
▁منّا	-9.99909
▁حلم	-9.99932
ّه	-10.0005
?	-10.0006
▁دور	-10.0009
▁تزوّج	-10.0018
لق	-10.0018
▁حكم	-10.0024
مات	-10.0034
▁عامل	-10.0053
▁كون	-10.0058
▁قم	-10.0066
▁الكريم	-10.0073
▁نظّارات	-10.0077
▁أَن	-10.0078
سائح	-10.0087
▁تركته	-10.0091
1	-10.0106
ستة	-10.0121
شتغل	-10.0122
▁يقل	-10.0141
طاقة	-10.0145
▁مَن	-10.015
جارة	-10.0163
▁شا	-10.0168
با	-10.0168
▁تحس	-10.0182
▁نمت	-10.0185
سبح	-10.0195
▁أنتم	-10.0198
▁جو	-10.0225
مليون	-10.0226
درس	-10.0233
▁عمّا	-10.0243
بد	-10.0252
▁العقل	-10.0263
واجه	-10.0268
▁مم	-10.0279
▁مسجد	-10.0288
نَ	-10.0297
▁حامل	-10.0306
عطيك	-10.0307
▁فظيع	-10.0313
▁محظوظ	-10.0314
وش	-10.0315
▁بدّ	-10.0317
▁تروح	-10.0321
▁أست	-10.0322
▁السّادس	-10.0327
▁مل	-10.033
عدالة	-10.0332
نّا	-10.0334
▁تأخر	-10.0335
▁الثاني	-10.0339
▁بالقر	-10.0348
▁رجاء	-10.0349
▁يدخل	-10.0349
▁بالإ	-10.0353
▁فات	-10.0365
▁فور	-10.0366
خاطر	-10.0367
وس	-10.0368
طرف	-10.0368
كر	-10.0369
▁عا	-10.037
▁حيوان	-10.0372
▁والديه	-10.0373
i	-10.0383
t	-10.0383
وز	-10.0383
4	-10.0383
▁السّيّارات	-10.0384
▁القميص	-10.0384
▁بالشّهادة	-10.0384
سوء	-10.0384
▁الواضح	-10.0384
▁القاموس	-10.0384
▁الرواية	-10.0384
▁القرآن	-10.0384
▁ضجّة	-10.0384
▁القلعة	-10.0384
▁النّظر	-10.0384
▁خبز	-10.0384
▁بمفرده	-10.0384
▁إسعاف	-10.0384
▁يهتم	-10.0385
▁سلاح	-10.0386
▁الأولاد	-10.0386
▁القدس	-10.0386
▁دراسته	-10.0386
▁غالية	-10.0387
▁كويس	-10.0387
▁توجّه	-10.0387
▁الجلوس	-10.0388
▁الإفطار	-10.0388
▁الرّياضيّات	-10.0388
▁حدود	-10.0389
▁يرقص	-10.0389
▁اختفت	-10.0389
▁تعجبني	-10.0389
▁أبدًا	-10.0389
▁يصرخ	-10.0389
▁الحساب	-10.039
▁سقسا	-10.039
حديقة	-10.0391
▁القصائد	-10.0391
▁بالحقيقة	-10.0391
▁غدًا	-10.0391
▁سيحصل	-10.0392
▁بجهد	-10.0392
▁تنهد	-10.0392
▁المضرب	-10.0393
▁الرجال	-10.0394
▁الطّلاق	-10.0395
▁العكس	-10.0396
▁بالسيارة	-10.0396
▁مازلت	-10.0397
▁القديمة	-10.0397
▁الغابة	-10.0398
▁الرياضية	-10.0398
▁التزلج	-10.04
▁أولاد	-10.0402
▁إذهب	-10.0402
▁الباص	-10.0402
▁المخدّرات	-10.0402
▁أساس	-10.0403
▁يمارس	-10.0403
▁لغتي	-10.0404
▁يحضر	-10.0405
ريد	-10.0405
▁أُريد	-10.0405
▁الدّكتور	-10.0406
▁النقود	-10.0406
▁القلب	-10.0407
▁البريد	-10.0408
▁تستمع	-10.0409
▁لجمال	-10.041
▁استطعت	-10.0413
▁مولود	-10.0415
▁لنذهب	-10.0416
▁يرج	-10.0416
▁المتعة	-10.0417
▁وش	-10.0418
▁المشتبه	-10.0418
▁البشرية	-10.0418
▁اجلس	-10.0418
▁الحقيقية	-10.0419
▁دراجة	-10.0419
▁القيادة	-10.0419
▁ذاهبون	-10.0419
▁نتائج	-10.0421
▁القرن	-10.0422
▁حبّيت	-10.0423
▁أوساكا	-10.0423
▁الحمام	-10.0423
تصال	-10.0425
▁ادخل	-10.0425
▁تسرع	-10.0428
له	-10.0428
▁متعباً	-10.0429
▁أستع	-10.043
▁نظيفة	-10.043
▁القلم	-10.0431
نني	-10.0433
▁زوجها	-10.044
▁هن	-10.0441
▁إفعل	-10.0447
▁حلوة	-10.0447
▁جبان	-10.045
غاية	-10.045
▁الألم	-10.0451
▁الميلاد	-10.0452
▁الصّباح	-10.0453
▁عصير	-10.0453
▁سرع	-10.0455
▁تحصل	-10.0456
ئك	-10.0457
▁نس	-10.0457
▁تتّصل	-10.0457
▁معتاد	-10.0458
▁درجة	-10.0459
شتاق	-10.0461
▁الراحة	-10.0463
▁مدرس	-10.0463
▁شجرة	-10.0464
فترة	-10.047
▁نتحدث	-10.0472
▁أثق	-10.0475
▁يفكّر	-10.0476
مدرّسنا	-10.0476
▁بصح	-10.0477
▁لسبب	-10.0479
▁سهلة	-10.048
▁الجوّ	-10.0481
▁جريمة	-10.0482
▁الصينية	-10.049
تم	-10.049
▁حالا	-10.0493
▁أحلام	-10.0497
▁سررت	-10.0501
▁أساعدك	-10.0503
▁تقديم	-10.0505
▁الأمازيغيّة	-10.0506
▁الدراسة	-10.0507
خصوص	-10.0512
▁لنلعب	-10.0513
▁عجلة	-10.0515
▁دروسا	-10.0518
▁سام	-10.0523
▁وأن	-10.0526
▁القدر	-10.0529
▁النّ	-10.0529
▁سيئا	-10.053
▁ردّ	-10.0531
رات	-10.0532
▁بالأمر	-10.0541
▁ربح	-10.0545
▁الدرس	-10.0553
افة	-10.0553
ياً	-10.0559
▁الورق	-10.056
5	-10.0563
ميّز	-10.0564
▁مسيحيّة	-10.0575
▁تعطي	-10.0587
▁لبس	-10.059
▁أكلت	-10.059
▁تفقد	-10.0591
▁عنصريّة	-10.0593
▁أبقى	-10.0596
▁بكى	-10.0597
▁ينتظرون	-10.0605
▁أوقف	-10.0612
ملكة	-10.0615
▁أمضيت	-10.0618
▁نقل	-10.062
▁عملك	-10.062
▁وافق	-10.0621
▁آخرين	-10.0622
▁حُك	-10.0623
▁لولا	-10.063
▁يعرفون	-10.0632
▁طبيباً	-10.0635
▁كنتِ	-10.0636
▁وهي	-10.0637
مئة	-10.0644
▁أشرب	-10.0645
▁قليلاً	-10.0646
▁العقلي	-10.0657
▁طريقي	-10.0658
طلق	-10.066
مور	-10.0667
▁دينه	-10.0689
كما	-10.0689
▁يترك	-10.0701
ّل	-10.0708
▁باسم	-10.071
▁أسود	-10.0718
▁أمريكي	-10.0735
سيء	-10.0746
▁بناء	-10.0758
▁المع	-10.0761
بر	-10.0762
▁أمض	-10.077
▁طعمه	-10.0782
إلى	-10.0794
تر	-10.0797
▁المشي	-10.0801
▁اكتب	-10.0803
▁بأنّه	-10.0804
▁إي	-10.0813
▁صفع	-10.0836
دين	-10.0839
▁أتحب	-10.084
▁أحبها	-10.0865
تأخر	-10.0874
“	-10.0886
▁أرض	-10.0889
▁أمل	-10.089
نصف	-10.0896
▁مكانك	-10.0906
▁عملي	-10.0934
▁صديقته	-10.0939
أن	-10.0951
▁حصلت	-10.0955
كره	-10.0969
▁عرب	-10.0987
▁أعلى	-10.0992
▁رفع	-10.0995
▁حيال	-10.1004
جلس	-10.1007
▁الشي	-10.1009
▁الأمريكي	-10.1017
▁الحكم	-10.1019
شرح	-10.1022
َّ	-10.1028
▁الخلفي	-10.1034
▁المركز	-10.1034
▁كذب	-10.1038
تِ	-10.1049
مان	-10.1069
▁خسر	-10.107
▁حدّ	-10.1071
▁ض	-10.1074
▁رأيه	-10.1078
روحي	-10.1081
▁وحيد	-10.1085
▁الخ	-10.1116
▁كاد	-10.1116
▁لحيات	-10.1124
▁تد	-10.1134
تخيل	-10.1137
▁حصّ	-10.1138
▁بحب	-10.116
جرة	-10.1175
▁للتّ	-10.1185
▁أف	-10.1188
جع	-10.1201
▁كأسا	-10.1217
قبل	-10.122
▁قالته	-10.1235
نخرج	-10.1239
▁سيساعد	-10.1239
▁أبو	-10.1255
▁غضب	-10.1264
...	-10.1267
▁وُلدت	-10.1268
ربح	-10.1273
وف	-10.1279
حقّ	-10.1279
لشراء	-10.1287
قضي	-10.129
اح	-10.1295
▁سيّارته	-10.1298
عود	-10.1304
هدّد	-10.1315
▁كتابا	-10.1317
▁ول	-10.1326
▁يؤ	-10.1345
سا	-10.1357
▁قوي	-10.1359
▁تلق	-10.1361
رجل	-10.1373
▁انتباه	-10.1389
يء	-10.1394
▁بق	-10.1398
ائك	-10.1398
▁قرب	-10.141
ناه	-10.1415
▁أعرفه	-10.1416
يهما	-10.1425
جلب	-10.1443
سّن	-10.1447
ربية	-10.1448
▁رش	-10.145
داً	-10.1453
▁3	-10.1475
ترجم	-10.1495
▁بطل	-10.1499
▁مناسب	-10.1515
الأمازيغية	-10.1533
▁نزل	-10.1534
▁تخلّ	-10.1542
▁أخت	-10.1546
ً؟	-10.155
سامي	-10.1555
ساني	-10.1563
▁حصان	-10.1566
ثّل	-10.1571
▁تست	-10.1577
▁عنق	-10.1579
▁يق	-10.158
دور	-10.1585
▁ملكي	-10.1592
▁مسؤول	-10.1597
نطلق	-10.1606
▁ذ	-10.1621
سبب	-10.1626
ِهِ	-10.164
يق	-10.1642
▁تصل	-10.1647
▁الغ	-10.1652
لقيام	-10.1665
عشق	-10.1668
ؤ	-10.1671
▁استغرق	-10.1688
الك	-10.1688
▁للأم	-10.1691
▁نف	-10.1699
ادة	-10.1707
▁إنّك	-10.1709
▁مح	-10.1713
َذَ	-10.1719
▁منهم	-10.1726
رّ	-10.1732
▁أعطت	-10.1736
▁سيد	-10.1743
▁اخترت	-10.1751
▁قلق	-10.1752
أربعة	-10.1754
▁شوي	-10.1773
فق	-10.1774
قوّة	-10.1777
▁شكل	-10.1785
▁عيني	-10.1786
▁نادرا	-10.1791
َانَ	-10.1804
▁وأنت	-10.1808
جزء	-10.1809
حاب	-10.1809
▁قدر	-10.1813
رجع	-10.1816
عرض	-10.1819
▁دان	-10.182
تظاهر	-10.1832
▁اخت	-10.1832
▁ژ	-10.185
▁شاي	-10.1853
شر	-10.1856
بل	-10.1857
▁للم	-10.1863
▁أعاد	-10.1874
▁نقول	-10.1879
▁ممتع	-10.1879
▁بالكا	-10.1887
دو	-10.1888
جب	-10.1891
غنية	-10.1895
d	-10.1906
▁فلسطين	-10.193
▁رأت	-10.1944
بارح	-10.1949
▁ابنته	-10.1949
زداد	-10.1957
وى	-10.1964
حافظ	-10.1965
دّار	-10.1967
▁مفتوحا	-10.1968
▁ممتاز	-10.199
تموت	-10.199
▁نحو	-10.1997
▁الأس	-10.2002
▁قصير	-10.2009
▁بط	-10.201
▁ابنه	-10.2012
▁ابتسم	-10.2017
▁نعرفه	-10.2018
▁شاب	-10.202
▁جد	-10.2023
▁مساف	-10.2023
▁حقيقة	-10.2028
آلة	-10.2034
▁الطائر	-10.2035
▁بإ	-10.2036
نتج	-10.2041
ـ	-10.2045
▁خاتم	-10.2046
علم	-10.2048
▁أوافق	-10.2049
‬	-10.205
▁الظّهيرة	-10.205
▁الكاميرا	-10.205
▁صندوق	-10.205
▁الإجتماع	-10.205
▁بأكمله	-10.205
▁دراجتي	-10.205
▁إسحاق	-10.205
▁الفائت	-10.205
▁الشيطان	-10.205
▁طباخ	-10.205
▁تتزوج	-10.205
▁الدّراسة	-10.205
▁للأبد	-10.2051
▁المحيط	-10.2051
▁البذلة	-10.2051
▁سعداء	-10.2051
▁دراسيّة	-10.2051
▁البوابة	-10.2051
▁بِتِي	-10.2051
▁قُتل	-10.2051
▁العلوي	-10.2051
▁للميلاد	-10.2051
▁كرّس	-10.2051
▁كَم	-10.2051
▁للأسف	-10.2052
▁المسرح	-10.2052
▁البلاد	-10.2052
▁تسبّب	-10.2052
▁الإسرائيلي	-10.2052
▁ستغادر	-10.2052
تعقّب	-10.2053
▁مساعدته	-10.2053
▁وسيم	-10.2054
▁مخ	-10.2054
▁الأشخاص	-10.2054
▁الفطور	-10.2054
▁المستحيل	-10.2054
▁وسادة	-10.2054
▁للشّرطة	-10.2055
▁مساعدتي	-10.2055
▁بسهولة	-10.2055
▁العبرية	-10.2055
▁طلاب	-10.2056
▁اليونان	-10.2056
▁عديدة	-10.2056
▁الجسر	-10.2057
▁الضوء	-10.2057
▁كعكة	-10.2057
▁تصرخ	-10.2057
▁سفرك	-10.2057
▁بالقطار	-10.2057
▁يعجبني	-10.2058
▁الخيال	-10.2058
▁المباراة	-10.2058
▁حقيبتي	-10.2058
▁الهواء	-10.2058
▁يستخدم	-10.2058
▁الفاتورة	-10.2058
جمّع	-10.2059
▁حقيقية	-10.2059
▁سُرق	-10.206
▁كولّش	-10.206
▁قانوني	-10.206
▁نفعل	-10.2061
▁الرقص	-10.2061
▁الحقيبة	-10.2062
▁عمتي	-10.2063
▁ديالك	-10.2063
▁مسرور	-10.2064
دودة	-10.2065
▁المرحلة	-10.2067
▁سفينة	-10.2067
▁واجباتك	-10.2068
▁بالفرنسية	-10.2068
▁عطشان	-10.2069
اري	-10.2069
▁فاهم	-10.2069
▁تصدر	-10.207
▁محفظتي	-10.207
▁يصل	-10.207
▁أخاف	-10.2071
▁متأخراً	-10.2072
▁عالية	-10.2072
مسبح	-10.2074
▁أرجوك	-10.2074
▁الزمن	-10.2074
▁السفينة	-10.2074
▁المطاف	-10.2075
▁حضور	-10.2075
▁المرور	-10.2076
▁يتحرّك	-10.2076
▁بالتّ	-10.2076
▁بعضكما	-10.2076
▁الثامنة	-10.2077
▁مظلة	-10.2077
▁غيبوبة	-10.2077
▁الرابعة	-10.2077
▁التفكير	-10.2078
▁الأكبر	-10.2078
▁بارع	-10.2078
▁تغادر	-10.2079
▁القبائل	-10.2079
▁الإسبانية	-10.2079
قصد	-10.208
▁عمود	-10.208
▁اختار	-10.208
▁السرطان	-10.2081
▁الأسعار	-10.2082
▁أخيراً	-10.2082
▁زوجتي	-10.2084
▁سرطان	-10.2084
▁ألمانيا	-10.2084
▁تنوي	-10.2084
▁المبنى	-10.2087
▁بالكثير	-10.2087
▁الخدمة	-10.2088
▁مترجم	-10.2089
▁أخبرتني	-10.209
▁الخشب	-10.209
▁يطرح	-10.209
▁الجميلة	-10.2092
▁سليمة	-10.2092
▁عصفور	-10.2093
▁يتلقّ	-10.2095
▁سريعة	-10.2097
▁اخترع	-10.2099
▁لنأكل	-10.21
▁تمشي	-10.21
▁مبكراً	-10.21
▁أوّل	-10.2102
▁راهو	-10.2103
▁الجبنة	-10.2105
▁مملة	-10.2105
▁حافلة	-10.2106
▁المذياع	-10.2107
▁معقول	-10.2107
▁مثاليّة	-10.2108
▁كف	-10.2109
▁وحيداً	-10.2109
▁قاموسك	-10.2111
▁أستمع	-10.2112
مايوكو	-10.2112
▁يصنع	-10.2113
▁لطفك	-10.2113
▁الفكرة	-10.2114
▁ألست	-10.2115
▁الدّين	-10.2116
▁سجل	-10.2116
▁تسبب	-10.2118
▁تقف	-10.2119
▁ملابسك	-10.2119
▁الأمريكية	-10.2119
▁يخفي	-10.212
▁ذئب	-10.2123
▁ورقة	-10.2126
▁تركض	-10.2129
▁الحدود	-10.2129
▁صاحبة	-10.2129
▁قادمة	-10.2136
▁كتير	-10.2137
▁اخرج	-10.2139
▁هوايت	-10.2143
▁التقط	-10.2145
▁أصاب	-10.2147
▁قيل	-10.2149
▁جرى	-10.215
▁سياسة	-10.2151
▁أختك	-10.2153
▁روما	-10.2155
▁القتل	-10.2158
▁استعمال	-10.2159
▁أَنْ	-10.2162
▁يأخذ	-10.2164
▁كلامه	-10.2164
▁مسكون	-10.2164
▁اختبار	-10.2166
▁مرور	-10.2168
▁الصّور	-10.2169
▁الحرية	-10.2174
▁سألته	-10.2175
▁إلينا	-10.2175
▁يَ	-10.2178
▁الحم	-10.2178
▁عثر	-10.2181
▁والدك	-10.2182
▁أعدك	-10.2182
▁وعدت	-10.2188
▁ثانيةً	-10.2189
▁القول	-10.2191
▁يدي	-10.2192
▁السياحية	-10.2195
▁الو	-10.2201
▁ماهر	-10.2203
▁علابالي	-10.2206
▁إبن	-10.2206
▁جديداً	-10.2206
▁عَلَى	-10.221
▁متأكّد	-10.222
▁مازال	-10.2231
▁واع	-10.2241
▁رَ	-10.2243
▁سجن	-10.2243
▁لوحدي	-10.2244
▁يدع	-10.2247
▁وعيه	-10.225
َنْ	-10.2251
▁نسخ	-10.2253
▁شر	-10.2256
▁بوسعه	-10.2257
فل	-10.2259
▁فعلته	-10.2268
▁خلاص	-10.2273
▁واحداً	-10.2279
▁آه	-10.2288
▁نتا	-10.2292
مراقبة	-10.2292
▁سمح	-10.2294
وفاة	-10.2296
▁طرق	-10.2297
شباب	-10.2303
قارب	-10.2304
جز	-10.2306
يح	-10.231
سائل	-10.231
▁صعد	-10.2316
▁خطأً	-10.2317
▁حالاً	-10.2317
▁جلب	-10.232
▁حذاءه	-10.2329
▁متر	-10.2331
▁قابلتها	-10.2335
▁شعرك	-10.2336
▁خلق	-10.2338
اها	-10.234
▁فرش	-10.2342
عمّري	-10.2345
▁فورا	-10.2349
تو	-10.235
▁فمه	-10.2351
▁خبر	-10.2354
▁تريده	-10.2355
حكم	-10.2358
▁أقدم	-10.2358
تنسى	-10.2361
▁أنهم	-10.2366
▁وأ	-10.2368
▁خلفي	-10.2368
▁إخبار	-10.2375
▁الطالب	-10.2378
▁جواب	-10.2384
▁يقولون	-10.2388
محاولة	-10.2388
▁قطار	-10.2394
▁شعرها	-10.24
▁مدرّسة	-10.2406
▁أح	-10.2408
لف	-10.241
▁مشيت	-10.2414
▁تترك	-10.2424
▁إخباري	-10.2425
▁مقابل	-10.2434
▁صغيرا	-10.2435
▁جعلت	-10.2436
▁حا	-10.2437
▁زوجي	-10.2447
▁شارك	-10.245
▁أَ	-10.2463
▁عما	-10.2471
لدرجة	-10.2472
عارض	-10.2486
▁الصبي	-10.2498
لمزيد	-10.2507
▁جميعا	-10.2508
باً	-10.2509
▁ببعض	-10.2511
▁بمث	-10.2511
ً!	-10.252
ساعدك	-10.2524
▁تعطل	-10.2529
طيب	-10.2531
قي	-10.2531
ّط	-10.2537
▁تصرّف	-10.2542
▁نض	-10.2544
رني	-10.2544
▁شأن	-10.2544
▁جمع	-10.2545
▁واجب	-10.2558
▁تخون	-10.2564
▁أع	-10.257
يم	-10.2573
▁المدرس	-10.2574
ضرب	-10.2574
صح	-10.2579
طرد	-10.2579
▁عدا	-10.2588
نقطة	-10.2598
▁قاعد	-10.2604
▁قصد	-10.2609
ِر	-10.261
▁خلع	-10.2631
نتهيت	-10.2632
▁الزّن	-10.2635
▁أش	-10.2637
▁تراه	-10.2645
طل	-10.2665
بقَ	-10.2668
▁أغ	-10.2672
ّت	-10.2674
▁محلّ	-10.2677
اية	-10.2677
فا	-10.2679
▁صاحب	-10.2687
▁اليس	-10.2694
▁رو	-10.2694
بق	-10.2695
▁تماماً	-10.2696
ُّ	-10.2696
▁أحبه	-10.2698
▁ولكنه	-10.27
▁اله	-10.2717
احيّة	-10.2722
▁قف	-10.2725
رج	-10.2728
▁مضى	-10.2739
َر	-10.2739
▁كول	-10.274
▁يتبع	-10.2752
فَ	-10.2753
يقدّم	-10.2762
▁كبيرا	-10.278
رؤيته	-10.2783
▁قاتل	-10.2785
▁أُح	-10.2786
متوسط	-10.2796
ديني	-10.2804
رنا	-10.2805
▁1	-10.2808
سير	-10.2825
أكون	-10.2826
ثبت	-10.2828
▁منزلها	-10.2834
▁الظ	-10.2835
شجار	-10.2846
ائب	-10.2847
▁عندو	-10.2847
▁مرّ	-10.2853
جل	-10.2856
لاّ	-10.2863
صِل	-10.2871
▁يو	-10.2886
▁سم	-10.2898
▁ينجح	-10.2916
سّل	-10.2951
قاء	-10.2956
▁خاص	-10.2987
دما	-10.2993
▁جدير	-10.2993
▁الان	-10.2993
▁كأس	-10.2994
ُهُ	-10.2999
قرأ	-10.3005
▁تغير	-10.3009
دير	-10.301
▁رائعا	-10.3027
▁أساعد	-10.3043
▁سَ	-10.3047
باب	-10.3047
▁محل	-10.3055
كو	-10.3066
▁مثلك	-10.308
علبة	-10.3094
▁شو	-10.3101
▁والديّ	-10.3107
▁متزوج	-10.311
صعب	-10.3111
▁لالا	-10.3114
▁ذا	-10.3117
▁بثلاث	-10.3125
هر	-10.3129
▁المهم	-10.313
باء	-10.3132
عشرون	-10.3134
▁الخلف	-10.3137
فاق	-10.314
▁عود	-10.3144
▁لت	-10.3144
▁أبوه	-10.3152
وردة	-10.3158
يها	-10.3159
يشة	-10.3161
▁تظاهر	-10.3181
▁أقوله	-10.3186
▁والم	-10.3201
▁حز	-10.3207
يوتوب	-10.3207
▁وصف	-10.3226
▁ينس	-10.3234
اسية	-10.324
▁يومي	-10.3241
عمال	-10.3241
▁نبي	-10.3242
▁سير	-10.325
قاطع	-10.3254
أخذ	-10.3258
فّ	-10.327
ضى	-10.3284
▁لأنّ	-10.3312
▁لعبة	-10.3313
اقة	-10.3314
▁ولم	-10.3316
8	-10.3318
ينما	-10.3319
َرَ	-10.332
▁معاه	-10.3338
▁انتظرت	-10.334
▁عان	-10.334
شبه	-10.3345
قصة	-10.3349
بح	-10.3354
فئة	-10.3365
▁كأنه	-10.3373
▁اشت	-10.3386
▁اختيار	-10.339
▁نشر	-10.3391
ِيَ	-10.3393
▁سمعته	-10.3398
▁ليلي	-10.3435
▁يعان	-10.3438
▁آمن	-10.3439
تثق	-10.3448
▁بشر	-10.3449
▁قص	-10.345
احة	-10.3453
قوانين	-10.3462
أخرى	-10.3475
ضيع	-10.3475
صير	-10.3487
مر	-10.3496
▁المرض	-10.35
انة	-10.3503
▁أرسلت	-10.3517
تأكد	-10.3524
▁خطاب	-10.3533
▁أمها	-10.3536
كشف	-10.3556
▁الإلكتروني	-10.3563
▁ماء	-10.3569
َك	-10.357
▁الحالي	-10.3585
ستمرّ	-10.3593
▁غرف	-10.3597
شاء	-10.3599
▁ساعد	-10.3608
فقد	-10.3608
▁عندها	-10.361
▁أري	-10.3615
▁صديقك	-10.3619
▁بأس	-10.3625
▁أحببت	-10.3625
▁شكله	-10.3634
شأ	-10.3636
▁الأب	-10.3637
نع	-10.3657
اهما	-10.3663
ستان	-10.3665
▁أعطيت	-10.3686
3	-10.3705
وصف	-10.3706
عدّ	-10.3718
رو	-10.372
رؤية	-10.372
آكل	-10.3732
لندا	-10.3737
▁غالب	-10.3738
لديك	-10.3739
▁معال	-10.374
▁مشغولا	-10.3746
فلسطينيّين	-10.375
▁قار	-10.3754
▁يفعله	-10.3754
ؤون	-10.3763
قتل	-10.3766
ساد	-10.3776
َةَ	-10.3785
▁نائم	-10.3795
▁ميلادي	-10.3804
▁خدع	-10.3809
▁اغت	-10.3813
حذاء	-10.3815
َمْ	-10.3817
لينا	-10.3822
عُد	-10.3833
زان	-10.3837
▁مجنون	-10.3845
▁ترتد	-10.385
هوم	-10.3855
▁الجر	-10.3861
▁نصح	-10.3861
▁دا	-10.3865
هدأ	-10.3867
حر	-10.3869
▁مثال	-10.3871
انتباه	-10.3881
▁مصري	-10.3883
m	-10.3885
أمل	-10.389
▁جرب	-10.3891
▁قضي	-10.3897
ضايق	-10.3903
▁قُ	-10.3904
ڨ	-10.3905
جعلك	-10.391
▁بريد	-10.3912
▁أعمال	-10.3919
رجاء	-10.3922
▁كو	-10.3924
▁العرب	-10.393
▁بسيّارته	-10.3932
▁أبيه	-10.3946
كة	-10.3948
ِل	-10.3954
جهاز	-10.3959
▁أرد	-10.3966
▁عدت	-10.3977
▁مشاعر	-10.3978
بقي	-10.3985
▁المسلم	-10.3985
▁إياه	-10.3992
▁الكعك	-10.3993
▁إما	-10.3994
▁مؤخر	-10.3996
▁الجبن	-10.3999
▁الأوان	-10.4003
▁الأخير	-10.4005
▁الأمام	-10.4006
▁المرأ	-10.401
▁المشكل	-10.4012
بدّل	-10.4013
▁المفضّل	-10.4014
▁قديم	-10.4018
▁تغ	-10.4022
▁إنته	-10.4024
▁يضرب	-10.4025
▁شيئ	-10.4026
▁مسيحي	-10.403
به	-10.403
▁أراه	-10.403
7	-10.404
▁الحيوان	-10.4041
▁اللَّه	-10.4042
▁فرنسي	-10.4044
▁كولّ	-10.4049
e	-10.4049
99	-10.405
)	-10.405
٦	-10.405
▁إدخال	-10.405
▁الاتّصال	-10.405
▁البربرية	-10.405
▁الصندوق	-10.405
▁النبيذ	-10.405
▁مفاجأة	-10.405
▁وظيفتك	-10.405
▁النوافذ	-10.405
▁الإسعاف	-10.405
▁العنوان	-10.405
صعوبات	-10.405
▁الحشرات	-10.405
▁الرّحيل	-10.405
▁بمفردي	-10.405
▁ترامب	-10.405
▁الخمسة	-10.405
▁السّباحة	-10.4051
▁الذكاء	-10.4051
▁الأزهار	-10.4051
▁الفاكهة	-10.4051
▁المريخ	-10.4051
▁يتزوج	-10.4051
▁تشاجرت	-10.4051
▁للسباحة	-10.4051
▁أصحاب	-10.4051
▁بالملل	-10.4051
▁شوارع	-10.4051
▁بتاتا	-10.4051
▁الفيديوهات	-10.4051
إتقان	-10.4051
▁الحاضر	-10.4051
▁تمزح	-10.4051
▁الشّخص	-10.4051
▁أدنى	-10.4051
▁الحساء	-10.4051
▁الخريف	-10.4051
ثلاجة	-10.4052
▁كاميرا	-10.4052
▁مجراها	-10.4052
ثلج	-10.4052
▁غطاه	-10.4052
▁اختبأ	-10.4052
▁الربيع	-10.4052
▁اْل	-10.4052
▁سابقًا	-10.4052
▁بالإعدام	-10.4053
▁غيور	-10.4053
▁مذهل	-10.4053
▁الرّجل	-10.4054
دخّن	-10.4054
▁السّرير	-10.4054
▁لفريد	-10.4054
سبوع	-10.4054
▁إشتريت	-10.4055
▁سيتزوّج	-10.4055
طونوبيل	-10.4055
▁مزدحم	-10.4055
▁الصّوتيّة	-10.4055
▁خالص	-10.4055
▁الدّرس	-10.4056
▁يراقب	-10.4056
▁إرهابيّين	-10.4056
▁مريم	-10.4056
▁الجدار	-10.4056
▁للاهتمام	-10.4056
▁الضيق	-10.4056
▁بالخارج	-10.4056
▁العشب	-10.4057
▁أيضًا	-10.4057
▁بحذر	-10.4057
▁الأحياء	-10.4057
▁أستراليا	-10.4057
▁خاصّة	-10.4058
▁الثالثة	-10.4058
▁التاسعة	-10.4058
▁ينظّف	-10.4058
▁الأبرياء	-10.4059
▁الثانوية	-10.4059
▁أسماء	-10.4059
▁الصفحة	-10.4059
▁مضحكة	-10.4059
▁الورود	-10.4059
▁السقف	-10.4059
▁أهمية	-10.406
▁ساعدتني	-10.406
▁عجوز	-10.406
▁ستبدأ	-10.406
زرع	-10.406
▁للسياح	-10.4061
▁العصافير	-10.4061
▁للأكل	-10.4061
▁خشي	-10.4062
▁للأطفال	-10.4062
▁يورو	-10.4063
▁الأصوات	-10.4063
▁تختار	-10.4063
▁لدقيقة	-10.4064
▁أبواب	-10.4064
▁مزعج	-10.4064
▁براون	-10.4064
▁يقابل	-10.4064
▁فخّ	-10.4065
▁الهدية	-10.4066
▁سأحاول	-10.4066
▁لسنوات	-10.4066
▁اعتاد	-10.4066
▁يطبخ	-10.4067
ُكُمْ	-10.4067
▁حذاء	-10.4067
▁مشروع	-10.4068
▁سبعة	-10.4068
▁مفيدة	-10.4068
تّع	-10.4068
▁للحظة	-10.4068
▁مدرستنا	-10.4069
بور	-10.4069
▁صفعته	-10.4069
▁جنسيّا	-10.407
▁ممتن	-10.407
▁يتغير	-10.407
▁احجز	-10.407
▁البناء	-10.4071
▁للشرب	-10.4071
▁أطفأ	-10.4072
▁الأسنان	-10.4072
▁اللّغات	-10.4072
▁القرية	-10.4072
▁ثمانية	-10.4072
▁الحظ	-10.4073
▁نّاس	-10.4073
▁الوضع	-10.4073
▁أغرب	-10.4074
▁اسأل	-10.4074
▁الجيش	-10.4074
▁اصطحب	-10.4075
▁الهند	-10.4075
▁راتب	-10.4076
▁تجعل	-10.4076
▁الملح	-10.4076
▁وَاشْ	-10.4077
▁إجابة	-10.4078
▁حالياً	-10.4079
▁الاعت	-10.4079
▁القاعة	-10.408
▁يقطن	-10.4081
▁يدرّس	-10.4081
▁الأبواب	-10.4081
▁سؤالاً	-10.4081
▁سآخذ	-10.4081
▁مركز	-10.4082
▁سيصل	-10.4082
▁التذاكر	-10.4083
▁الأفكار	-10.4084
▁ركب	-10.4084
▁قدميه	-10.4084
▁لنبدأ	-10.4085
▁الرّسائل	-10.4085
▁حزين	-10.4085
▁مستاءا	-10.4086
▁النور	-10.4086
▁الطيران	-10.4086
▁الهجوم	-10.4087
▁برفق	-10.4087
▁اضغط	-10.4089
▁الخوف	-10.4089
▁أعتذر	-10.409
▁لاصط	-10.409
▁راجل	-10.4091
▁عشيق	-10.4095
▁السجن	-10.4095
لب	-10.4095
▁يسوق	-10.4095
▁بيانو	-10.4095
▁واجباتي	-10.4096
▁هاجم	-10.4096
▁الخامسة	-10.4096
▁جز	-10.4096
▁تتعلّم	-10.4099
أمين	-10.4101
▁أهلاً	-10.4103
▁نموذج	-10.4103
▁وظيفته	-10.4104
▁تلميذ	-10.4104
▁أثار	-10.4104
▁صحيحًا	-10.4106
▁راهوم	-10.4106
▁يعجبك	-10.4107
جوبة	-10.4107
عتني	-10.4107
▁وإذا	-10.4108
▁لحادث	-10.4109
▁الاجتماعية	-10.4109
▁باكراً	-10.411
▁الكعكة	-10.411
▁عائلتي	-10.411
▁أفعال	-10.4112
▁أعمى	-10.4112
▁أحياناً	-10.4112
▁جميعًا	-10.4113
▁دولارات	-10.4114
▁بجدّ	-10.4114
▁بالعمل	-10.4115
▁الأزرق	-10.4116
▁اكبر	-10.4116
▁مفاتيحي	-10.4117
▁مدين	-10.4119
▁بعضهما	-10.412
▁الطرق	-10.412
▁البنك	-10.4121
▁يقف	-10.4121
▁صعوبة	-10.4121
▁بقتل	-10.4122
▁عنوانك	-10.4122
▁ذو	-10.4123
▁المستشفي	-10.4124
لح	-10.4124
▁صفحة	-10.4126
▁اغسل	-10.4128
▁يصدّق	-10.4129
▁روحك	-10.4135
▁تجارة	-10.4135
▁ترجم	-10.4136
▁النهار	-10.4137
▁نو	-10.4137
▁ورطة	-10.4137
▁فشلت	-10.4138
▁معايا	-10.4139
▁أخبرتها	-10.4139
▁أثر	-10.414
تعامل	-10.414
نيش	-10.4143
▁أصدقائ	-10.4143
▁استخدامها	-10.4147
▁بدين	-10.4148
▁واجبي	-10.4149
▁قضية	-10.4149
▁يشتغل	-10.4152
▁قوية	-10.4153
▁الثقاف	-10.4154
▁تفضّل	-10.4154
▁ننتظر	-10.4156
▁منصب	-10.4157
▁أشعل	-10.4159
▁افتح	-10.416
▁سألتني	-10.416
ورشة	-10.4163
▁طالباً	-10.4164
تا	-10.4164
▁الصديق	-10.4165
▁رمز	-10.4167
وقعت	-10.4167
▁السّف	-10.4168
▁أوي	-10.4168
اود	-10.417
▁الإسبرانتو	-10.4173
▁أشياء	-10.4175
▁أثّر	-10.4177
جذب	-10.4177
▁الذ	-10.4178
▁جي	-10.4179
▁عشان	-10.4179
▁ممتعة	-10.418
▁حديث	-10.4182
▁فإنّ	-10.4184
▁صحيحاً	-10.4186
▁مستيقظ	-10.4187
▁بعث	-10.4187
▁تعود	-10.4187
n	-10.4188
▁عمرك	-10.4188
▁البداية	-10.419
▁الكبيرة	-10.419
▁أغلب	-10.4192
▁السلام	-10.4194
▁سؤالك	-10.4195
▁لغته	-10.4198
يقضي	-10.42
▁سعر	-10.42
▁سارا	-10.4204
▁جهد	-10.4211
تحكم	-10.4213
▁صحح	-10.4219
▁المفضلة	-10.4221
▁أحبّك	-10.4221
▁بعيداً	-10.4223
▁قر	-10.4223
▁حقيبة	-10.4224
00	-10.4225
▁القادمة	-10.4228
▁الحبّ	-10.4234
▁فسن	-10.4237
▁قصّة	-10.4238
▁مخرج	-10.4238
▁إبنته	-10.424
▁بع	-10.4245
طرق	-10.4248
▁صمت	-10.4253
نى	-10.4254
▁ابنها	-10.4254
▁الحادثة	-10.4262
▁آلي	-10.4264
قلاع	-10.4266
قدّر	-10.4273
▁نج	-10.4275
▁رسم	-10.4275
▁سواء	-10.4278
▁عين	-10.428
ارا	-10.4281
▁عملنا	-10.4283
▁جميعاً	-10.4284
▁كهذه	-10.4287
فشل	-10.4287
توقّف	-10.4289
تش	-10.429
نحن	-10.4291
▁حرب	-10.4293
▁لطيفة	-10.4297
▁أقلع	-10.4301
تنظيم	-10.4306
▁هاتفها	-10.4308
▁تذكرة	-10.4312
▁عرف	-10.4313
▁ترد	-10.4314
▁بقيت	-10.4318
▁الطّريقة	-10.4318
▁نظ	-10.4322
▁تجاوز	-10.4323
▁تأ	-10.4327
▁تعرفني	-10.4331
▁انجليزي	-10.4332
▁أسأل	-10.4345
عا	-10.4345
▁ركبت	-10.4347
▁متعبا	-10.4354
▁مريحة	-10.436
جوز	-10.436
▁طفلة	-10.4361
نس	-10.4364
تعلّم	-10.4367
تصرف	-10.4371
▁وق	-10.438
▁هُم	-10.439
فهم	-10.439
▁مظلمة	-10.4393
▁علاج	-10.4398
▁لاعب	-10.4399
▁الصّحّ	-10.4401
فترض	-10.4405
▁صار	-10.4412
▁رأيتك	-10.4414
▁حتّ	-10.4419
▁أمه	-10.4423
▁بينها	-10.4428
▁الرّيف	-10.4433
لغة	-10.4434
▁كلبك	-10.4437
▁بيننا	-10.4441
▁غر	-10.4442
تارو	-10.4442
▁التجاري	-10.4443
▁الحقيقي	-10.4444
▁ولدت	-10.4444
حترما	-10.4445
▁تؤد	-10.4454
فاء	-10.4456
رطة	-10.4456
▁ذكر	-10.4465
هُم	-10.4467
▁عمليّ	-10.4467
▁يدك	-10.4469
▁تحبه	-10.4472
▁بريدي	-10.4474
▁اختر	-10.4475
نه	-10.4478
▁بتاعت	-10.4478
خمسين	-10.4485
▁طيبة	-10.4486
▁مشروب	-10.4489
قوله	-10.4491
حياة	-10.4499
▁استعاد	-10.4501
أي	-10.4505
▁احترام	-10.4508
يّتها	-10.4512
يفة	-10.4517
أمّي	-10.4533
▁أج	-10.4548
نأكل	-10.4548
شعر	-10.456
▁تجري	-10.4574
▁قدمي	-10.4579
▁يصب	-10.4582
▁طرد	-10.4589
▁قطعت	-10.4596
▁وإن	-10.4598
▁بعضها	-10.4605
▁عميق	-10.461
▁يتوج	-10.4613
ْتَ	-10.4614
▁أبيك	-10.4618
▁طائر	-10.4619
▁غضبه	-10.4627
عتنق	-10.464
▁المجر	-10.465
لسنا	-10.4655
حسب	-10.4663
غو	-10.4671
▁اكتئاب	-10.4673
تقدّم	-10.4674
▁علمي	-10.4683
سون	-10.4684
لُ	-10.4685
▁تدري	-10.4692
▁طُر	-10.4695
▁بر	-10.4697
▁أقبل	-10.4702
▁الامر	-10.4712
▁النقا	-10.4712
▁شعب	-10.4723
▁أل	-10.4724
رفض	-10.4725
▁لكِ	-10.4728
▁حيّا	-10.4734
▁المح	-10.4751
سعدني	-10.4752
فت	-10.4756
توقع	-10.4757
▁رأته	-10.4762
▁مشي	-10.4767
اعدة	-10.4774
▁مكتبه	-10.4783
رض	-10.479
▁تخ	-10.4794
ُر	-10.4796
يزي	-10.4797
لقاء	-10.4802
َكَان	-10.4804
▁المدرّسة	-10.4811
هُمْ	-10.4812
▁المحلّ	-10.4814
▁جديدا	-10.4818
▁أيهم	-10.4819
مِ	-10.4822
▁أجاب	-10.4824
تذكر	-10.4831
▁نشأت	-10.4833
تقول	-10.4841
▁حلّ	-10.4842
▁لطف	-10.4846
▁تَ	-10.4854
وه	-10.4857
▁مدمنا	-10.4858
▁مزي	-10.4865
▁فلم	-10.4871
▁تعامل	-10.4878
نقسم	-10.4883
▁طبيعي	-10.4886
▁الدّب	-10.4887
▁رحلت	-10.4889
▁غرق	-10.4893
▁أسرته	-10.4893
▁القيا	-10.4905
▁محقّ	-10.4905
▁أفعله	-10.4906
▁مئ	-10.492
عاني	-10.492
عطش	-10.492
ايا	-10.4934
▁انهار	-10.4936
▁ربط	-10.4936
▁فعلها	-10.4938
يتزوّج	-10.4952
▁الإسبوع	-10.4957
اق	-10.4957
▁أجلي	-10.4957
▁والده	-10.4959
▁يم	-10.4962
▁تدع	-10.497
▁يه	-10.4987
▁الخيار	-10.4997
▁لوجود	-10.5
▁خَ	-10.5007
▁سوري	-10.5012
تردد	-10.5018
حدّث	-10.502
عدة	-10.5029
سيطر	-10.5029
▁البرتقال	-10.5033
▁تبادل	-10.5041
▁مِن	-10.5042
▁فضل	-10.5045
بك	-10.5047
▁تحبّه	-10.505
مّم	-10.5062
شوف	-10.5067
زا	-10.5067
▁مريضا	-10.5078
ضيف	-10.5086
برة	-10.5093
ائر	-10.5112
▁اس	-10.5126
▁يوميا	-10.5131
تعش	-10.5141
يرة	-10.5142
أنّه	-10.5154
▁كلابه	-10.5161
▁الدوا	-10.5171
قاً	-10.5174
▁تحدّث	-10.5183
▁كر	-10.5184
▁أغضب	-10.5184
▁نز	-10.5191
▁معروف	-10.5207
▁ناري	-10.5208
صدر	-10.521
ذاكرة	-10.5218
ظ	-10.5221
خسر	-10.5222
▁الحار	-10.5224
▁أعجبت	-10.5233
▁إجرا	-10.5233
▁حس	-10.5234
▁سيّئ	-10.5237
▁مض	-10.5248
▁نر	-10.5248
طر	-10.527
ره	-10.5272
▁غد	-10.5274
▁خطّ	-10.5275
▁فِ	-10.5277
▁اِشتر	-10.5282
▁طا	-10.529
▁يش	-10.5297
▁تل	-10.5305
▁إنت	-10.5309
▁نَ	-10.5311
▁سلام	-10.5315
▁20	-10.5323
بية	-10.5331
▁تعرفه	-10.5332
حبّ	-10.5336
▁فل	-10.5346
▁الإسلامي	-10.5354
▁سنّ	-10.5359
▁النو	-10.5372
▁بلغ	-10.5373
▁قدّمت	-10.5375
▁الأبد	-10.5391
▁أوقع	-10.5411
هن	-10.5414
ِد	-10.5417
ثقة	-10.5419
تفوق	-10.5422
▁ليوم	-10.5425
▁تحقيق	-10.5436
امرأة	-10.5453
قترح	-10.5454
▁يحتاجه	-10.5462
همّ	-10.5465
مارس	-10.5489
▁رأي	-10.5496
تحمل	-10.5501
صاب	-10.551
▁إسم	-10.551
▁عليّا	-10.5531
الاطفال	-10.5533
بون	-10.5534
دات	-10.5541
▁تابع	-10.5549
▁أمره	-10.5549
الأذى	-10.5549
▁يقع	-10.5553
تحضر	-10.557
لين	-10.5571
لخطر	-10.5573
قل	-10.5574
دع	-10.5607
ثور	-10.5629
ْتُ	-10.5639
▁لخمس	-10.5646
▁نقو	-10.565
▁تحوّ	-10.5656
▁والأ	-10.5656
▁أشك	-10.5657
دخل	-10.5664
▁وإ	-10.5665
سك	-10.5677
رز	-10.5679
يًّا	-10.5679
▁تْ	-10.568
معركة	-10.5685
▁قي	-10.5686
▁إدمان	-10.5687
▁قدمت	-10.5692
▁الْ	-10.5699
▁تهم	-10.57
صديق	-10.5701
▁يشتر	-10.5701
▁حرا	-10.5703
ولد	-10.5703
▁الاهتمام	-10.571
▁تصدّق	-10.5713
▁مدمن	-10.5723
راو	-10.573
▁وَلَ	-10.5734
▁مالي	-10.5737
عرّف	-10.5737
▁ينت	-10.5741
▁تعلّمت	-10.5743
پ	-10.5745
سل	-10.5747
▁19	-10.5764
▁القوا	-10.5772
▁حوله	-10.5776
▁قاس	-10.5784
▁قُل	-10.5791
▁إعجاب	-10.5793
ّقا	-10.5795
▁إلكتروني	-10.5796
▁منها	-10.5806
▁منزلا	-10.5813
َهُ	-10.5819
َوْ	-10.5829
▁فتحت	-10.5833
▁البو	-10.5838
▁كونه	-10.584
▁يخبرن	-10.5842
▁هار	-10.5854
▁يظن	-10.5866
لن	-10.5874
▁ببط	-10.5879
لتقط	-10.5896
▁دَع	-10.5904
كيف	-10.5916
ضحك	-10.5923
عيش	-10.5923
وّل	-10.5941
▁مظهر	-10.5946
لاحظت	-10.5948
▁تدير	-10.5948
مّى	-10.5949
لكم	-10.5954
▁ارتكاب	-10.5966
▁الإنجليز	-10.5969
▁لبعض	-10.5983
هيدي	-10.5985
▁تحكم	-10.599
▁مفاتيح	-10.5994
الف	-10.6018
▁أجب	-10.6023
فظ	-10.6032
ِرَ	-10.6032
بتة	-10.6033
▁ذراع	-10.6041
قاعدة	-10.6044
ئي	-10.605
غني	-10.606
خفض	-10.6062
▁يهد	-10.6063
ِبُ	-10.6072
ابق	-10.6073
اولة	-10.6078
الأبيض	-10.6082
مثل	-10.6087
سرق	-10.6098
عصر	-10.6101
▁صنع	-10.6108
▁صالحا	-10.6108
▁جورج	-10.6108
مفترض	-10.6114
▁لتو	-10.6125
30	-10.6128
صار	-10.6129
تجاه	-10.613
▁سخيف	-10.6131
فصل	-10.6132
▁تك	-10.6149
فراغ	-10.6154
s	-10.6157
طبيب	-10.6163
▁حر	-10.6163
عليك	-10.6164
ضغط	-10.6167
▁تعي	-10.6167
▁طيب	-10.6168
▁حلق	-10.6172
نفس	-10.6173
فحص	-10.6175
▁تغيير	-10.6176
حوايج	-10.6183
2	-10.6183
ثلاثة	-10.6189
▁البار	-10.6191
حكومة	-10.6196
▁بأنك	-10.6197
أعضاء	-10.6198
استخدام	-10.6209
▁بوسع	-10.6216
أظن	-10.6217
ارت	-10.6224
▁مسب	-10.6239
يون	-10.625
تجاوز	-10.6261
ائف	-10.6268
▁محام	-10.6268
نج	-10.6277
▁أصلا	-10.6278
▁الدّول	-10.628
سمك	-10.629
عندك	-10.6292
▁جامع	-10.6298
قصر	-10.6298
ّع	-10.6302
▁ذاهبا	-10.6313
ستمع	-10.6314
كذلك	-10.6315
▁موت	-10.6323
▁يعامل	-10.6325
نسخ	-10.6328
سوف	-10.6343
الكامل	-10.6348
لام	-10.6349
كسب	-10.6351
▁برا	-10.6358
موت	-10.636
زجاجة	-10.6366
لَ	-10.6372
عدت	-10.6375
▁طاب	-10.6376
▁قتلت	-10.6379
ند	-10.6386
حاً	-10.6389
▁وقته	-10.6396
▁كاف	-10.6399
طول	-10.6409
▁لأكثر	-10.6415
زيد	-10.6418
قصص	-10.6418
▁تساءل	-10.6423
كتر	-10.6424
▁المدن	-10.6427
▁الصّوت	-10.6429
أرماني	-10.6433
وكون	-10.6434
شنو	-10.6437
▁غياب	-10.644
▁أباه	-10.6444
▁لنفسه	-10.6448
▁أخو	-10.6448
عت	-10.6449
▁التلفزيون	-10.6456
غان	-10.6456
▁مسرح	-10.6458
▁اليهود	-10.6464
▁الأر	-10.6464
▁التقي	-10.6465
عتذر	-10.6465
▁شجاع	-10.6469
▁تقريبا	-10.6476
پرۆبلام	-10.6478
مرآة	-10.6479
▁مكسور	-10.6481
َلْ	-10.6482
▁كريم	-10.6485
تنسَ	-10.6487
▁أصوات	-10.6489
▁الخامس	-10.6492
▁العاشر	-10.6495
بتسم	-10.6495
▁ميل	-10.6497
يام	-10.6498
مّ	-10.6502
▁كثر	-10.6506
▁مبكرا	-10.6511
زل	-10.6512
▁الحفل	-10.6517
مزدوجة	-10.6519
وزن	-10.652
▁للإ	-10.652
▁متزوّج	-10.6521
▁علّم	-10.6522
▁آل	-10.6525
▁صناع	-10.6525
▁صحّ	-10.6531
لتزم	-10.6532
▁جيت	-10.6541
▁محبوب	-10.6541
ɛ	-10.6549
لمقابلة	-10.6549
▁إجاز	-10.655
p	-10.655
‍	-10.655
Tom	-10.655
٥	-10.655
▁إيقاف	-10.655
▁استهلاك	-10.655
▁الإطفاء	-10.655
▁الاتّجاه	-10.655
▁الجائزة	-10.655
▁الساخن	-10.655
▁النّوافذ	-10.655
▁رصاص	-10.655
▁كاليفورنيا	-10.655
▁للتّعرّي	-10.655
▁متحمّس	-10.655
▁متعطّش	-10.655
▁المنتزه	-10.655
▁مألوف	-10.655
صناديق	-10.655
▁الأحوال	-10.655
▁السّياقة	-10.655
▁رياضة	-10.655
▁سيتزوج	-10.655
▁للسّباحة	-10.655
▁بوستن	-10.655
▁قفازات	-10.655
▁اللاتينية	-10.655
▁الضّجّة	-10.655
▁تاتوبا	-10.655
▁رآني	-10.655
▁مهذّب	-10.655
▁السّيطرة	-10.655
▁الخريطة	-10.655
▁الحمّام	-10.6551
▁فلكار	-10.6551
▁الشّارع	-10.6551
▁البيسبول	-10.6551
▁الضروري	-10.6551
▁10	-10.6551
▁للإهتمام	-10.6551
شجّع	-10.6551
▁يمزح	-10.6551
▁الدّرجة	-10.6551
▁الدّروس	-10.6551
▁آتٍ	-10.6551
▁فليكن	-10.6551
▁يأبه	-10.6551
▁ليبرالي	-10.6551
▁الظلام	-10.6551
▁197	-10.6551
▁فيديوهات	-10.6551
▁غليظ	-10.6551
▁السّفينة	-10.6551
▁تلاتة	-10.6551
▁تستسلم	-10.6551
▁النّادي	-10.6551
▁انشغال	-10.6551
▁العبريّة	-10.6551
طمئن	-10.6551
▁عازف	-10.6552
ti	-10.6552
▁الرّأس	-10.6552
▁السوداء	-10.6552
▁إنجلترا	-10.6552
▁الصّحيح	-10.6552
▁صفراء	-10.6552
▁هاواي	-10.6552
▁استرح	-10.6552
▁جنوب	-10.6553
an	-10.6553
▁تخاف	-10.6553
▁المعطف	-10.6553
▁بمقدور	-10.6553
▁الصياد	-10.6553
▁أضاع	-10.6553
▁جزيلاً	-10.6553
▁متأخّر	-10.6554
▁ستأتي	-10.6554
▁ميّت	-10.6554
▁حقيبتها	-10.6554
▁خطوات	-10.6554
▁لتمشي	-10.6554
▁الكفاية	-10.6554
▁أستاذ	-10.6554
▁بالدخول	-10.6554
▁الشّيء	-10.6554
▁ناريّا	-10.6554
ضبط	-10.6555
ستعمار	-10.6555
▁إخوة	-10.6555
▁الديون	-10.6555
▁يخاف	-10.6555
▁صداقتنا	-10.6555
▁السّبب	-10.6555
▁الأزواج	-10.6555
▁تأثير	-10.6556
رجّع	-10.6556
▁نهائي	-10.6556
▁نهدر	-10.6556
▁وليس	-10.6556
▁الفراش	-10.6556
▁فوضى	-10.6556
▁سأترك	-10.6556
▁إِذ	-10.6557
▁للذهاب	-10.6557
▁بالزكام	-10.6557
▁بالبرد	-10.6557
▁المتحف	-10.6557
▁النّسيان	-10.6557
▁المقدّس	-10.6557
▁يمنح	-10.6557
▁بَعْض	-10.6557
▁عائلتك	-10.6558
▁للعربيّة	-10.6558
▁نستنّاو	-10.6558
ترتيب	-10.6558
▁واثق	-10.6558
▁العلوم	-10.6558
▁اثنان	-10.6558
▁مسبقا	-10.6558
▁بوضوح	-10.6559
▁عائلته	-10.6559
▁خافت	-10.6559
ـ"	-10.6559
▁السّوق	-10.6559
▁ترقص	-10.656
▁البساطة	-10.656
▁الروسية	-10.656
▁كفاية	-10.656
▁إخوتي	-10.656
▁لأمريكا	-10.656
▁الشّرعي	-10.656
▁أهداف	-10.6561
▁الصبر	-10.6561
▁الأنمي	-10.6561
▁سمحلي	-10.6561
▁أضعاف	-10.6561
▁اسكت	-10.6561
▁سنذهب	-10.6561
▁هبط	-10.6561
▁زميل	-10.6561
سكوت	-10.6562
▁عقب	-10.6562
▁تستخدم	-10.6562
▁مستخدم	-10.6562
▁مقتنع	-10.6563
▁ألومه	-10.6563
▁الحفلات	-10.6563
▁الشتاء	-10.6564
▁والكلام	-10.6564
▁الساعات	-10.6565
▁صوابها	-10.6565
▁جدتي	-10.6565
▁تكمّل	-10.6565
▁النوبز	-10.6565
▁كبار	-10.6566
▁لطفاً	-10.6566
▁المحكمة	-10.6567
▁كِن	-10.6567
▁بشؤونه	-10.6567
▁بالقاهرة	-10.6568
▁سيحدث	-10.6568
▁أُخت	-10.6568
▁تتدخل	-10.6568
▁مللت	-10.6569
▁سأخرج	-10.6569
▁الجاز	-10.6569
▁مستعدّا	-10.6569
▁يتذكّر	-10.657
▁مقفل	-10.657
▁تخاصما	-10.657
▁استأجر	-10.657
▁البيتزا	-10.657
▁أبناء	-10.657
▁نحبّ	-10.6571
▁مشوّشا	-10.6571
▁اللّي	-10.6572
▁الغداء	-10.6572
▁تيمي	-10.6573
▁يجهل	-10.6573
▁نملك	-10.6574
▁سنأكل	-10.6574
▁هادئاً	-10.6575
▁السّابقة	-10.6575
▁سيارات	-10.6576
▁المسؤولية	-10.6576
▁الحزب	-10.6576
▁الفرصة	-10.6576
▁للنوم	-10.6577
▁الجواب	-10.6577
▁إلهي	-10.6577
▁متميز	-10.6578
▁المساجد	-10.6578
▁الأراضي	-10.6578
▁غدوا	-10.6579
▁الرسائل	-10.6579
▁مختبئ	-10.658
▁أدرك	-10.6581
▁نا	-10.6581
▁الباقي	-10.6581
▁النظام	-10.6581
▁الأمسية	-10.6581
▁ضعف	-10.6582
▁حجم	-10.6582
▁المحقّق	-10.6582
▁ضليع	-10.6583
▁صغار	-10.6583
▁زوجتك	-10.6583
▁المحاضرة	-10.6583
▁الحلوى	-10.6583
▁سكر	-10.6584
▁أخوك	-10.6586
▁النرويج	-10.6586
▁الصحون	-10.6586
▁ترجمات	-10.6587
▁الرسم	-10.6587
▁نحبّك	-10.6588
▁الفواكه	-10.6588
▁أجنبية	-10.6588
▁الضجيج	-10.6589
▁الأخبار	-10.659
▁بقدر	-10.659
▁للناس	-10.6591
▁طاولة	-10.6591
▁تنمو	-10.6592
▁يأمل	-10.6592
▁الطبخ	-10.6592
▁خبير	-10.6593
▁لأجلك	-10.6593
▁المشتركة	-10.6594
▁المكسيك	-10.6594
▁حمى	-10.6594
وسيلة	-10.6595
▁آذان	-10.6595
▁الأربعين	-10.6595
▁قويّة	-10.6595
▁أسنان	-10.6595
▁الأرمل	-10.6596
▁اليمين	-10.6596
▁وشنو	-10.6596
▁يركض	-10.6597
▁تربح	-10.6597
▁سباحة	-10.6598
▁الأشباح	-10.6599
▁للطّ	-10.6599
▁صحاب	-10.66
▁مواطنة	-10.66
▁تنجح	-10.66
▁عيسى	-10.6602
▁غمس	-10.6602
▁لأول	-10.6602
▁ممتعاً	-10.6603
▁المصنع	-10.6604
▁مرتبكا	-10.6604
▁القاتل	-10.6604
▁تدفع	-10.6605
ذيب	-10.6605
▁البس	-10.6605
▁يساعدنا	-10.6605
▁اعتن	-10.6606
▁شهادة	-10.6607
▁أصيبت	-10.6607
▁ألوان	-10.6608
▁تلفاز	-10.6608
▁يقلق	-10.6608
▁شحن	-10.6608
▁رتب	-10.6609
▁البرد	-10.6609
▁القصيدة	-10.6609
▁نعسان	-10.661
▁للموسيقى	-10.6611
▁النتيجة	-10.6611
▁رايحين	-10.6611
▁تتركه	-10.6611
▁لجاي	-10.6612
ِّي	-10.6612
▁تذكرتي	-10.6612
▁فانتا	-10.6613
▁نجحت	-10.6613
▁أبوك	-10.6614
▁كنجي	-10.6614
▁أرز	-10.6615
▁محافظ	-10.6615
▁شفتها	-10.6616
▁بندقي	-10.6616
▁تسير	-10.6616
▁(	-10.6617
▁تأدي	-10.6618
أعلى	-10.6619
▁نبدأ	-10.6619
▁وسادته	-10.6619
حدث	-10.6619
▁الفوز	-10.662
▁تاتويبا	-10.662
▁خبرة	-10.662
▁سكّان	-10.6622
خمّم	-10.6623
▁موريل	-10.6623
ونني	-10.6623
▁أخيرًا	-10.6624
▁محقّق	-10.6625
▁العنف	-10.6625
▁جوّز	-10.6626
رتكب	-10.6627
▁سقف	-10.6627
▁ازداد	-10.6627
اج	-10.6628
ّابة	-10.6628
▁الإمتحان	-10.6628
▁تاكل	-10.6628
▁المرآة	-10.6629
▁سمين	-10.6629
▁مشتاق	-10.6629
▁يحت	-10.663
▁تكوين	-10.6631
▁عاديّة	-10.6631
▁نظّف	-10.6632
▁لشخص	-10.6633
أسوء	-10.6633
▁أدوات	-10.6635
▁يتمكّن	-10.6635
▁البشري	-10.6636
▁خاصة	-10.6637
▁مك	-10.6637
ِها	-10.6637
▁الركض	-10.6638
▁المعيش	-10.6639
▁تغسل	-10.664
▁تشتري	-10.664
▁أصلح	-10.6641
راً	-10.6641
▁تظنّ	-10.6642
طبق	-10.6643
▁الآخرون	-10.6643
لّعب	-10.6643
▁قصيرة	-10.6643
▁ابتسمت	-10.6643
▁ممتازة	-10.6646
▁شهير	-10.6647
▁نبقى	-10.6649
تحرك	-10.6649
▁حسناً	-10.665
▁السلامة	-10.665
▁تسعة	-10.6652
▁الطلاق	-10.6652
داروين	-10.6652
ستغرق	-10.6654
صراحة	-10.6655
▁مطلقا	-10.6656
▁لس	-10.6657
▁أسمعك	-10.6657
▁مسلسل	-10.6659
▁فجأةً	-10.666
▁رجلي	-10.666
تحرّك	-10.6661
▁ربحت	-10.6661
▁فلسطيني	-10.6661
عرِف	-10.6663
▁199	-10.6664
▁بارداً	-10.6665
▁يسافر	-10.6665
▁تناسب	-10.6665
نْ	-10.6666
▁أفقد	-10.6666
▁المحاولة	-10.6666
▁اصطد	-10.6666
▁أصعب	-10.6668
▁خفيف	-10.6669
▁باباه	-10.6669
شروط	-10.6669
▁علق	-10.6669
▁يرفع	-10.6669
▁تقصد	-10.667
▁موضوع	-10.667
▁الجمال	-10.667
▁أجرب	-10.6671
▁يصلح	-10.6671
▁قلمك	-10.6673
▁الآلة	-10.6674
▁قرع	-10.6675
▁الفن	-10.6678
▁أخطاء	-10.6678
▁تذكرني	-10.6679
▁أزور	-10.6679
▁سراً	-10.668
▁البرو	-10.6681
▁لآخر	-10.6684
▁بديل	-10.6685
▁حزنه	-10.6685
▁التوتر	-10.6687
▁أجر	-10.6687
▁ضخمة	-10.6688
َاء	-10.669
▁ممثل	-10.669
▁للقيام	-10.6691
▁يفوز	-10.6692
▁هادئ	-10.6695
▁عملاً	-10.6695
▁راكش	-10.6698
سترجع	-10.6698
▁أفلام	-10.67
▁تحمّل	-10.6701
▁قرية	-10.6701
▁صغيراً	-10.6702
▁العربة	-10.6702
▁ممل	-10.6703
▁حاض	-10.6704
طلاق	-10.6705
▁فتى	-10.6705
▁نظام	-10.6705
▁قراءتها	-10.671
خدع	-10.671
▁عالمية	-10.6711
نق	-10.6711
▁الدم	-10.6712
▁ظننته	-10.6712
▁الخيول	-10.6713
▁الأمان	-10.6715
▁كافية	-10.6715
▁نقد	-10.6715
احتمال	-10.6716
▁طويلاً	-10.6716
نقل	-10.6716
يّات	-10.6717
▁الشاب	-10.6718
▁لرؤيتك	-10.6718
▁دكتور	-10.6719
▁فوّت	-10.672
طار	-10.6721
▁إنتظر	-10.6721
▁ملاحظة	-10.6722
▁انتي	-10.6724
▁قلتُ	-10.6727
▁أعداء	-10.6727
▁عصر	-10.6728
▁إقناع	-10.6728
▁أراها	-10.6729
▁المسيحيّ	-10.6729
▁اللعبة	-10.673
دث	-10.6731
▁عرضه	-10.6731
▁يعطيك	-10.6732
▁ذوق	-10.6734
▁الرحلة	-10.6736
▁فرحان	-10.6738
▁عشت	-10.6738
مكالمة	-10.674
▁اكثر	-10.6741
▁والدته	-10.6741
تّش	-10.6741
▁الفاك	-10.6742
▁لغتهم	-10.6743
▁قريبة	-10.6745
▁راسل	-10.6747
▁أحل	-10.6751
▁يعجبه	-10.6751
▁تحقق	-10.6752
▁مغط	-10.6754
▁تصوير	-10.6754
▁ماهرة	-10.6755
مضي	-10.676
▁ابنتها	-10.6761
▁أجلس	-10.6772
▁حذف	-10.6773
▁قاموسي	-10.6774
▁مقدم	-10.6774
▁تاعك	-10.6775
▁حاملا	-10.6777
ستمتع	-10.6779
▁حبّها	-10.678
▁قسط	-10.6782
▁متعبة	-10.6783
▁رأينا	-10.6783
▁كبيراً	-10.6784
ّدة	-10.6786
جرّب	-10.6791
▁الحالة	-10.6791
سر	-10.6793
الدّفاع	-10.6793
▁فرنسية	-10.6793
▁صراخ	-10.6794
ْرَا	-10.6796
▁لأفعله	-10.6796
▁الوطنية	-10.6796
ْنَا	-10.6798
▁اقطع	-10.6799
▁مفتوحاً	-10.68
▁صيني	-10.6803
▁نُ	-10.6805
▁يُح	-10.6805
▁صديقان	-10.6805
▁يأكله	-10.6806
▁بماري	-10.681
حريق	-10.6814
▁الكر	-10.6815
▁باردا	-10.6817
فع	-10.6817
▁قاله	-10.6818
▁قدرته	-10.6819
▁مشهورة	-10.6819
▁تاني	-10.6819
▁أقوى	-10.6822
▁اتهمت	-10.6826
تحاد	-10.6828
راج	-10.6828
▁إسباني	-10.6829
▁مقالا	-10.6834
▁ذاهبة	-10.6835
▁اغتي	-10.6836
▁نعمل	-10.6839
ِمَ	-10.6839
▁احت	-10.684
▁انتحار	-10.684
لثلاثة	-10.6845
▁المقال	-10.6847
▁استُ	-10.6848
▁اعتني	-10.685
▁تعلمون	-10.6851
نجوم	-10.6852
الإسلام	-10.6852
ّو	-10.6854
▁قلمي	-10.6856
نك	-10.6857
▁غبيّ	-10.6859
سرّيّة	-10.6859
▁عُ	-10.6864
▁صف	-10.6869
▁حسنًا	-10.6871
سطح	-10.6875
▁أخبرها	-10.6877
ضر	-10.688
▁لوقت	-10.6881
لكلاب	-10.6883
مادة	-10.6885
▁صوتك	-10.6886
▁أد	-10.6886
▁لب	-10.6888
▁لعي	-10.6893
▁شعره	-10.6893
يَّ	-10.6899
▁غنيّ	-10.6901
▁تتّ	-10.6903
لزم	-10.6904
▁أط	-10.6904
بيوت	-10.6907
▁طبيبة	-10.6908
▁حم	-10.691
قّدرو	-10.6912
▁سمكة	-10.6915
▁بيتك	-10.6925
▁أحتاجك	-10.6926
▁تصرف	-10.6933
▁أمسك	-10.6934
▁متأكدا	-10.6935
▁ضربت	-10.6937
▁هيّا	-10.6948
تكلفة	-10.6948
وافق	-10.6953
▁صارم	-10.6954
جروح	-10.6959
از	-10.6965
▁بتح	-10.6966
لإقلا	-10.6967
▁ضغط	-10.6967
▁تقتل	-10.6968
▁أرَ	-10.697
▁الأوروبي	-10.6971
▁الوح	-10.6976
▁ثري	-10.6991
▁كُل	-10.6991
▁الذّه	-10.6992
▁التو	-10.6992
حقاً	-10.6993
▁حرفي	-10.6999
▁صديقه	-10.6999
▁دعوت	-10.7
أسود	-10.7001
مو	-10.7003
▁فراغ	-10.7005
▁تحدّ	-10.7011
▁يحبها	-10.7012
▁الفر	-10.7013
▁مبلغ	-10.7013
ّيّة	-10.7015
▁تحل	-10.7018
▁فحص	-10.702
▁يستول	-10.7024
▁ظن	-10.7028
لحفلة	-10.7028
ارض	-10.703
▁ثقت	-10.7031
▁متسامحا	-10.7033
مشي	-10.7038
▁يخبر	-10.7043
هنا	-10.7046
▁سرقة	-10.7049
شارة	-10.7054
ِكَ	-10.7054
▁امس	-10.706
▁جائعا	-10.7066
▁وجدناه	-10.7071
رِ	-10.7075
▁أخبار	-10.7075
ستماع	-10.708
▁ريفي	-10.7082
رّج	-10.7082
▁شخصيته	-10.7084
▁ذراعه	-10.7086
معاملة	-10.7089
وعة	-10.7091
َرْ	-10.7091
َجَ	-10.7096
كُمْ	-10.7099
▁تلقي	-10.7101
▁كتابه	-10.7108
▁مغ	-10.7117
ابات	-10.7118
▁قَالَ	-10.7122
أريك	-10.7124
▁وقفت	-10.7125
مط	-10.7134
▁رحل	-10.7135
الوحدة	-10.7136
تأكل	-10.7138
خذ	-10.7138
▁خسرت	-10.7139
لّيّة	-10.7141
▁أريك	-10.7144
خص	-10.7151
ةٍ	-10.7152
▁صالح	-10.7153
▁يدها	-10.7155
نكن	-10.7155
صلح	-10.7156
▁يحبّها	-10.7163
▁ميت	-10.7166
ضعة	-10.7169
رسالة	-10.7176
▁ث	-10.7186
بع	-10.7188
طبقة	-10.719
عدني	-10.7193
▁عني	-10.7193
اط	-10.7193
▁الصّف	-10.7201
▁كام	-10.7203
▁فنجان	-10.7204
▁أمامي	-10.721
▁يثير	-10.7213
▁أُدخ	-10.7213
▁قطا	-10.7214
ييز	-10.7216
الغرض	-10.7219
▁تكر	-10.7223
ُلَ	-10.7227
▁الميت	-10.7231
▁هى	-10.7237
▁نصل	-10.7242
▁اعتقل	-10.7243
▁ليل	-10.7245
هيل	-10.7246
ُه	-10.7248
▁قصر	-10.7249
▁الرّس	-10.7252
▁قو	-10.7273
▁نادي	-10.7275
نظيف	-10.7279
▁امتحان	-10.7279
متأكد	-10.7279
قطة	-10.7283
▁بكِ	-10.7289
دّة	-10.7294
▁معًا	-10.7296
▁وحش	-10.7296
▁المدنيّ	-10.7299
▁كوب	-10.7304
سيّارة	-10.7304
▁رسمي	-10.7304
▁توصل	-10.7309
تتكلم	-10.7309
▁حي	-10.7311
ضبان	-10.7312
السياح	-10.7315
▁يلب	-10.7327
▁القر	-10.7329
الأمازيغيّة	-10.7332
ريح	-10.7334
كبر	-10.7335
▁ژا	-10.734
▁دعا	-10.7343
▁حلب	-10.735
▁معروفة	-10.7352
▁وليلى	-10.7362
يان	-10.7363
▁أخبرتك	-10.7364
▁الحوا	-10.7364
▁الحل	-10.7369
▁بيع	-10.7377
تجمد	-10.7383
▁عدو	-10.7385
▁خدم	-10.7387
▁نواح	-10.739
جيب	-10.7398
▁قدم	-10.7404
▁مهمّ	-10.7408
▁تز	-10.7412
▁مميز	-10.7416
يدير	-10.742
عوا	-10.7422
سياحية	-10.7425
▁نْ	-10.7425
▁فكرت	-10.7427
▁ألقي	-10.7437
صور	-10.744
▁المتر	-10.7445
▁وع	-10.7447
نهُ	-10.7449
جهز	-10.7454
▁أنفق	-10.7455
اوة	-10.7458
قع	-10.746
▁لاحظ	-10.7474
▁مور	-10.748
▁رك	-10.7482
▁حجّ	-10.7486
دليل	-10.7492
▁شبابه	-10.7494
فرج	-10.7501
▁جنون	-10.7501
▁بدم	-10.7512
▁ولن	-10.7518
مين	-10.7519
▁مرارا	-10.752
▁لطفل	-10.7522
▁بمه	-10.7537
▁قلقة	-10.7542
▁ساعدو	-10.7545
فوز	-10.7545
قّ	-10.7546
▁عيش	-10.7548
▁اقول	-10.7556
قال	-10.7557
ٌّ	-10.757
▁حياتهم	-10.7571
▁أطف	-10.7576
▁جعله	-10.7587
مية	-10.7587
▁سأعي	-10.7588
▁مدرست	-10.7593
▁أمرا	-10.7595
▁مضر	-10.7599
▁أمك	-10.7604
الأقوى	-10.7616
▁بوعد	-10.7616
▁ابق	-10.7619
اجع	-10.7625
▁حية	-10.7629
▁بحق	-10.7631
▁أُعج	-10.7632
محلية	-10.7644
▁علِم	-10.7648
▁أحداً	-10.7652
طا	-10.7656
▁إب	-10.7658
نظف	-10.766
▁شعري	-10.7665
▁تُب	-10.7666
▁الفلسطينيّ	-10.767
▁وُج	-10.7671
٤	-10.7673
▁مقص	-10.7679
مسيحيّين	-10.7683
دان	-10.7684
▁تقدم	-10.7687
عوام	-10.7688
▁حقن	-10.7688
ركض	-10.7689
أس	-10.77
▁أعر	-10.7702
▁صبي	-10.7702
▁تأت	-10.7724
▁رسالت	-10.773
فيك	-10.7737
▁مسلمون	-10.7745
لنا	-10.7745
تساقط	-10.775
مك	-10.7753
▁وكان	-10.7754
▁عُد	-10.7758
▁اضطر	-10.7758
▁لتفعل	-10.776
▁لتر	-10.7769
▁قراب	-10.7773
▁أُم	-10.7775
▁مرر	-10.7777
▁يص	-10.7779
سب	-10.7781
▁قبّل	-10.7783
▁بعدم	-10.7784
▁يدعو	-10.7792
▁عي	-10.7792
قط	-10.7803
▁وصول	-10.7806
▁اسبانيا	-10.7816
مرا	-10.7829
▁إليها	-10.7832
▁استحم	-10.7832
▁صنعت	-10.7838
▁اتبع	-10.7839
▁اي	-10.7844
▁افعله	-10.7849
سكر	-10.785
الة	-10.785
سنفعل	-10.7866
سامح	-10.7869
6	-10.7873
▁معلم	-10.7879
▁علاجا	-10.7883
الناس	-10.7887
بني	-10.789
ِيْ	-10.7897
▁ماهي	-10.7901
▁يف	-10.7907
بنى	-10.7914
▁ألي	-10.7916
غيظ	-10.7916
قاضي	-10.7924
▁بعشر	-10.7938
▁أضرب	-10.7944
ظر	-10.7944
يقة	-10.7945
مغذية	-10.7951
أشتري	-10.7954
▁برج	-10.7958
نوا	-10.7959
حِم	-10.7961
▁صل	-10.7972
وها	-10.7973
▁حبيب	-10.7975
▁تمكن	-10.798
▁قطك	-10.7981
▁شرطي	-10.799
▁البنا	-10.7991
▁تدل	-10.7996
النحلة	-10.7996
أحتاج	-10.8009
هرب	-10.801
▁تؤ	-10.801
▁أَنَ	-10.8014
▁زرقا	-10.8016
▁شب	-10.8019
لات	-10.8022
شك	-10.8039
ستعد	-10.8043
يانات	-10.8043
▁بلي	-10.8046
▁الدّولي	-10.8053
طيع	-10.8064
▁التق	-10.807
▁الي	-10.8071
▁ضعه	-10.8071
▁ليك	-10.8076
▁مارس	-10.8077
▁الحا	-10.8087
▁كت	-10.809
▁امتل	-10.809
قَ	-10.8099
▁الرئيسي	-10.8104
عالج	-10.8119
▁وب	-10.8129
ثر	-10.8137
▁جال	-10.8141
▁الصّك	-10.8148
▁المعا	-10.8152
لكن	-10.8153
▁المنا	-10.8156
▁تج	-10.816
▁مفتوح	-10.8169
▁صوته	-10.817
غة	-10.8175
▁حماي	-10.8181
آن	-10.8197
▁مثالي	-10.8197
ُدع	-10.8204
سّ	-10.8209
▁انتباهه	-10.8211
ردية	-10.8212
لفين	-10.8217
غذية	-10.8221
▁عزيز	-10.8223
َيْ	-10.8223
الكهرباء	-10.8232
تقطع	-10.8239
حتفل	-10.8241
▁اود	-10.8242
الإصلاح	-10.8249
تكرارا	-10.8253
نوك	-10.8263
بنا	-10.8267
وصل	-10.8271
▁أمان	-10.8272
وراق	-10.8276
ؤكد	-10.8286
▁القي	-10.83
انات	-10.8304
▁طلاق	-10.8307
▁زفاف	-10.8314
مه	-10.8315
المساهم	-10.8318
▁تمني	-10.8319
▁تساعده	-10.8334
تسوق	-10.8335
▁حيّه	-10.8341
▁الممتع	-10.8341
تلعب	-10.8348
ماء	-10.835
▁الاف	-10.8358
نهار	-10.8376
▁وهم	-10.8386
تُه	-10.8386
▁الكتابة	-10.8388
▁الامتحان	-10.8391
▁متش	-10.8393
ذهب	-10.8397
الحقائق	-10.8398
▁ذهبا	-10.8398
ُوَ	-10.84
اختيار	-10.8401
▁الأخ	-10.8402
شكّ	-10.8406
▁نافذ	-10.8409
غر	-10.8413
ضّ	-10.8419
ُوْ	-10.8434
َهُم	-10.8442
بيت	-10.8449
▁بش	-10.8451
▁قرّرت	-10.8452
▁اخر	-10.8457
أت	-10.8463
▁خي	-10.8471
حضر	-10.8473
▁فَ	-10.8473
مَل	-10.8475
قاوم	-10.8488
▁كال	-10.8494
▁حاس	-10.8499
تاع	-10.85
▁١٩	-10.8504
قاط	-10.8505
▁صدم	-10.851
▁السما	-10.8518
▁لون	-10.8523
تيجي	-10.8524
▁30	-10.8534
▁وجدته	-10.8536
▁ذاته	-10.8548
▁تغضب	-10.8548
▁بان	-10.8552
▁مُس	-10.8566
تمكّن	-10.8573
▁طلبته	-10.8587
▁رخيص	-10.8609
أزرق	-10.861
لاً	-10.8613
▁طو	-10.8618
▁ستقل	-10.8624
▁الأطب	-10.8628
▁ممن	-10.8633
روا	-10.8636
▁والو	-10.8643
▁يتو	-10.8646
مبر	-10.8646
يران	-10.8669
ّن	-10.8674
يوغ	-10.8678
ًّا	-10.8687
▁يتن	-10.8688
▁اتّ	-10.8697
ّات	-10.8699
رتُ	-10.8703
▁مقاس	-10.8703
▁ابني	-10.871
وين	-10.8719
دود	-10.8731
زعج	-10.8738
▁جعلن	-10.8739
ؤمن	-10.8739
شّ	-10.8745
▁بغض	-10.8748
▁تف	-10.8748
احترام	-10.8749
▁الفرنسي	-10.8752
لمذياع	-10.8752
مخاطر	-10.8754
روح	-10.8762
▁اح	-10.8762
ِّل	-10.8765
▁بيك	-10.8767
واعد	-10.8771
▁الشخصي	-10.8776
سمّم	-10.8778
دد	-10.8781
بّ	-10.8792
مها	-10.8795
ندي	-10.881
يسر	-10.8813
نوي	-10.8816
سيخي	-10.8817
▁يسم	-10.8821
صابة	-10.883
فن	-10.8831
لقانون	-10.8831
▁قُد	-10.8834
▁الشع	-10.8841
▁إست	-10.8843
▁اعتق	-10.8849
▁تنص	-10.886
وني	-10.8863
▁طار	-10.8867
بيا	-10.8868
▁الضّ	-10.8868
▁الروح	-10.8876
▁تقر	-10.8879
▁شعبي	-10.8889
ناقش	-10.8892
▁أفهمه	-10.8894
▁السي	-10.8895
عنا	-10.8906
▁يحضران	-10.891
ائها	-10.8912
▁احتف	-10.8917
▁أفريقي	-10.8925
▁يعطي	-10.8931
▁يض	-10.894
▁المثالي	-10.8946
شير	-10.8947
عامل	-10.8961
رغ	-10.8963
▁التح	-10.8976
▁حبه	-10.8978
وائه	-10.8986
سلم	-10.8994
▁الز	-10.8999
▁أبلغ	-10.9004
طفل	-10.9004
▁بسم	-10.9014
يتك	-10.9017
لج	-10.9017
الحرارة	-10.9018
▁حالة	-10.9037
فين	-10.9042
▁قاد	-10.9044
▁استل	-10.9045
▁صوتا	-10.9048
▁فرض	-10.9057
قدم	-10.9062
مهمة	-10.9062
▁فين	-10.9073
▁عضو	-10.9078
ذاك	-10.9079
▁نص	-10.9085
فور	-10.9087
▁بالأ	-10.9087
▁الجبل	-10.9102
▁البرا	-10.9103
▁اعمل	-10.9105
كاملة	-10.9109
يتي	-10.9109
▁أسعد	-10.9111
▁بفعل	-10.9121
▁نصيحت	-10.9121
▁ليده	-10.9122
ُريد	-10.9132
▁ضع	-10.9136
عاد	-10.9136
▁غضبا	-10.9139
▁المسيح	-10.9143
▁أسئلت	-10.9147
▁لعل	-10.9152
جار	-10.9153
ولي	-10.9154
▁يحبك	-10.9159
▁موافق	-10.916
إنجليزية	-10.9171
عم	-10.9175
▁تكت	-10.9181
▁أهم	-10.9183
▁نظريا	-10.9183
مسك	-10.9186
دك	-10.919
▁أك	-10.9191
▁تجنب	-10.9192
▁المسيحي	-10.9196
جوار	-10.9204
لمَ	-10.9218
▁فت	-10.9219
▁للبي	-10.9224
▁صر	-10.9238
وات	-10.9239
قلق	-10.9243
▁اقتن	-10.9246
▁طعم	-10.9246
▁تطو	-10.9247
فيش	-10.9252
▁طالبا	-10.9253
▁صم	-10.9259
▁القا	-10.9261
▁خدعت	-10.9276
دّخر	-10.9277
عربة	-10.928
▁أعما	-10.9281
▁سأك	-10.9293
▁كارث	-10.9297
▁حسنا	-10.9305
مال	-10.932
▁9	-10.932
زيارتنا	-10.9324
▁جيران	-10.9326
▁فيلم	-10.9329
لدراسة	-10.934
▁السب	-10.9344
▁المحا	-10.9344
▁مز	-10.9344
واقع	-10.9352
ّام	-10.9358
رَف	-10.9361
▁هنّ	-10.9364
طالع	-10.9364
▁الرق	-10.9365
▁حص	-10.9373
عيشا	-10.9376
▁مظلم	-10.9378
▁مواطن	-10.9379
ابون	-10.9389
▁سأع	-10.9395
▁در	-10.9402
▁مريح	-10.9405
أهل	-10.9405
▁قَ	-10.9412
قيم	-10.9415
▁خلين	-10.9422
▁مصاب	-10.9428
▁بتاع	-10.9428
▁الل	-10.9429
▁الموجود	-10.9433
▁يعم	-10.9462
١	-10.9472
▁بالت	-10.9474
زفاف	-10.9477
حدهم	-10.9479
دّع	-10.9479
▁تبيّ	-10.9496
▁تران	-10.9497
بان	-10.9498
حل	-10.95
َكَ	-10.9502
الصائب	-10.9506
”	-10.9508
جنسيّة	-10.9513
▁يصدق	-10.9514
نطق	-10.9515
▁صعبا	-10.9515
درّس	-10.9517
▁وحد	-10.9521
▁لاحق	-10.9521
▁الجزائري	-10.9522
حسنًا	-10.9526
تقر	-10.9528
راد	-10.9529
مسيحيّة	-10.9529
ْب	-10.9534
لوّح	-10.9534
تخرج	-10.9542
مقابلة	-10.9546
سيكون	-10.9546
▁محد	-10.9552
كين	-10.9559
صاحب	-10.956
بّر	-10.9562
▁مب	-10.9564
خوف	-10.9564
▁استجو	-10.9568
شكرا	-10.9573
قف	-10.9573
شغل	-10.9577
راهي	-10.9582
▁إذ	-10.9582
انتحار	-10.9583
▁حَ	-10.959
جّل	-10.9597
▁أنّن	-10.9603
تكلّم	-10.9607
َها	-10.9608
▁المست	-10.9611
بقاء	-10.9615
يغادر	-10.9618
▁بني	-10.9623
▁أظهر	-10.9625
▁تحته	-10.9626
ديد	-10.964
▁ات	-10.964
صعد	-10.9642
▁رئيسي	-10.9642
وكس	-10.9647
قص	-10.965
▁فشل	-10.9657
ندم	-10.9672
▁بالد	-10.9677
اتي	-10.9679
▁تعا	-10.9681
وارد	-10.9687
عها	-10.9688
ِّر	-10.9689
قعد	-10.9689
عنصريّة	-10.9695
أقدام	-10.9697
▁جبل	-10.97
بالغ	-10.971
دافع	-10.9713
▁محادث	-10.9718
حقّا	-10.9729
▁دول	-10.9735
▁كُ	-10.9738
▁وكأن	-10.9746
▁الأدب	-10.9751
▁فبإمكان	-10.9752
ريعاً	-10.9752
َكُم	-10.9755
▁سر	-10.9756
▁البشر	-10.9765
▁أيا	-10.9766
▁قراءته	-10.9767
حضار	-10.9769
صراخ	-10.9773
▁كاملا	-10.9776
▁لصديق	-10.9777
خطط	-10.9778
تجنب	-10.9782
ضطر	-10.9785
خجل	-10.9789
ضّع	-10.979
رون	-10.9791
▁جذ	-10.9791
▁نجح	-10.9794
▁ميلاده	-10.9795
جمهوري	-10.9796
▁الاحت	-10.9799
▁راق	-10.98
▁صفّ	-10.9804
غضبني	-10.9809
ّتي	-10.9812
حيّة	-10.9815
▁الغريب	-10.9816
تحقق	-10.9818
يري	-10.9822
▁المشترك	-10.9823
▁واسع	-10.9825
▁غيبوب	-10.9826
▁الثامن	-10.9826
▁يبذ	-10.9827
▁أصيب	-10.983
▁الرابع	-10.9831
أسعار	-10.9834
ْرِ	-10.9834
ُونَ	-10.9835
تمل	-10.9836
▁ضر	-10.9838
▁الكافي	-10.9839
نتيجة	-10.9842
▁الخطب	-10.9842
طي	-10.9844
▁نوب	-10.9844
▁سأجعل	-10.9845
جه	-10.9848
▁فرح	-10.9849
ستقيل	-10.9854
▁ابدا	-10.9856
كومة	-10.9859
▁!	-10.9859
لاقة	-10.986
▁صبيّ	-10.986
▁حذائ	-10.9862
▁سيفعل	-10.9865
▁العلب	-10.987
إغلاق	-10.9871
▁شاحب	-10.9877
▁مغلق	-10.9878
▁الوث	-10.9879
قصيدة	-10.9881
فهّم	-10.9881
o	-10.9883
▁٢	-10.9884
L	-10.9884
;	-10.9884
C	-10.9884
البؤس	-10.9884
خْرَجْ	-10.9884
هيدروجين	-10.9884
ڥواياژ	-10.9884
▁أزهارا	-10.9884
▁أكتوبر	-10.9884
▁استأذن	-10.9884
▁الأضواء	-10.9884
▁البضاعة	-10.9884
▁الخائنة	-10.9884
▁الخنازير	-10.9884
▁السّؤال	-10.9884
▁الطوابع	-10.9884
▁الطّائرة	-10.9884
▁الفئران	-10.9884
▁الفظيعة	-10.9884
▁الفلسطينيين	-10.9884
▁الفيسبوك	-10.9884
▁المتّحدة	-10.9884
▁النباتات	-10.9884
▁ستتزوج	-10.9884
▁طرابلس	-10.9884
▁كاثوليكي	-10.9884
▁كۆنفيانس	-10.9884
▁لفلسطين	-10.9884
▁متعسّف	-10.9884
▁مذعورا	-10.9884
▁نطرجم	-10.9884
▁ويكيبيديا	-10.9884
▁وُلِد	-10.9884
▁١٩٣٩	-10.9884
▁‫	-10.9884
ک	-10.9884
▁بغزارة	-10.9884
▁يُمكِن	-10.9884
▁التذمر	-10.9884
▁الزّواج	-10.9884
▁القبايل	-10.9884
▁بالعبرية	-10.9884
▁بلقائك	-10.9884
▁لتقديم	-10.9884
▁هارفارد	-10.9884
▁الخميس	-10.9884
▁الراديو	-10.9884
▁الزبدة	-10.9884
▁النصيحة	-10.9884
▁دراجتك	-10.9884
▁مغادرتك	-10.9884
شكسبير	-10.9884
▁إجابتك	-10.9884
▁انفراد	-10.9884
▁ثبّت	-10.9884
▁عقوبة	-10.9884
▁يتباهى	-10.9884
▁التّصوير	-10.9884
▁زملائي	-10.9884
▁شيكاغو	-10.9884
▁يتحكّم	-10.9884
كمبيوتر	-10.9884
▁المفقود	-10.9884
▁إدانته	-10.9884
▁فيسبوك	-10.9884
▁المزرعة	-10.9884
▁برأيك	-10.9884
▁لإنقاذ	-10.9884
▁مرحبًا	-10.9884
▁إيصال	-10.9884
▁كواكب	-10.9884
▁سآتي	-10.9884
▁تعليمي	-10.9884
▁الانتقال	-10.9884
▁محمّد	-10.9884
▁مقرفا	-10.9884
▁الفارسية	-10.9884
▁دّنيا	-10.9884
▁استطاع	-10.9884
▁يحدّق	-10.9884
ul	-10.9884
▁مصدوم	-10.9884
▁اعتذار	-10.9884
▁المطاعم	-10.9884
▁يْدِير	-10.9884
▁مقلّق	-10.9884
▁جنسيته	-10.9884
▁أُرسِل	-10.9884
عذرني	-10.9884
▁سيّء	-10.9884
▁طقس	-10.9884
▁فاكهة	-10.9884
▁معجزة	-10.9884
▁تمامًا	-10.9884
▁معذرة	-10.9884
إعتذار	-10.9884
▁مذهول	-10.9884
▁أتركك	-10.9884
▁طوابع	-10.9884
▁مزرعة	-10.9884
▁2018	-10.9884
▁الشطرنج	-10.9884
▁ضروري	-10.9884
▁مبكّر	-10.9884
▁الصّبيان	-10.9884
▁الفلفل	-10.9884
▁صاخبة	-10.9884
▁الفرولة	-10.9884
▁التركيز	-10.9884
▁التّسوّق	-10.9884
▁غامض	-10.9884
▁أوامري	-10.9884
▁المتحرّكة	-10.9884
▁الفأر	-10.9884
▁النّفس	-10.9884
▁سينتهي	-10.9884
▁تحطم	-10.9884
▁بالسّعادة	-10.9884
▁الطّلبة	-10.9884
▁الفلوس	-10.9884
▁الكورية	-10.9884
▁المقصود	-10.9884
▁قائد	-10.9884
▁الغزير	-10.9884
▁ضخم	-10.9884
▁جزائري	-10.9884
▁السّلّم	-10.9884
▁سّخ	-10.9884
▁تهضر	-10.9884
▁غلطتي	-10.9884
لها	-10.9885
تمشّى	-10.9885
▁السلاح	-10.9885
▁ڨانا	-10.9885
▁الانتقام	-10.9885
▁مفقود	-10.9885
▁بالأحمر	-10.9885
▁متوفر	-10.9885
▁منازلهم	-10.9885
▁البطالة	-10.9885
▁دائرية	-10.9885
▁واقيل	-10.9885
▁ظريف	-10.9885
▁100	-10.9885
▁الطّعام	-10.9885
▁الازرق	-10.9885
▁بصبر	-10.9885
▁بالجلوس	-10.9885
▁شوهِد	-10.9885
▁البوليس	-10.9885
▁لمساعدتنا	-10.9885
▁مشابهة	-10.9885
▁إنترنت	-10.9885
▁غائب	-10.9885
▁ضمير	-10.9886
▁قَوْم	-10.9886
▁آتون	-10.9886
▁الفستان	-10.9886
▁ثروت	-10.9886
▁لتراني	-10.9886
أَقْرَب	-10.9886
▁فاجأ	-10.9886
▁جدوى	-10.9886
▁الأهمية	-10.9886
▁نولّي	-10.9886
▁رآه	-10.9886
▁يفوت	-10.9886
▁كيلومترات	-10.9887
▁بحجر	-10.9887
▁المظلة	-10.9887
▁البيولوجي	-10.9887
▁الثدي	-10.9887
▁الدراما	-10.9887
▁يؤثر	-10.9887
طفولة	-10.9887
▁يفكرون	-10.9887
▁اخاف	-10.9887
كاليف	-10.9887
▁سرًّا	-10.9887
▁اثنين	-10.9887
▁بريء	-10.9887
يست	-10.9887
▁ببطء	-10.9887
▁افتقد	-10.9888
▁اصمت	-10.9888
▁يشكو	-10.9888
▁يوليو	-10.9888
▁ارحل	-10.9888
▁للتسوق	-10.9888
خادمة	-10.9888
▁القمار	-10.9888
▁نجوّز	-10.9888
▁تؤلمني	-10.9888
منازل	-10.9888
sa	-10.9888
▁توحّشت	-10.9888
▁افتقدتك	-10.9888
▁تجرؤ	-10.9888
نصائح	-10.9888
▁جعان	-10.9889
▁والأمل	-10.9889
▁كاذب	-10.9889
▁بالسكين	-10.9889
▁متشابه	-10.9889
مخفوق	-10.9889
▁لمساعدتي	-10.9889
ch	-10.9889
▁عطلتك	-10.9889
▁سويّا	-10.9889
▁القمح	-10.989
▁قواعد	-10.989
▁لِلتَّ	-10.989
▁السعر	-10.989
▁المقعد	-10.989
▁فطور	-10.989
▁صواب	-10.989
▁التعب	-10.989
▁التركية	-10.9891
▁نخاف	-10.9891
▁مزرعته	-10.9891
▁عذر	-10.9891
▁الوحشي	-10.9891
▁مستعجل	-10.9891
▁يأكُل	-10.9891
▁بب	-10.9891
▁أفسد	-10.9891
▁الشّر	-10.9892
▁الأرز	-10.9892
▁نخدم	-10.9892
▁مسلّح	-10.9892
▁والدتك	-10.9892
▁انتقاد	-10.9892
▁أبريل	-10.9892
▁خوف	-10.9892
▁المرشح	-10.9892
▁أَحَد	-10.9892
▁نظّاراتِه	-10.9892
▁البقر	-10.9893
▁يخف	-10.9893
▁حدوثه	-10.9893
▁المؤسس	-10.9893
▁درتها	-10.9893
خانة	-10.9893
▁المقدس	-10.9893
▁التذكرة	-10.9893
▁الكمان	-10.9894
▁الأديان	-10.9894
▁الشّيطان	-10.9894
▁القواعد	-10.9894
▁أطيق	-10.9894
▁شمسية	-10.9894
▁ثُم	-10.9894
▁فلوس	-10.9894
▁الراهن	-10.9894
▁البدء	-10.9895
ريك	-10.9895
▁لأنجز	-10.9895
▁لأطفالنا	-10.9895
▁الباندا	-10.9895
▁والدتي	-10.9895
▁بتوقيع	-10.9896
▁الفضاء	-10.9896
▁تبكِ	-10.9896
▁أشخاص	-10.9896
▁شاحباً	-10.9896
▁الصّغيرة	-10.9896
▁مراسلة	-10.9896
▁الممرض	-10.9897
▁صداع	-10.9897
▁المجانين	-10.9897
خسائر	-10.9897
▁بالحافلة	-10.9897
▁مشتركة	-10.9897
▁ساخنة	-10.9897
▁مخلوق	-10.9897
▁ينتحر	-10.9897
▁خائب	-10.9897
▁والحرية	-10.9897
▁تامّ	-10.9897
▁الكلاسيكية	-10.9898
▁تصميم	-10.9898
▁ساحرة	-10.9898
نفط	-10.9898
ورّط	-10.9898
▁الرعد	-10.9898
▁بالشرطة	-10.9899
▁ستأخذ	-10.9899
▁الواجب	-10.9899
▁حساء	-10.9899
▁الطّفل	-10.9899
▁بأمان	-10.9899
▁هايلة	-10.99
▁الصّرا	-10.99
▁بالكلام	-10.99
▁المستقلة	-10.99
▁بطاقتك	-10.99
▁بأنفسنا	-10.99
▁الرأس	-10.99
▁الجبال	-10.99
▁مرتاح	-10.99
ضَ	-10.99
▁فِيهِ	-10.9901
▁وُضِع	-10.9901
▁البعيد	-10.9901
▁كونّا	-10.9901
▁المشتركين	-10.9901
▁الرّبو	-10.9901
▁سافلة	-10.9902
▁البرازيل	-10.9902
▁الجريدة	-10.9902
▁الصحيفة	-10.9902
▁جيوب	-10.9902
▁فيديو	-10.9902
▁ممطر	-10.9903
▁دلوقتي	-10.9903
▁الحلويات	-10.9903
▁تطير	-10.9903
▁يخصّ	-10.9903
▁سيعود	-10.9903
▁لإضاف	-10.9903
▁سأحضر	-10.9904
▁ستتأخر	-10.9904
▁الغرباء	-10.9904
▁مشكلتك	-10.9904
▁لوحدك	-10.9904
▁البطن	-10.9904
▁سيارتنا	-10.9905
▁البطّ	-10.9905
▁جميعكم	-10.9905
ضيّع	-10.9905
▁نتكلّم	-10.9906
ِرْ	-10.9906
تّفقنا	-10.9906
▁فلسطينيّة	-10.9906
حالة	-10.9907
▁لزوجته	-10.9907
▁بطيخا	-10.9907
أطباق	-10.9907
▁فُتح	-10.9907
▁بجنون	-10.9907
▁يناسب	-10.9907
▁مدخن	-10.9907
▁الشقة	-10.9908
▁ستقوم	-10.9908
▁خدّر	-10.9908
▁مستقبل	-10.9908
▁تملِك	-10.9908
▁مصط	-10.9908
روّع	-10.9909
▁للإسلام	-10.9909
عدّة	-10.9909
▁تدخن	-10.9909
▁مشمس	-10.9909
▁الريف	-10.991
▁موهوب	-10.991
▁حبيت	-10.991
▁العالمي	-10.991
▁الواجبات	-10.991
▁سيّدي	-10.991
▁الأسماك	-10.991
▁رَفَ	-10.991
▁الأُ	-10.991
▁الخفيف	-10.991
▁ضعيف	-10.991
▁صحابو	-10.991
▁يقرع	-10.9911
▁المنبه	-10.9911
▁يربط	-10.9911
▁بالصح	-10.9911
▁قيمته	-10.9911
▁كلامك	-10.9912
▁المتطرف	-10.9912
▁مسدّس	-10.9912
▁تزعج	-10.9913
▁فيليب	-10.9913
▁ليلتك	-10.9914
▁مراهقا	-10.9914
▁دۆكّا	-10.9914
▁أُحِبّ	-10.9915
▁انخفض	-10.9916
▁العقوبات	-10.9916
▁علاقته	-10.9916
▁أُحِب	-10.9916
▁بالذهاب	-10.9916
▁للمدرسة	-10.9916
▁يتقا	-10.9916
▁ينقص	-10.9916
▁زيارتها	-10.9917
▁الضعف	-10.9917
▁حاسوبي	-10.9917
▁والتقدم	-10.9917
▁الجعة	-10.9917
▁إيدك	-10.9918
▁الزلازل	-10.9918
▁مؤلم	-10.9918
▁يخطط	-10.9918
▁ذيل	-10.9919
صطحب	-10.9919
▁متمد	-10.9919
▁أولادهم	-10.9919
▁المغسل	-10.9919
▁نافعة	-10.992
▁الغيوم	-10.992
▁حذائك	-10.992
▁ببيتي	-10.9921
▁التالية	-10.9921
▁وي	-10.9921
▁ضا	-10.9921
▁بساطة	-10.9921
▁الطير	-10.9922
▁كريس	-10.9922
▁الخاصّة	-10.9922
▁تعثر	-10.9923
▁حقوقك	-10.9923
▁الأبجدي	-10.9923
▁نشوفو	-10.9923
▁معلماً	-10.9923
▁السلطة	-10.9924
▁دمك	-10.9924
▁تهديد	-10.9924
▁دقيق	-10.9925
▁لذيذة	-10.9925
▁يحدو	-10.9925
▁بالقليل	-10.9925
▁هجوم	-10.9925
▁أسرار	-10.9926
▁الْإِ	-10.9926
▁للعشاء	-10.9926
▁يكاد	-10.9926
▁الأسد	-10.9927
▁السابق	-10.9928
▁يسأل	-10.9928
▁إِنَّ	-10.9928
وثائق	-10.9929
▁بالليل	-10.9931
▁مؤخراً	-10.9931
▁العاصفة	-10.9932
▁الجامعيّة	-10.9932
▁أُحضر	-10.9932
▁اللحظة	-10.9932
▁دراجته	-10.9932
▁تجلب	-10.9932
▁الجليد	-10.9932
▁جهود	-10.9932
▁أذني	-10.9932
▁الرُّ	-10.9933
▁العافية	-10.9933
▁عضّ	-10.9933
▁الدخول	-10.9934
▁أُرِ	-10.9934
جدران	-10.9934
▁الثّانويّة	-10.9934
▁السائق	-10.9934
▁أستقيل	-10.9934
▁الجثث	-10.9935
▁بيضة	-10.9935
النساء	-10.9935
▁أخوه	-10.9935
▁باستمرار	-10.9935
▁ملتزم	-10.9935
▁النارية	-10.9936
▁الاحد	-10.9936
▁تأسس	-10.9936
▁تتصرف	-10.9936
▁السكين	-10.9937
▁مستعدين	-10.9937
▁الخبرة	-10.9938
▁الانتخابات	-10.9938
▁خطتي	-10.9938
صف	-10.9938
▁سأفتقدك	-10.9938
▁حياتنا	-10.9939
▁قوياً	-10.9939
▁تعارف	-10.994
سلوكه	-10.994
▁وصوله	-10.994
لْ	-10.994
▁تقترح	-10.9941
▁اللّون	-10.9941
▁حفرة	-10.9941
▁المثلي	-10.9942
▁تشوف	-10.9942
▁البيرة	-10.9943
▁الغضب	-10.9943
▁يستمتع	-10.9943
▁الأعمال	-10.9943
▁شريك	-10.9944
▁مقال	-10.9944
▁بوسعك	-10.9944
▁أبكي	-10.9944
▁نعيشو	-10.9944
▁سرّا	-10.9944
▁فوات	-10.9944
▁شقة	-10.9946
▁ايدير	-10.9946
خرين	-10.9946
▁نجاح	-10.9946
▁الموز	-10.9947
▁تروحو	-10.9947
▁الرومان	-10.9947
▁أبله	-10.9947
رحمة	-10.9948
▁الإقامة	-10.9948
حافلات	-10.9948
▁الكافية	-10.9948
عبارة	-10.9948
▁تلمسني	-10.9949
▁اقترب	-10.9949
▁نأخذ	-10.995
▁تهدر	-10.995
11	-10.995
▁قلماً	-10.995
▁باحترام	-10.9951
▁جوعا	-10.9951
▁تقاعد	-10.9953
▁أخفق	-10.9954
▁ينهي	-10.9954
▁ثياب	-10.9955
▁ثقب	-10.9955
▁دراهم	-10.9955
▁حذاءك	-10.9955
▁الدار	-10.9955
▁نهر	-10.9956
▁يغيّر	-10.9956
▁ليصنع	-10.9956
▁العاهرات	-10.9957
▁بجمال	-10.9957
▁يسرق	-10.9957
▁العطلة	-10.9958
▁تضحك	-10.9958
▁البرق	-10.9959
مانية	-10.9959
▁بدري	-10.9959
▁نصب	-10.996
زهرة	-10.9961
▁لصديقي	-10.9961
▁السكر	-10.9961
▁كلبٌ	-10.9961
▁الأساسية	-10.9962
ِيمِ	-10.9962
▁مطلوب	-10.9963
كوّن	-10.9963
▁مرتديا	-10.9963
طابقين	-10.9963
▁عينيك	-10.9964
▁الصيد	-10.9966
مص	-10.9966
▁النَّاس	-10.9966
▁الخبر	-10.9966
▁الشّاب	-10.9967
▁بشخص	-10.9968
▁تحققت	-10.9969
▁سكران	-10.997
▁نحقق	-10.997
▁دفاع	-10.997
▁المدير	-10.997
▁بكري	-10.9971
تّفق	-10.9972
▁تفطّن	-10.9972
▁جسد	-10.9972
▁أشوف	-10.9972
▁جرّاح	-10.9974
▁أكسجين	-10.9974
تْهَا	-10.9975
▁فسّر	-10.9976
▁يقدّر	-10.9976
▁فخم	-10.9976
▁كتابًا	-10.9977
▁صدفة	-10.9978
▁تأقلم	-10.9978
▁تسجيل	-10.9978
▁ساعتك	-10.9978
▁ترجع	-10.9979
▁للمال	-10.9979
▁الرّو	-10.9979
▁'	-10.9979
▁ضيوف	-10.998
▁وظيفتي	-10.998
▁صيدلية	-10.998
▁تورونتو	-10.9981
▁رخصة	-10.9981
هتمّ	-10.9982
▁متوقع	-10.9983
▁نصبح	-10.9984
أكّد	-10.9984
ديمقراطيّة	-10.9984
نفلونزا	-10.9984
▁تسامحه	-10.9984
▁ببساطة	-10.9985
▁واستم	-10.9986
▁جوجل	-10.9986
▁فضة	-10.9988
▁صامت	-10.9988
▁توفر	-10.9988
▁حمية	-10.9988
الرَّب	-10.9989
▁أستطع	-10.9989
▁تتركني	-10.9989
▁إتصل	-10.9989
▁سُق	-10.999
▁الإسم	-10.999
لّمت	-10.999
▁بسيطة	-10.9991
▁واجبات	-10.9991
▁أغادر	-10.9992
▁تفهمني	-10.9992
▁حادة	-10.9992
▁محمد	-10.9994
▁الأخيرة	-10.9995
▁أنفسنا	-10.9995
▁أخطر	-10.9996
▁جيدًا	-10.9996
▁بريطانية	-10.9996
▁التمر	-10.9997
▁لوري	-10.9997
▁المفضّلة	-10.9998
▁حزينة	-10.9999
▁خائفاً	-10.9999
▁الثقة	-11.0001
▁الشكل	-11.0001
▁ترجمتها	-11.0001
▁عبد	-11.0003
دني	-11.0003
▁سورة	-11.0004
▁رقص	-11.0005
▁أتو	-11.0005
▁اليهودي	-11.0006
▁إبنها	-11.0006
▁بينهما	-11.0006
تمنّ	-11.0007
▁نائمة	-11.0007
▁العا	-11.0007
ستطع	-11.0009
مفترس	-11.001
خيبة	-11.0011
▁راسي	-11.0011
البكاء	-11.0011
▁قفز	-11.0013
▁خاصته	-11.0013
▁الدب	-11.0014
▁بْغ	-11.0014
▁لفترة	-11.0016
▁بكونه	-11.0017
روقة	-11.0018
اث	-11.0018
▁مسدّسا	-11.0018
▁عادل	-11.002
▁الحصان	-11.0021
حياته	-11.0021
▁صديقتي	-11.0022
لحظات	-11.0023
▁جديدًا	-11.0023
وميديا	-11.0023
▁أتعلّم	-11.0023
▁تقرير	-11.0023
▁حُب	-11.0024
▁الإس	-11.0024
حافظة	-11.0025
▁أباك	-11.0026
▁بسوء	-11.0026
حم	-11.0026
▁خِ	-11.0026
نتبه	-11.0027
خضراء	-11.0027
▁أوصل	-11.0028
▁موس	-11.0028
▁صدمة	-11.003
▁يغسل	-11.0031
▁مناخ	-11.0032
▁بِهِ	-11.0033
▁وضح	-11.0035
▁مشاعري	-11.0035
▁يكبر	-11.0035
پي	-11.0036
▁أمشي	-11.0036
▁تقاطع	-11.0036
▁الأواني	-11.0036
▁واسعة	-11.0038
▁فصول	-11.0038
▁استدع	-11.0039
متعة	-11.0039
▁نارا	-11.0039
▁فرِح	-11.004
▁حلمي	-11.0041
▁لعمل	-11.0042
▁نهضر	-11.0043
▁تتذكر	-11.0045
▁تدعو	-11.0046
▁بول	-11.0046
جولة	-11.0047
▁هديت	-11.0048
▁فريقنا	-11.005
▁طالع	-11.005
▁تترجم	-11.0052
▁بكيت	-11.0052
خذت	-11.0053
▁آثار	-11.0054
▁الدرجة	-11.0055
▁الاختبار	-11.0056
▁جميلاً	-11.0057
▁الضحك	-11.0057
▁هادو	-11.0058
غنّي	-11.0059
▁تاعو	-11.0059
▁عارفة	-11.006
▁كيلو	-11.006
▁أعلن	-11.0061
▁تكفّ	-11.0061
▁أصواتا	-11.0061
الطّريقة	-11.0062
▁قلبك	-11.0064
ركز	-11.0064
▁بصراحة	-11.0065
▁محترف	-11.0065
▁يُخ	-11.0065
َيْتَ	-11.0068
▁معدل	-11.0069
▁مجهول	-11.0069
انت	-11.007
▁العلبة	-11.0072
▁ملكه	-11.0073
▁بذل	-11.0074
▁غاضباً	-11.0077
▁عاهرة	-11.0077
الٍ	-11.0077
▁المذا	-11.0079
▁دعوة	-11.0079
▁حفر	-11.0079
لطف	-11.008
▁إزعاج	-11.0081
▁قابع	-11.0082
▁ابنك	-11.0082
▁سأنتظر	-11.0083
▁وقتاش	-11.0083
عجلة	-11.0085
ستريح	-11.0086
▁تكذب	-11.0088
نقذ	-11.0089
▁وأس	-11.0089
▁نظارت	-11.009
▁مايو	-11.009
أشياء	-11.0091
▁الجيدة	-11.0092
▁تتوقف	-11.0092
▁عقل	-11.0092
▁يلبس	-11.0094
▁يغني	-11.0094
▁استحقّ	-11.0095
▁اعتبر	-11.0095
▁أخطأت	-11.0095
عثر	-11.0096
▁عدوّ	-11.0098
حنا	-11.0098
▁مسيّ	-11.01
▁نلتقي	-11.01
▁حافلت	-11.0101
سامحني	-11.0101
▁حقّق	-11.0101
▁نواجه	-11.0103
▁أولا	-11.0103
▁تأكلها	-11.0104
▁يغلق	-11.0105
▁الرز	-11.0107
▁حينها	-11.0108
▁لطبيب	-11.0108
▁تفعلين	-11.011
▁وكأنه	-11.0111
▁قاسيا	-11.0113
ضيعة	-11.0113
▁كارو	-11.0113
يهودية	-11.0115
▁ماءا	-11.0116
▁حقوق	-11.0117
▁إياها	-11.0119
▁أُلق	-11.0121
▁مهنته	-11.0121
بما	-11.0121
▁تبان	-11.0123
▁قليلة	-11.0123
عطى	-11.0124
▁أمامنا	-11.0127
▁صيد	-11.0128
نطاق	-11.0129
▁خياليّ	-11.013
▁لسرقة	-11.0131
▁بسيّارتها	-11.0131
▁حابّ	-11.0132
▁أغنية	-11.0134
تركني	-11.0135
▁مدون	-11.0136
انتظر	-11.0136
▁صوّر	-11.0139
▁تتحدّث	-11.0139
▁جائعاً	-11.0141
▁أستحقّ	-11.0141
كوالا	-11.0143
▁والذي	-11.0145
▁الجوال	-11.0145
▁w	-11.0146
▁دوك	-11.015
▁سيدي	-11.0151
▁تخفي	-11.0154
▁لِمَ	-11.0154
▁يفعلون	-11.0155
الشيخ	-11.0155
▁شاعرا	-11.0156
▁ضحكت	-11.0156
عتراف	-11.0157
▁الشمالي	-11.016
▁شعور	-11.0162
جزيرة	-11.0164
▁يهمّ	-11.0164
▁زعيم	-11.0165
▁سين	-11.0166
كتشف	-11.0166
▁k	-11.0167
▁زيادة	-11.0168
تواجه	-11.0168
▁نخب	-11.0169
▁إليكم	-11.017
بيث	-11.017
َيْنَا	-11.017
ورط	-11.0171
▁أجبر	-11.0171
▁تعبان	-11.0172
▁القوانين	-11.0174
▁محقة	-11.0174
▁إبني	-11.0176
▁تشب	-11.0177
▁تمتد	-11.0177
▁ساكن	-11.0179
▁صوب	-11.018
عناية	-11.0181
صغي	-11.0182
▁يديك	-11.0183
خطاب	-11.0184
▁التز	-11.0184
راسل	-11.0185
▁رعب	-11.0188
▁عج	-11.0192
متاجر	-11.0193
▁نور	-11.0194
▁وجهك	-11.0203
▁ذهاب	-11.0203
عسكريّة	-11.0206
▁يكرهون	-11.0207
▁تروحي	-11.0207
▁اعتناق	-11.0208
متياز	-11.0209
▁ملي	-11.0209
▁أَبَ	-11.0209
▁الفلك	-11.0211
تخلص	-11.0214
لجملة	-11.0216
أو	-11.0216
صفح	-11.0218
تهُ	-11.022
تَح	-11.0223
▁اصبح	-11.0224
عير	-11.0225
رڨ	-11.0225
▁البا	-11.0225
مخيّم	-11.0226
▁مؤبّد	-11.0227
▁كلباً	-11.0228
▁اتعلم	-11.0229
تلقّ	-11.0237
▁بالف	-11.0238
▁الحرة	-11.0238
▁والش	-11.0243
▁رحت	-11.0243
▁تسلق	-11.0244
▁أمرنا	-11.0244
▁فعلاً	-11.0245
▁عامين	-11.0245
▁نسيتَ	-11.0246
▁شرطة	-11.0246
▁هاتفية	-11.0246
▁يحسن	-11.0248
▁بوجودك	-11.025
طيبات	-11.0253
▁اللغ	-11.0253
▁لساعة	-11.0254
▁رأيي	-11.0254
قرّر	-11.0254
▁كاتب	-11.0254
▁موعدا	-11.0256
▁تركنا	-11.0256
زياء	-11.0258
▁مجموع	-11.0258
▁معط	-11.0263
خنق	-11.0265
▁دوّا	-11.0269
▁يحص	-11.0269
▁أزال	-11.027
▁وقد	-11.0272
▁انتظرنا	-11.0275
▁صلب	-11.028
▁بدونك	-11.0283
▁صبيان	-11.0285
مرشد	-11.0289
▁لوّح	-11.029
▁سؤالي	-11.0291
حني	-11.0291
تفاجئ	-11.0292
▁حاد	-11.0294
▁مدرّسون	-11.0294
خرون	-11.0296
ثقوب	-11.0296
ْكَ	-11.0298
حوا	-11.0299
▁نعرفها	-11.03
▁بردو	-11.0302
▁أستعمل	-11.0303
▁ابتع	-11.0305
هتم	-11.0305
▁تساعد	-11.0306
▁ويمكن	-11.0307
▁حذّرته	-11.0307
مستوى	-11.0308
إسلاميّة	-11.0312
الصلصة	-11.0312
▁تُع	-11.0312
ثوب	-11.0314
▁مزيد	-11.0315
▁وج	-11.0315
▁تقلّ	-11.032
عراض	-11.0322
تأسف	-11.0328
نين	-11.033
▁لغت	-11.033
▁تكفي	-11.0332
▁أنجح	-11.0332
سرع	-11.0334
▁طعن	-11.0339
▁والداي	-11.0339
▁أملي	-11.0339
تصوير	-11.0342
▁محامي	-11.0343
▁عديم	-11.0348
تصوّر	-11.0348
▁أعطِ	-11.0352
َل	-11.0352
▁يك	-11.0353
▁طْ	-11.0355
حان	-11.0358
▁متوجّها	-11.0361
▁صفحا	-11.0362
▁أقراصا	-11.0368
▁ينتظرك	-11.0368
▁الزجاج	-11.0369
▁ميتا	-11.037
▁كلّيّة	-11.0373
▁المئة	-11.0373
قائمة	-11.038
▁أرغم	-11.0382
▁تواصل	-11.0384
▁ساهم	-11.0385
▁الولاية	-11.0386
▁لوحدها	-11.0387
صالون	-11.039
فزع	-11.0391
▁شركت	-11.0393
▁سبو	-11.0394
دوا	-11.0397
▁لأنك	-11.0401
▁أدخلت	-11.0404
▁منا	-11.0414
▁قطّع	-11.0416
مغامرة	-11.0417
▁تسلل	-11.0418
استمرار	-11.0422
تاح	-11.0426
▁يحتاجون	-11.0429
وج	-11.0429
راة	-11.043
اعتناق	-11.0431
▁يصلّ	-11.0432
بارك	-11.0434
جدا	-11.0434
سمع	-11.0435
▁المش	-11.0436
▁هاذا	-11.0443
▁أعضاء	-11.0446
مّاه	-11.0447
غمس	-11.0448
▁علقت	-11.045
▁يتب	-11.0455
شرط	-11.0457
▁بِأَ	-11.0461
▁الوسا	-11.0464
▁أخيك	-11.0465
▁عاشت	-11.0466
َكِ	-11.0467
▁لتم	-11.0469
الليمون	-11.047
▁غريبا	-11.0471
▁المالية	-11.0473
يدك	-11.0479
جبات	-11.0483
▁الحدث	-11.0484
ركن	-11.0485
▁مفعم	-11.0489
▁الرّف	-11.0491
▁يطلب	-11.0491
▁إنن	-11.0491
▁خجولا	-11.0494
▁معهُ	-11.0499
أمي	-11.0504
كسر	-11.0507
أذكى	-11.0507
▁زواج	-11.0509
جرب	-11.051
▁تسع	-11.0511
▁الطّب	-11.0511
▁زع	-11.0513
دمت	-11.0516
▁التعلم	-11.0521
▁اشتراكي	-11.0522
▁الطا	-11.0526
رسوم	-11.0528
▁ساعةً	-11.0528
▁ملابسها	-11.0534
▁تسمي	-11.0538
▁كرسي	-11.0539
تشير	-11.054
▁فاصل	-11.0545
▁توصيل	-11.0545
▁المناسبة	-11.0546
سبق	-11.0546
تقابل	-11.0551
▁أعدائ	-11.0551
▁كسب	-11.0554
لمستشفى	-11.0556
تمتع	-11.0558
بائن	-11.0563
▁شخصاً	-11.0585
▁منزلنا	-11.0586
ستعيد	-11.0591
▁توني	-11.0591
▁سينتظر	-11.0593
▁رغب	-11.0601
أمازيغية	-11.0602
تار	-11.0606
ۆن	-11.0608
▁خطرا	-11.061
لًا	-11.0615
▁لغز	-11.0618
حجز	-11.0619
▁يخت	-11.062
▁وجهي	-11.0622
اوية	-11.0625
سكّع	-11.0627
يره	-11.0627
▁صد	-11.0634
▁أتحدّث	-11.0635
متلك	-11.0641
رشاو	-11.0643
جِ	-11.0645
▁تولّ	-11.0645
▁العو	-11.0647
تنفع	-11.0656
▁أقابل	-11.0658
مقدار	-11.0663
نبرة	-11.0663
بوب	-11.0664
يانة	-11.0665
▁يذكرن	-11.0666
▁عار	-11.0667
▁لطيفا	-11.0668
▁مارك	-11.0669
ّينا	-11.0674
▁بدل	-11.0677
▁تاعي	-11.0681
▁راحة	-11.0683
▁نفط	-11.0686
▁يترد	-11.0691
عصابة	-11.0694
▁ثريّ	-11.0697
الستين	-11.0702
▁القطبي	-11.0702
▁بأبي	-11.0705
▁يناديه	-11.0708
روي	-11.0709
▁اليومية	-11.0711
ينغ	-11.0711
▁سيخ	-11.0719
▁روائ	-11.072
▁تحرك	-11.0721
عاقب	-11.0725
▁ابت	-11.073
مياه	-11.0732
▁جرائمه	-11.0733
▁جيبي	-11.0734
▁بكرة	-11.0735
▁جاف	-11.0741
▁بالم	-11.0745
▁تغييره	-11.0746
تعادل	-11.0753
▁پلاصت	-11.0754
▁سألن	-11.0757
▁بنت	-11.0759
وجي	-11.076
العالم	-11.0761
▁96	-11.0763
▁تقولها	-11.0764
▁تمر	-11.0773
▁سماعك	-11.0776
صريح	-11.0778
انية	-11.0783
كلب	-11.0784
سرعة	-11.0791
وض	-11.0796
تحول	-11.0802
▁سياسي	-11.0804
▁لكتاب	-11.0807
▁15	-11.081
▁قارو	-11.081
وسادتي	-11.0817
▁قُب	-11.0819
بطال	-11.082
َّا	-11.0821
حاق	-11.0821
لوغ	-11.0825
بتعد	-11.0831
▁المز	-11.0831
▁كتابي	-11.0833
سدد	-11.0836
اتك	-11.0837
لحركة	-11.0838
▁مسؤولي	-11.0843
▁بهلو	-11.0847
▁ساق	-11.085
▁قارب	-11.0854
وظف	-11.0858
▁مدرسته	-11.0861
كلّم	-11.0862
أجر	-11.0866
▁بدأنا	-11.0871
لِيل	-11.0877
واحد	-11.0887
▁اختي	-11.089
▁السيف	-11.0893
▁دَ	-11.0899
▁إمكاني	-11.09
عل	-11.0902
أقرض	-11.0903
كرامة	-11.0911
▁ارتكابه	-11.0913
▁الصرا	-11.0918
▁إِ	-11.0919
بيانات	-11.0921
قون	-11.0923
▁?	-11.0925
جميع	-11.0929
حظ	-11.0932
▁جربت	-11.0936
لصيد	-11.0938
▁وزن	-11.0939
▁معروفا	-11.0939
▁النهاية	-11.094
▁تبدي	-11.0949
صلة	-11.095
▁انحن	-11.0953
أحيان	-11.0957
▁استلم	-11.0962
▁قامة	-11.0963
▁صحيحا	-11.0963
▁شاء	-11.0966
انڨ	-11.0968
نحتفل	-11.0969
▁قرد	-11.0969
مرافقت	-11.0977
▁جانبا	-11.0987
▁لحن	-11.0988
▁بغرا	-11.0992
▁أعطيته	-11.0996
▁النفس	-11.1002
▁صبت	-11.1004
نكلترا	-11.1014
بار	-11.1014
▁لازَم	-11.1014
شعور	-11.1018
▁بيزا	-11.1021
▁الحلق	-11.1023
▁لأنن	-11.1023
سوية	-11.1029
جو	-11.1033
حذف	-11.1033
▁أعرفها	-11.1037
عن	-11.1041
علي	-11.1043
▁بكلب	-11.1046
▁خذل	-11.1052
قا	-11.1054
مبلغ	-11.1055
ۆ	-11.1056
سم	-11.1056
▁باستطاعت	-11.1062
▁يُعام	-11.1067
▁أغن	-11.1068
▁للح	-11.1068
▁البريطاني	-11.107
عك	-11.108
َاوِ	-11.1081
▁أمامه	-11.1082
▁الظلم	-11.1082
▁تسلّ	-11.1085
▁الوقو	-11.1086
▁تشم	-11.1087
▁يرك	-11.1094
َعَ	-11.1096
▁مص	-11.1096
مْ	-11.1099
▁عُم	-11.1105
k	-11.1108
▁صو	-11.111
▁طويلا	-11.1114
▁حو	-11.1114
ضج	-11.112
▁إخفا	-11.1121
غباء	-11.1121
▁تَر	-11.1128
نباح	-11.1128
▁عملها	-11.1139
قِد	-11.1142
بلغ	-11.1146
▁أحببته	-11.1147
▁نساعد	-11.1149
▁للسّ	-11.1164
▁كيس	-11.1164
▁تريدان	-11.1166
▁ألو	-11.1167
يط	-11.1174
▁الطّا	-11.1178
قفل	-11.1186
قات	-11.1187
تف	-11.12
▁الهن	-11.1202
ياء	-11.1202
▁يلتقيا	-11.1211
▁سيرت	-11.1214
القوة	-11.1215
تواضع	-11.1216
▁كث	-11.1221
▁فاكر	-11.123
بًا	-11.1236
▁طل	-11.124
مامات	-11.124
تشعر	-11.1244
▁تعطيه	-11.1245
▁قَب	-11.1247
حجاب	-11.125
نشره	-11.1259
▁كأم	-11.1261
▁المواق	-11.1264
▁أُنظ	-11.1265
▁الرب	-11.1275
▁a	-11.1281
▁مظلت	-11.129
▁خض	-11.1293
▁تري	-11.1297
لط	-11.1308
▁الشّي	-11.1322
العيادة	-11.1322
َبْ	-11.1328
▁تتح	-11.1332
▁أسر	-11.1334
▁عاديّ	-11.1335
▁أعرفك	-11.1337
ْوَا	-11.1337
▁وحيدا	-11.1342
عاهرة	-11.1349
ئين	-11.1351
؟!"	-11.1358
▁ابنتي	-11.1361
اتنا	-11.1367
لفك	-11.1368
السلام	-11.1368
▁الزر	-11.1371
لازمة	-11.1377
ضه	-11.1379
▁بطول	-11.1383
طاف	-11.1384
ژي	-11.1397
▁بانه	-11.14
لأ	-11.14
▁ساح	-11.1403
▁شَ	-11.1403
▁صرّ	-11.1408
أوقات	-11.1418
▁سنت	-11.1423
حرارة	-11.1426
▁الأي	-11.1427
▁وفقا	-11.1428
أكل	-11.1434
▁الرّب	-11.1435
▁ادّ	-11.1445
ديرها	-11.1448
▁فال	-11.1451
▁للاست	-11.1454
▁ألغ	-11.146
راك	-11.1464
بالغة	-11.1469
▁تص	-11.15
▁صدمت	-11.1502
عون	-11.1508
قاتل	-11.1511
ادق	-11.1515
تدفع	-11.1519
▁سريعا	-11.1519
نافذة	-11.1528
تتحسن	-11.154
▁وح	-11.1541
▁نخ	-11.1541
▁لأخذ	-11.1552
▁مي	-11.1561
▁إحم	-11.1567
مبنى	-11.1569
▁لهُ	-11.1576
وّر	-11.1581
شراء	-11.1582
راني	-11.1587
طلع	-11.1588
ْلِي	-11.1588
▁الدو	-11.1592
بو	-11.1595
دًا	-11.1596
▁حيا	-11.1597
▁تولي	-11.16
▁موسيقي	-11.1607
▁طائرت	-11.161
لموسيقى	-11.1611
▁أكلته	-11.1612
▁أخش	-11.1614
▁يتوقع	-11.1615
la	-11.1616
يّون	-11.1616
تبع	-11.1616
▁الكون	-11.1617
▁حك	-11.1619
▁ناوي	-11.162
الأحمق	-11.1625
▁بسلام	-11.1635
▁اعت	-11.1654
لقيادة	-11.1662
▁تزوجت	-11.1662
▁متزوجا	-11.1663
بول	-11.1663
سأسعد	-11.1664
ائع	-11.1671
طب	-11.1672
▁تحقيقه	-11.1673
حد	-11.1674
▁العاطف	-11.1695
▁جرا	-11.1696
يما	-11.1698
▁المعاش	-11.1701
▁يؤد	-11.1705
پۆرتا	-11.1706
ضطرّ	-11.1709
تفه	-11.1711
ّح	-11.1713
▁ألح	-11.1715
فلام	-11.1721
لّت	-11.1725
▁رس	-11.1728
توي	-11.1737
▁مفا	-11.174
يندا	-11.1741
▁بالا	-11.1744
▁تقبّ	-11.1749
خرجت	-11.1751
قول	-11.1751
▁سيتم	-11.1751
أرجع	-11.1757
▁تخش	-11.1762
▁غيره	-11.1767
رخص	-11.1778
الصعوبة	-11.1782
يجابي	-11.1785
َوّ	-11.1789
جلة	-11.1792
ْوَ	-11.1795
▁لتس	-11.1805
▁إج	-11.1808
أحسن	-11.181
وننا	-11.1818
ميت	-11.1818
أعود	-11.182
َلَ	-11.1825
تحسن	-11.1831
▁أحدث	-11.1841
تمكن	-11.1842
▁عْ	-11.1843
وت	-11.1845
▁يط	-11.185
أرنب	-11.1852
▁العل	-11.1858
▁دوري	-11.186
شت	-11.186
سان	-11.1868
▁فيك	-11.1876
▁الآلا	-11.1878
▁يُز	-11.1881
▁التن	-11.1889
انب	-11.1892
صفّر	-11.1893
ونك	-11.1895
▁الحما	-11.1904
▁ديونه	-11.1911
▁خطته	-11.1915
▁أبا	-11.1923
▁عدل	-11.193
▁يريده	-11.1934
غا	-11.1935
فك	-11.1936
فاجئ	-11.1939
مد	-11.1941
مظاهر	-11.1944
▁يبد	-11.1949
رضى	-11.1949
حقيقيّة	-11.195
حقوق	-11.1953
▁أَم	-11.1954
▁ساتو	-11.1959
▁شخصي	-11.1959
▁ملا	-11.196
▁تطلع	-11.1963
▁المه	-11.1967
▁يتّ	-11.197
موضة	-11.1972
بات	-11.1978
▁أبيضا	-11.1985
▁صيا	-11.1989
ُني	-11.1991
نتظر	-11.1993
▁رسو	-11.1996
▁مَ	-11.2002
▁كتبا	-11.201
ممرّضات	-11.202
▁ملأ	-11.2036
دخن	-11.2038
نفصل	-11.2039
▁الكو	-11.2042
▁تعرّضت	-11.205
فاظ	-11.2055
فيق	-11.2063
▁تصدق	-11.2067
ّهُ	-11.2069
▁المصاب	-11.208
ِلُو	-11.2084
قليل	-11.2085
▁الإي	-11.209
ريب	-11.209
▁بالسّ	-11.21
جم	-11.2104
التفاصيل	-11.2105
▁تحك	-11.2107
▁رجع	-11.2117
▁أهو	-11.2117
▁إضافي	-11.2121
نز	-11.2121
مصعد	-11.2124
غل	-11.214
▁فإنن	-11.2141
ديّة	-11.2143
ليلى	-11.2152
رح	-11.2155
▁السّو	-11.2161
▁أجله	-11.2163
▁طّ	-11.2163
▁تريدون	-11.2176
لد	-11.2181
▁بقع	-11.2183
▁جُ	-11.2187
يته	-11.2187
مني	-11.2194
وتان	-11.2204
مار	-11.2231
▁زي	-11.2233
▁دهن	-11.224
ميث	-11.2242
اتِ	-11.2246
منا	-11.2247
تتأخر	-11.2253
رية	-11.2258
لقي	-11.226
▁زفافه	-11.2267
ؤذي	-11.2268
افقني	-11.2274
أبدية	-11.2276
مثال	-11.2279
نجح	-11.228
الاهتمام	-11.2282
▁بداخل	-11.2284
،"	-11.2286
كرهكِ	-11.2292
صَ	-11.2304
فُس	-11.2304
▁النص	-11.2309
▁قا	-11.2318
وير	-11.232
▁اخذ	-11.2323
قِي	-11.2329
هاء	-11.2334
أكيد	-11.2338
فز	-11.2347
سين	-11.2362
▁يتخ	-11.2362
حروب	-11.2372
▁أبق	-11.2375
قوع	-11.238
▁لح	-11.2381
▁شط	-11.2384
▁يُر	-11.2388
▁يَكُ	-11.2405
▁نت	-11.2412
رقم	-11.2412
▁لفت	-11.2432
ضا	-11.2443
▁يُغ	-11.2443
▁التغ	-11.2447
▁مدرّسو	-11.2452
▁وص	-11.2457
أجل	-11.2459
▁السو	-11.2463
آس	-11.2467
▁يُج	-11.2468
▁الحجر	-11.2486
حٌ	-11.2487
▁السعيد	-11.2488
▁صحي	-11.2491
زيارة	-11.2506
▁باقي	-11.2507
▁إقتر	-11.2509
صدقه	-11.2515
زع	-11.2518
قابله	-11.2524
ألعب	-11.2526
نهض	-11.2531
ْدُ	-11.2549
▁نومه	-11.2556
سية	-11.2557
زن	-11.2558
▁شرط	-11.2561
▁يُق	-11.2569
▁أقر	-11.257
▁تُرِ	-11.2572
▁يتح	-11.2574
الجوع	-11.258
كت	-11.2582
ّمة	-11.2583
خضر	-11.2589
ِينِ	-11.259
▁اول	-11.2595
▁أجده	-11.2596
خَ	-11.2607
▁تبا	-11.2609
▁ستُ	-11.261
▁التّن	-11.2611
▁سيئ	-11.2612
عر	-11.2615
▁فاي	-11.2622
▁رقمه	-11.2633
▁الدّر	-11.2634
▁معرض	-11.2641
يدة	-11.2642
ذوق	-11.2642
إقامة	-11.2655
▁أُن	-11.2663
0.	-11.2667
رةً	-11.2686
▁ولو	-11.269
▁200	-11.2694
لبنزين	-11.2696
▁لعام	-11.2705
▁بالق	-11.2716
ضمن	-11.2718
▁قطر	-11.2721
نتها	-11.2724
▁تعطين	-11.2731
نستمع	-11.2733
يّر	-11.275
▁النّب	-11.2752
ملِك	-11.2754
▁تعرفت	-11.2761
روه	-11.2778
زوك	-11.2778
▁تعاط	-11.2785
تغيرت	-11.2785
يمضي	-11.2786
ِّرَ	-11.2787
▁يُع	-11.2789
▁النحل	-11.2793
سن	-11.2797
▁الكا	-11.2804
▁إشعا	-11.2804
▁لَ	-11.2831
ِبَ	-11.2838
▁غار	-11.2843
▁واسم	-11.2843
ويّة	-11.2843
▁البل	-11.2843
▁دولارا	-11.285
▁أخبرن	-11.2855
▁كانو	-11.2873
دار	-11.2874
َفْ	-11.2882
تحتاج	-11.2886
غي	-11.2887
▁فع	-11.289
يقاظ	-11.2893
برئ	-11.2899
▁الخط	-11.2901
▁عَ	-11.2909
عِد	-11.2923
خرس	-11.2928
قه	-11.2929
عدم	-11.2934
رۆ	-11.2939
▁فشيئا	-11.295
▁اللازم	-11.2953
▁سُ	-11.2955
ظل	-11.296
اؤه	-11.2967
جيّة	-11.2968
▁المطرق	-11.2975
▁جاهزة	-11.2981
▁يعي	-11.2982
لتبضع	-11.2985
رص	-11.2993
▁السج	-11.2995
▁إحدا	-11.2996
تفكير	-11.2998
▁تُس	-11.3001
شيء	-11.3007
رٍ	-11.3016
عبر	-11.3019
▁يقتله	-11.3021
▁المج	-11.3029
علام	-11.3033
حوّس	-11.3038
▁يائس	-11.304
توافق	-11.3043
لبس	-11.3044
ظاهر	-11.3045
سِي	-11.3046
▁لكلا	-11.3046
▁قب	-11.3048
ودك	-11.3049
▁الأما	-11.3052
▁50	-11.3058
توتر	-11.3059
مصالح	-11.3059
نشأ	-11.306
اكل	-11.3068
▁بالدم	-11.3068
لوني	-11.3069
دها	-11.307
▁يرن	-11.3076
▁الإب	-11.3076
رقت	-11.3077
▁مخطئا	-11.3078
أنها	-11.3084
▁فظ	-11.3085
▁شويّ	-11.3086
زو	-11.3086
أسف	-11.3091
▁يتغيّ	-11.3096
▁حسابات	-11.3096
إن	-11.3099
وّ	-11.3113
برد	-11.3114
ةُ	-11.3117
انتظارك	-11.3122
يفقد	-11.3134
▁ثمل	-11.3137
احمر	-11.3138
حا	-11.314
فان	-11.3144
درست	-11.3147
كُنْ	-11.3158
▁الشّك	-11.3158
▁أحبّه	-11.316
▁لرؤيت	-11.3161
▁الذّ	-11.3169
َلَا	-11.3172
مض	-11.3184
واجبك	-11.3185
▁الْأَ	-11.3193
لرّجال	-11.3198
مدينة	-11.3199
يرغب	-11.3201
▁عليكم	-11.3202
كبت	-11.3208
سلام	-11.3211
▁باستطاع	-11.3212
فيه	-11.3217
▁أرك	-11.3227
يراً	-11.3229
▁r	-11.323
▁رح	-11.3232
تِل	-11.3239
▁محفظ	-11.3241
تلقّي	-11.3245
تِي	-11.3245
زر	-11.325
▁شن	-11.3253
▁والد	-11.3263
▁الخلو	-11.327
قاو	-11.328
▁قبلت	-11.3285
▁جامعيّ	-11.3289
▁المؤ	-11.3293
عقاب	-11.3304
▁كلّي	-11.3319
▁الطب	-11.3326
▁دجاج	-11.3328
ايات	-11.3342
▁إش	-11.3344
خَا	-11.3345
▁خجِل	-11.3352
▁المروحي	-11.3353
▁أخف	-11.3356
▁الجنوب	-11.3357
▁المغ	-11.3362
ِّي	-11.3362
حضرا	-11.3369
بقة	-11.3374
ررت	-11.3378
مح	-11.3384
ّيت	-11.3386
يتر	-11.3394
مّر	-11.3417
َى	-11.3424
اءً	-11.3425
يكو	-11.3428
▁ألما	-11.3438
▁العقار	-11.3443
او	-11.3445
▁هذ	-11.3449
شخص	-11.345
▁فق	-11.3454
▁يخل	-11.3456
▁محلّي	-11.3465
▁ثقافي	-11.347
ِع	-11.3473
واحي	-11.3493
جا	-11.3496
قلب	-11.3501
▁عنصر	-11.3506
لإمتحان	-11.3508
▁جورجي	-11.3511
▁سيخبر	-11.3512
▁يعت	-11.3514
▁قصّ	-11.3515
راهُ	-11.3517
▁سائل	-11.3517
لدراجة	-11.3527
لوسي	-11.3531
زة	-11.3533
▁أث	-11.3536
▁ديمقراطي	-11.3538
▁نجا	-11.3542
خبر	-11.3545
ينة	-11.3546
▁تجرب	-11.3552
▁اليد	-11.3553
▁المصا	-11.3555
▁أخوات	-11.3556
بُ	-11.356
جِب	-11.3563
ىَ	-11.357
حك	-11.3576
ضل	-11.3577
▁قهو	-11.3578
طو	-11.3582
غادر	-11.3586
▁اجت	-11.3586
بيك	-11.359
رش	-11.3598
قرض	-11.3599
▁يمس	-11.3602
لقت	-11.3605
▁پلاص	-11.3609
▁حت	-11.3612
▁برتقال	-11.3616
▁الكامل	-11.362
▁دخ	-11.3622
هدر	-11.3626
▁بير	-11.3627
▁جدار	-11.3628
َرُ	-11.3629
شهور	-11.3635
توسّ	-11.3641
▁يتع	-11.3644
▁عادا	-11.3645
تق	-11.365
الت	-11.3652
▁لأجل	-11.366
▁ستحص	-11.3661
فف	-11.3669
▁فنجانا	-11.3672
▁جه	-11.3673
▁ضرر	-11.3694
حكمة	-11.3711
▁وم	-11.3715
▁سارة	-11.3723
رثار	-11.3724
▁يعر	-11.3725
▁متو	-11.3725
▁مكانا	-11.3725
▁ديون	-11.3728
رار	-11.373
ُكِ	-11.3741
▁إبنه	-11.3745
▁يتعلمو	-11.3753
دم	-11.3754
▁المرب	-11.3757
▁إزا	-11.3763
▁النّق	-11.3763
سه	-11.3766
ّني	-11.3769
ثي	-11.377
ليّة	-11.3772
▁للدّ	-11.3775
▁غاضبا	-11.3781
زح	-11.3782
أجلها	-11.3784
عشرة	-11.379
تسلم	-11.3791
اتية	-11.3791
حدى	-11.3799
▁جرائم	-11.38
▁تقرا	-11.3804
ونغ	-11.3807
شاب	-11.3807
▁صادقة	-11.381
▁رئيسا	-11.3812
▁أتم	-11.3812
▁سيك	-11.3819
ِيت	-11.3825
ميّة	-11.383
▁سيكل	-11.3832
▁ساعدت	-11.3833
▁لقي	-11.3835
▁جوارب	-11.3837
▁ينتظره	-11.3842
▁يرق	-11.3842
بدو	-11.3842
يديك	-11.3843
▁المُ	-11.3844
ردّ	-11.3844
ُث	-11.3846
▁دُ	-11.3847
▁أَع	-11.385
ۆت	-11.3856
ريس	-11.3867
ha	-11.387
وكي	-11.3871
▁التص	-11.3876
▁أضف	-11.3877
▁حُ	-11.3882
▁إح	-11.3884
التقدم	-11.3888
▁العن	-11.389
▁مأساوي	-11.3895
عو	-11.3896
هى	-11.3902
ملت	-11.3902
▁فخورا	-11.3902
▁يزر	-11.3903
▁ماريا	-11.3903
▁هام	-11.3906
▁الصّع	-11.3907
▁ينادي	-11.3907
نافس	-11.391
لموضة	-11.3919
▁أناني	-11.3923
▁سأحب	-11.3928
▁الأسر	-11.3932
▁انزع	-11.3938
ناء	-11.394
طائك	-11.3942
▁لأجله	-11.3944
ائلة	-11.3945
▁ايضا	-11.3949
لاند	-11.3961
فكرة	-11.3972
ذهبت	-11.3972
ِئ	-11.3977
▁النس	-11.3983
▁إيد	-11.3987
▁إدا	-11.3988
ذكّر	-11.3988
▁أعطا	-11.3994
▁حارة	-11.3997
انها	-11.4015
البيت	-11.4015
ئت	-11.4016
عتُ	-11.4022
▁التل	-11.4027
▁صناعي	-11.4029
لِي	-11.4032
▁أصلي	-11.4034
▁بأم	-11.4038
نصر	-11.4038
سائق	-11.4043
عاملتها	-11.4045
▁ينب	-11.4052
▁فو	-11.4053
رفق	-11.4054
▁وطني	-11.4055
ُكَ	-11.4065
يار	-11.4065
جوّا	-11.4071
البرتقالة	-11.4084
▁صب	-11.4084
قتك	-11.4086
شِي	-11.4087
▁أبناءه	-11.4087
كار	-11.4092
▁يتكلمو	-11.4094
▁لسن	-11.4095
نو	-11.4096
▁قري	-11.4096
▁مضرب	-11.4105
▁القطب	-11.4111
▁التقيته	-11.4117
▁كالب	-11.412
مرّة	-11.4122
▁كدا	-11.4124
▁خجول	-11.4133
▁يسار	-11.4134
ُمْ	-11.414
لاحق	-11.4141
▁لذيذ	-11.4144
▁أكرهك	-11.415
نّي	-11.4151
▁حساسي	-11.4152
حَر	-11.4154
حدّ	-11.4158
▁ۆ	-11.4158
تح	-11.4165
ورد	-11.4167
تزوّج	-11.4168
قابلة	-11.4177
▁تبد	-11.418
جيش	-11.4184
▁مفت	-11.4185
لبيت	-11.4191
جاذب	-11.4192
الذي	-11.4194
▁إيجار	-11.4194
يَ	-11.4196
فتاة	-11.4196
▁هاك	-11.4199
نشئ	-11.42
▁اقترح	-11.42
هور	-11.4202
لحظ	-11.4204
▁قاسي	-11.4212
▁للع	-11.4212
▁دما	-11.4212
إذا	-11.4212
▁إقت	-11.4213
▁صورت	-11.4214
▁واشن	-11.4214
▁الوس	-11.4216
عز	-11.4219
اعتقاد	-11.4224
صائب	-11.4227
صر	-11.4227
▁انفج	-11.4236
َسُ	-11.4238
▁وجدنا	-11.4241
بيخ	-11.4246
▁معدت	-11.4246
كانت	-11.4248
نيا	-11.4252
لس	-11.4252
تبعه	-11.4255
قبلة	-11.4266
ذه	-11.4267
▁تكلف	-11.4271
طائر	-11.4272
▁لَقَد	-11.4272
جري	-11.4275
▁رم	-11.4284
فتى	-11.4289
▁خر	-11.4289
يكا	-11.4292
حسّ	-11.4295
قُ	-11.4301
عرّض	-11.4301
▁العص	-11.4304
▁جاد	-11.4308
▁ياكل	-11.4308
سبانيا	-11.4309
▁متأكّدا	-11.4311
▁نادر	-11.4313
تذاكر	-11.4314
f	-11.4319
أصفر	-11.4321
لش	-11.4322
▁فاتت	-11.4325
تغيير	-11.4326
وبا	-11.4328
أربعين	-11.4333
طت	-11.4335
▁تبال	-11.4342
r	-11.435
نَّ	-11.4352
▁سكين	-11.4358
عين	-11.4364
شديدة	-11.4365
بنطال	-11.4374
▁مدعو	-11.4375
▁السّع	-11.4378
▁يمّا	-11.438
سع	-11.4387
عفوا	-11.439
حساس	-11.4396
▁اشتراك	-11.4399
▁الإن	-11.4406
▁التحدي	-11.4408
قلع	-11.4422
بإمكانك	-11.4422
سيا	-11.4429
▁عنوانه	-11.4431
▁بوجود	-11.4432
بالنسبة	-11.4433
لحديث	-11.4433
▁تزوج	-11.4436
اضطرر	-11.4441
▁لقول	-11.4444
َحَ	-11.4445
▁تبقي	-11.4447
داخل	-11.4447
فيا	-11.4449
أسابيع	-11.4451
تلاميذ	-11.4457
باحيّة	-11.4459
ذاكر	-11.4467
w	-11.4468
ولوجيا	-11.4472
بالتأكيد	-11.4478
ألعاب	-11.4479
إيجاد	-11.448
▁علابال	-11.4488
سيارته	-11.4489
اشتراك	-11.449
إقناع	-11.4493
يمة	-11.4494
زعيم	-11.4495
▁معلوم	-11.4496
لٍ	-11.4496
▁ديس	-11.4502
ياد	-11.4503
مدارس	-11.4504
▁طي	-11.4504
انٍ	-11.4507
دكتور	-11.451
طعم	-11.4511
ّانا	-11.4511
▁مُن	-11.4511
ساعتين	-11.4516
فوّت	-11.4517
▁وَتَ	-11.4518
والدك	-11.4526
شاعر	-11.4527
دية	-11.453
إطلاق	-11.4539
مستقيم	-11.4541
ممرّضة	-11.4544
لتُ	-11.4545
▁الغير	-11.4546
إذن	-11.4547
مسدّس	-11.4548
أسوأ	-11.455
عدنا	-11.4554
بذل	-11.4554
وتها	-11.4555
صورة	-11.4557
وطن	-11.456
السرقة	-11.4562
ليه	-11.4563
رّا	-11.4568
شخصيته	-11.457
َدْ	-11.4572
أثّرت	-11.4573
وظ	-11.4574
فعله	-11.4575
يظن	-11.4576
ّابق	-11.4578
قم	-11.4578
▁اقت	-11.4578
▁المو	-11.4581
ملاحظة	-11.4583
مريض	-11.4583
تحمّل	-11.4587
الما	-11.4589
باد	-11.4591
ْلاب	-11.4593
ْقَ	-11.4593
▁الدّع	-11.4595
لغتهم	-11.4595
سكي	-11.4595
رمز	-11.4597
▁أجنبي	-11.4597
▁أتوقّ	-11.4597
حن	-11.4599
يفية	-11.4601
فرحا	-11.4606
فقير	-11.4607
▁أخطأ	-11.4607
الضرورة	-11.4607
أعداء	-11.4608
أبناء	-11.4609
استعمال	-11.4611
الخيول	-11.4611
▁وقال	-11.4612
بعث	-11.4612
إمكان	-11.4613
ra	-11.4616
مكتبه	-11.4621
شعرها	-11.4622
وضة	-11.4625
حام	-11.4626
▁كيم	-11.4626
▁تعط	-11.4628
يهرب	-11.4631
▁تعج	-11.464
السّيّارة	-11.4646
متع	-11.465
لماذا	-11.4651
ذئب	-11.466
ma	-11.466
النجوم	-11.466
أَلَ	-11.4662
التوفيق	-11.4664
واصلة	-11.4668
▁إعتق	-11.467
تيليفون	-11.4671
أخبرها	-11.4671
▁بريطاني	-11.4673
▁أكُن	-11.4673
▁اج	-11.4675
ذاء	-11.4677
▁يونا	-11.4678
نمو	-11.4686
▁عقلي	-11.4687
▁إِلَ	-11.4691
▁الرياض	-11.4696
قترب	-11.4699
دّتي	-11.4699
▁يتخاصم	-11.4704
▁بواجب	-11.4707
▁عَن	-11.4707
سرائيل	-11.4707
معنى	-11.4709
ديما	-11.471
دش	-11.4715
أغلق	-11.4715
▁غا	-11.4717
▁فرانس	-11.4719
ترجمة	-11.4724
▁إصلاح	-11.4725
خط	-11.4725
طأ	-11.4727
اعات	-11.4729
▁للاخت	-11.4729
▁جفّ	-11.473
جتمع	-11.4736
خبره	-11.474
▁ألماني	-11.4743
▁زملائه	-11.4745
مَانِ	-11.4745
▁انضم	-11.475
▁خسار	-11.4753
ٰ	-11.4755
▁دائم	-11.4757
اڨ	-11.4758
حث	-11.4759
ثاني	-11.4759
غناء	-11.4762
تصنع	-11.4763
▁إسلامي	-11.4764
مرأة	-11.4765
▁يبق	-11.4766
▁تجد	-11.4769
▁قُتِل	-11.4769
الثقاف	-11.4776
امة	-11.4778
جبان	-11.478
طبخ	-11.4783
ائط	-11.4786
▁سياح	-11.4787
ُحِب	-11.4788
ْصَ	-11.479
قدر	-11.479
اريخ	-11.4793
▁معاق	-11.4795
▁اعرف	-11.4795
▁النَّا	-11.4796
طلّق	-11.4797
ضجيج	-11.4798
حيث	-11.48
ستمر	-11.4802
طّبيب	-11.4804
صداق	-11.4808
ِح	-11.4808
َحْم	-11.4808
َاشْ	-11.4808
محاضرة	-11.481
▁مرتبك	-11.481
َقْدَ	-11.481
رن	-11.4812
ستقرّ	-11.4812
متهم	-11.4813
وخ	-11.4813
ْعَ	-11.4813
▁مرتفع	-11.4816
▁الطبيعي	-11.4816
تزلج	-11.4818
▁أتظن	-11.4819
▁لَم	-11.482
منزله	-11.4822
▁يافع	-11.4823
▁الحديد	-11.4825
خلاص	-11.4826
▁الدرج	-11.4828
▁السابع	-11.483
▁يمك	-11.483
▁الانجليزي	-11.4831
▁التّص	-11.4831
▁لفعل	-11.4833
▁تور	-11.4834
تدرب	-11.4837
ِش	-11.4839
▁تفاح	-11.4839
ثارة	-11.484
▁درّاجت	-11.484
▁وله	-11.484
اكن	-11.4841
▁شاعر	-11.4841
▁نبح	-11.4842
▁أهد	-11.4842
▁بساط	-11.4842
▁أغراض	-11.4844
واع	-11.4844
▁السلط	-11.4846
لفراش	-11.4846
▁هدّ	-11.4846
▁يُش	-11.4849
▁الأمازيغي	-11.4849
أزمة	-11.4849
ختبئ	-11.485
ُوه	-11.485
ثار	-11.485
▁إثنا	-11.4851
▁هُنا	-11.4853
ُلْ	-11.4853
▁المنطق	-11.4854
▁بنجاح	-11.4855
َامِ	-11.4856
▁اكتش	-11.4856
▁الْحَ	-11.4857
ِيهِ	-11.4857
ّرني	-11.4863
فنة	-11.4863
بطيخ	-11.4864
▁المد	-11.4868
نكولن	-11.4869
▁بشؤون	-11.487
▁السّابق	-11.487
▁اقتصاد	-11.487
▁متساو	-11.4871
فتكر	-11.4872
صّة	-11.4872
▁المعلوم	-11.4872
ظهره	-11.4873
▁دوما	-11.4873
ريپۆن	-11.4875
▁التالي	-11.4876
رطان	-11.4876
▁سأحض	-11.4878
g	-11.488
عتاد	-11.4881
سكتلند	-11.4881
▁مسؤ	-11.4881
▁حواسيب	-11.4881
٨	-11.4882
▁بالحك	-11.4883
el	-11.4883
le	-11.4883
٠	-11.4883
x	-11.4884
ṛa	-11.4884
feṛ	-11.4884
▁A	-11.4884
▁الإمبراطوري	-11.4884
▁الجغرافي	-11.4884
▁بإنجازات	-11.4884
▁جَمِيْع	-11.4884
▁سيپالاپ	-11.4884
▁كِتَاب	-11.4884
▁لإُستاذ	-11.4884
▁لْعَبْ	-11.4884
▁متفجّرا	-11.4884
▁يَأْتِ	-11.4884
▁يَشْطَح	-11.4884
▁ژاپۆني	-11.4884
%	-11.4884
B	-11.4884
R	-11.4884
\\	-11.4884
q	-11.4884
آيسلندية	-11.4884
الهولندية	-11.4884
خَدِيجَة	-11.4884
دوڥيني	-11.4884
سكندرية	-11.4884
ِ‍”	-11.4884
٣	-11.4884
ڤ	-11.4884
▁3,000,000	-11.4884
▁bezzaf	-11.4884
▁إسرائل	-11.4884
▁إسطنبول	-11.4884
▁اعتُقِل	-11.4884
▁الأوغاد	-11.4884
▁الإختبار	-11.4884
▁الازدهار	-11.4884
▁الاستثمار	-11.4884
▁البولندية	-11.4884
▁التليفون	-11.4884
▁التنبؤ	-11.4884
▁الجامعات	-11.4884
▁الحضيض	-11.4884
▁الخنزير	-11.4884
▁الديموقراطية	-11.4884
▁الدّخول	-11.4884
▁الدّراسيّة	-11.4884
▁الذئاب	-11.4884
▁السباغتي	-11.4884
▁الضّجيج	-11.4884
▁الطماطم	-11.4884
▁العنكبوت	-11.4884
▁الكهربائية	-11.4884
▁الكونغرس	-11.4884
▁اللّحظات	-11.4884
▁المشاهير	-11.4884
▁النّجوم	-11.4884
▁الْوَحْيُ	-11.4884
▁انفلوانسا	-11.4884
▁بالسواحيلية	-11.4884
▁بيكاسو	-11.4884
▁بَزَّافْ	-11.4884
▁تشبّث	-11.4884
▁تَحَكَم	-11.4884
▁تّربييا	-11.4884
▁ثلاجته	-11.4884
▁ثِقَتَهُم	-11.4884
▁جْدِيدْ	-11.4884
▁حُلَّةٌ	-11.4884
▁حِرَاءٍ	-11.4884
▁راپيد	-11.4884
▁رۆبۆ	-11.4884
▁سأراقبك	-11.4884
▁سۆلوسيۆن	-11.4884
▁طَلَبَ	-11.4884
▁فرانسيسكو	-11.4884
▁قبائلي	-11.4884
▁قنبلة	-11.4884
▁كارلوس	-11.4884
▁كرواتيا	-11.4884
▁كِذبة	-11.4884
▁للتّجوّل	-11.4884
▁للدّخول	-11.4884
▁للعصابات	-11.4884
▁للقرآن	-11.4884
▁ليديفۆ	-11.4884
▁لْيوما	-11.4884
▁مؤقّتة	-11.4884
▁مكافأة	-11.4884
▁ملحوظة	-11.4884
▁ميوريل	-11.4884
▁والقطط	-11.4884
▁ولأسرته	-11.4884
▁وَعَلَيْهِ	-11.4884
▁يَأْكُل	-11.4884
▁يَقُول	-11.4884
▁كوبيكًا	-11.4884
▁لعشيّا	-11.4884
▁ناضِج	-11.4884
▁وحدوخرا	-11.4884
التخطيط	-11.4884
الْكَذِب	-11.4884
تطوّع	-11.4884
ُخْرِج	-11.4884
▁الإذاعيّة	-11.4884
▁الديناصور	-11.4884
▁الرَّجُل	-11.4884
▁المتنزه	-11.4884
▁المرحاض	-11.4884
▁الْمُسْلِمُ	-11.4884
▁بمسدس	-11.4884
▁تُمطِر	-11.4884
▁دافِع	-11.4884
▁ستفعَل	-11.4884
▁سنتيمترًا	-11.4884
▁صاغية	-11.4884
▁طِوال	-11.4884
▁قفازيه	-11.4884
▁لحكايا	-11.4884
▁مبعثرة	-11.4884
▁مشابهًا	-11.4884
▁وسّمها	-11.4884
▁يتصافح	-11.4884
▁يطارده	-11.4884
I	-11.4884
aḥe	-11.4884
hla	-11.4884
متحجّبة	-11.4884
ميكانيكي	-11.4884
▁أتزوجك	-11.4884
▁الجنائز	-11.4884
▁الملائكة	-11.4884
▁المهندس	-11.4884
▁خواتما	-11.4884
▁دزاير	-11.4884
▁عُنصري	-11.4884
▁قاقُم	-11.4884
▁مقنعا	-11.4884
▁وَشْ	-11.4884
▁يَهْد	-11.4884
دغدغ	-11.4884
شخيص	-11.4884
▁تعسفا	-11.4884
▁توازنه	-11.4884
▁خنزير	-11.4884
▁سبتمبر	-11.4884
▁طازج	-11.4884
▁كوباكًا	-11.4884
إملائي	-11.4884
▁خشبي	-11.4884
كاپّۆ	-11.4884
۹	-11.4884
▁أَجْوَد	-11.4884
▁العظيم	-11.4884
▁فُزت	-11.4884
پرۆبابل	-11.4884
▁اللّحظة	-11.4884
▁اْلأَشْ	-11.4884
▁حشمان	-11.4884
ɛeb	-11.4884
▁بالضّبط	-11.4884
▁رخصتك	-11.4884
▁انتخاب	-11.4884
▁تُوفِّي	-11.4884
▁جوربيك	-11.4884
▁زبدة	-11.4884
▁سيباست	-11.4884
▁قبّعت	-11.4884
▁لكتيبا	-11.4884
▁للانتقام	-11.4884
▁السّخيف	-11.4884
▁بالوجع	-11.4884
▁بمفردك	-11.4884
▁صعيبا	-11.4884
▁أنفاسك	-11.4884
▁الأمواج	-11.4884
▁فاجئتني	-11.4884
▁مسبقًا	-11.4884
َخِّ	-11.4884
▁إدراك	-11.4884
▁الثّالث	-11.4884
▁طموحه	-11.4884
▁مبتهج	-11.4884
ثعابين	-11.4884
▁ta	-11.4884
▁نصيحة	-11.4884
ْكُوبِي	-11.4884
▁وداعا	-11.4884
▁الهزيمة	-11.4884
▁الوداع	-11.4884
▁تمزيق	-11.4884
▁خربش	-11.4884
ْجوم	-11.4884
▁لفاقير	-11.4884
▁مقرّبا	-11.4884
▁يْروح	-11.4884
▁الثابت	-11.4884
▁ثعلبًا	-11.4884
▁وَاْلفَ	-11.4884
▁اللعنة	-11.4884
▁مصادر	-11.4884
▁نواياه	-11.4884
ow	-11.4884
اتخاذ	-11.4884
▁معتدل	-11.4884
▁أنفسكم	-11.4884
▁الأسبانية	-11.4884
▁بزوجتي	-11.4884
▁نْهار	-11.4884
▁أبنائه	-11.4884
▁الدرّاجة	-11.4884
▁ميؤوس	-11.4884
▁الدّولارات	-11.4884
▁جلدية	-11.4884
▁لغاشي	-11.4884
▁مبروك	-11.4884
▁بكلامه	-11.4884
▁مهندس	-11.4884
▁بأسمائ	-11.4884
▁إميلي	-11.4884
▁السخيف	-11.4884
▁الفيروس	-11.4884
▁اللّحم	-11.4884
▁جذوره	-11.4884
▁متأثّر	-11.4884
▁المكونات	-11.4884
▁النهائي	-11.4884
▁عقوبته	-11.4884
▁مؤدب	-11.4884
ومباي	-11.4884
re	-11.4884
▁تطابق	-11.4884
▁أحيانًا	-11.4884
▁محسوم	-11.4884
▁مزارع	-11.4884
▁مسطحة	-11.4884
▁مَلِك	-11.4884
▁المعدنية	-11.4884
▁جاسوس	-11.4884
▁فكاهي	-11.4884
▁الألباني	-11.4884
▁يكلمني	-11.4884
▁ممتلكات	-11.4884
▁طُلِ	-11.4884
▁يذوب	-11.4884
▁امريكي	-11.4884
▁الأستاذ	-11.4884
▁بلبزّاف	-11.4884
▁تندمَ	-11.4884
▁مُشغّل	-11.4884
▁بلجيك	-11.4884
▁تأذن	-11.4884
▁عالشجرة	-11.4884
▁أَخَذَ	-11.4884
بورصة	-11.4884
▁مؤخّر	-11.4884
فكاهة	-11.4884
▁١٩٤	-11.4884
▁البترول	-11.4884
▁السلالم	-11.4884
▁الإستيقاظ	-11.4884
▁البراءة	-11.4884
ستاسيۆن	-11.4884
ُلِّ	-11.4884
▁طبيعتها	-11.4884
▁عيّان	-11.4884
نَفْسِ	-11.4884
▁بارزا	-11.4884
▁الغنيمة	-11.4885
▁بعمق	-11.4885
انطباع	-11.4885
▁معصوم	-11.4885
nel	-11.4885
▁192	-11.4885
▁استُجو	-11.4885
▁التّخلّ	-11.4885
▁النصوص	-11.4885
▁مواجهتها	-11.4885
▁وْلِيد	-11.4885
▁90	-11.4885
al	-11.4885
▁كذالك	-11.4885
▁سأخبرك	-11.4885
▁201	-11.4885
▁انتخبناه	-11.4885
▁بالتدري	-11.4885
▁إرادته	-11.4885
▁روبوت	-11.4885
▁كِيف	-11.4885
▁الرواق	-11.4885
▁منحوس	-11.4885
▁شَيء	-11.4885
▁مغادرا	-11.4885
▁الجنود	-11.4885
▁الشّقراء	-11.4885
▁لابنتي	-11.4885
▁احتقر	-11.4885
▁الشرقي	-11.4885
es	-11.4885
الغولف	-11.4885
▁صادما	-11.4885
▁مُحِق	-11.4885
▁السّيّئة	-11.4885
▁مفلس	-11.4885
▁تشرّف	-11.4885
▁مضطربا	-11.4885
▁أمازيغيا	-11.4885
▁نسويّة	-11.4885
in	-11.4885
▁البديل	-11.4885
▁17	-11.4885
جاوبت	-11.4885
▁مسرعا	-11.4885
▁194	-11.4885
▁استثنائي	-11.4885
تمسّك	-11.4885
▁السبورة	-11.4885
▁بصدد	-11.4885
▁العميق	-11.4885
▁السليم	-11.4885
▁السباق	-11.4885
▁التشينة	-11.4885
▁تُمطر	-11.4885
▁دماغ	-11.4885
سورپريز	-11.4885
▁اعيشو	-11.4885
قبعتك	-11.4885
▁لبنان	-11.4885
▁رؤوس	-11.4885
▁شَنَ	-11.4885
▁إقامته	-11.4885
▁انطفأ	-11.4885
▁ستزور	-11.4885
▁الراتب	-11.4885
▁السّياس	-11.4885
▁حاجبي	-11.4885
▁عوقب	-11.4885
▁والحر	-11.4886
▁حجرا	-11.4886
▁شَرِب	-11.4886
مُستقب	-11.4886
▁هاكدا	-11.4886
▁الخطيرة	-11.4886
١٨	-11.4886
▁ديالهوم	-11.4886
▁خروف	-11.4886
▁معزول	-11.4886
▁جنونيّا	-11.4886
▁روبرت	-11.4886
▁العبيد	-11.4886
We	-11.4886
▁السّكّر	-11.4886
▁حواسيبِكُ	-11.4886
▁الغبية	-11.4886
▁نمدّ	-11.4886
▁احترق	-11.4886
▁خُدع	-11.4886
▁يستسلم	-11.4886
▁ثابت	-11.4886
▁تصليح	-11.4886
▁تعليق	-11.4886
▁أُصيب	-11.4886
▁غطس	-11.4886
▁مجانًا	-11.4886
▁يحترق	-11.4886
▁الفيلو	-11.4886
يخلصو	-11.4886
▁إكراميّة	-11.4886
▁جنسيا	-11.4886
▁ديسيدي	-11.4886
تناقض	-11.4886
▁بوسطون	-11.4887
شهادته	-11.4887
▁فرصت	-11.4887
▁النّهر	-11.4887
▁سُرِ	-11.4887
▁نسبيا	-11.4887
الفرنسيّةِ	-11.4887
بِسْ	-11.4887
▁جيوش	-11.4887
▁ألياف	-11.4887
▁لمحتها	-11.4887
تزايد	-11.4887
▁عموميّة	-11.4887
▁وجّه	-11.4887
خاطفو	-11.4887
تعويض	-11.4887
▁سليما	-11.4887
▁انخف	-11.4887
▁المعبد	-11.4887
▁فرانك	-11.4887
خّص	-11.4887
ag	-11.4887
رؤى	-11.4887
▁الشائع	-11.4887
▁سيركٌ	-11.4887
▁للمطار	-11.4887
ثنائي	-11.4887
يَدِهِ	-11.4887
ستيۆن	-11.4887
▁الأوضة	-11.4888
▁الشّعر	-11.4888
▁يسدّد	-11.4888
پّي	-11.4888
▁يوظفك	-11.4888
▁معلّما	-11.4888
▁دفتر	-11.4888
▁مكلف	-11.4888
▁شقيق	-11.4888
▁صدوق	-11.4888
▁قاصر	-11.4888
نفاق	-11.4888
▁اللوحات	-11.4888
▁بابنته	-11.4888
▁بالمجان	-11.4888
تايلاند	-11.4888
▁حامض	-11.4888
كۆمپ	-11.4889
▁اصطحباه	-11.4889
تفرّغ	-11.4889
▁مستقيماً	-11.4889
▁تناكا	-11.4889
▁سيسدد	-11.4889
َاهْ	-11.4889
▁خدعوك	-11.4889
▁تعازي	-11.4889
▁فاسد	-11.4889
▁السّلام	-11.4889
إساءة	-11.4889
▁اتخذ	-11.4889
▁تنفق	-11.4889
▁مِثل	-11.4889
▁أمزح	-11.4889
ِيِّين	-11.4889
▁حمّام	-11.4889
▁الستار	-11.4889
بوستون	-11.4889
▁ذكاء	-11.4889
▁إنقاذ	-11.489
اختلاط	-11.489
▁تجميليّ	-11.489
▁الكافيار	-11.489
▁لدواء	-11.489
▁الإشارة	-11.489
▁نتقاسم	-11.489
▁خليفة	-11.489
▁شائع	-11.489
ثلاّجة	-11.489
▁مدوّ	-11.489
▁الأمتعة	-11.489
▁للترجمة	-11.489
▁كالعادة	-11.489
▁الموعد	-11.489
▁هاملت	-11.489
سيۆن	-11.4891
▁فلنبدأ	-11.4891
▁عبقري	-11.4891
▁البسي	-11.4891
حِق	-11.4891
▁ينزف	-11.4891
▁إستخدم	-11.4891
يًّا	-11.4891
غطاء	-11.4891
▁شَيْ	-11.4891
▁مقيّد	-11.4891
▁بأدب	-11.4891
▁ناكلو	-11.4891
ستطِع	-11.4892
ْسَ	-11.4892
▁الفرص	-11.4892
▁حف	-11.4892
زامنه	-11.4892
▁الحمراء	-11.4892
▁يوقفني	-11.4892
▁انقلب	-11.4892
▁السّاعة	-11.4892
ظة	-11.4892
واظب	-11.4892
اسكتلندي	-11.4892
عواقب	-11.4892
كيميائي	-11.4892
وَقْت	-11.4892
▁غُر	-11.4892
▁نرقص	-11.4892
▁أضرار	-11.4893
ڥار	-11.4893
▁إجازتك	-11.4893
لَيْهِ	-11.4893
▁بالسعادة	-11.4893
▁يؤلمني	-11.4893
قتباس	-11.4893
▁ملوّث	-11.4893
سَقْس	-11.4893
▁سلبيا	-11.4894
▁معاطف	-11.4894
▁بالشّجاعة	-11.4894
▁والنصف	-11.4894
▁الرّياضة	-11.4894
أراضي	-11.4894
▁فَأَ	-11.4894
كارطا	-11.4894
▁مهارات	-11.4894
▁رزان	-11.4894
ْتُمُوهُ	-11.4894
▁مخيف	-11.4895
▁نديروها	-11.4895
▁ترحل	-11.4895
▁مجتهد	-11.4895
▁بالأعمال	-11.4895
▁كسّر	-11.4895
▁كَتَب	-11.4895
▁صادفت	-11.4895
▁يشتمني	-11.4895
▁والأخرى	-11.4895
ُدُو	-11.4896
▁يرحل	-11.4896
▁محامٍ	-11.4896
▁ولّيت	-11.4896
ُطْل	-11.4896
منتجاتكم	-11.4896
▁السّعادة	-11.4896
▁سأنام	-11.4896
▁بواجباتك	-11.4896
▁كرئيس	-11.4896
▁فزنا	-11.4896
▁عاطش	-11.4896
▁لإخباره	-11.4896
▁فتعال	-11.4897
▁بالحبر	-11.4897
▁بالمرض	-11.4897
▁بشجاعة	-11.4897
▁أَخ	-11.4897
▁الأدلة	-11.4897
▁بمعرفتك	-11.4897
▁تسالّ	-11.4897
▁الرائحة	-11.4897
▁اقتصادية	-11.4897
▁بجاية	-11.4897
▁بقدرته	-11.4897
▁تسنّا	-11.4897
▁كشعب	-11.4897
▁تضاعف	-11.4897
▁أفكار	-11.4897
▁يسامحك	-11.4897
ژك	-11.4897
طخيت	-11.4897
▁ملعق	-11.4897
▁خالتي	-11.4898
وكراني	-11.4898
ْكَرَ	-11.4898
▁طفولته	-11.4898
▁يَجْ	-11.4898
▁المصدر	-11.4898
▁مبلول	-11.4898
▁المزعج	-11.4898
▁ترتجف	-11.4898
▁متساوية	-11.4898
▁العسل	-11.4898
▁الأنفاق	-11.4898
مرادف	-11.4898
▁الجولف	-11.4898
▁فقره	-11.4899
▁تطفو	-11.4899
▁بالسياسة	-11.4899
▁إستلمت	-11.4899
▁النحو	-11.4899
▁القبعة	-11.4899
أسامحك	-11.4899
▁إسبوع	-11.4899
▁التقليد	-11.4899
▁العبرة	-11.4899
▁لرامي	-11.4899
▁يحزنك	-11.4899
▁محموم	-11.4899
▁الإنتظار	-11.4899
▁تختب	-11.4899
▁إنجازه	-11.4899
مقربين	-11.4899
▁كاتباً	-11.49
▁بهزر	-11.49
▁أبناؤه	-11.49
▁مشعو	-11.49
▁للت	-11.49
▁وغد	-11.49
▁واشنطن	-11.49
مريكا	-11.49
▁رواح	-11.49
▁افترق	-11.4901
▁الإهمال	-11.4901
▁ينتبهو	-11.4901
▁حظه	-11.4901
▁يتابع	-11.4901
▁يغتصب	-11.4901
▁سنعيش	-11.4901
▁المستودع	-11.4901
تغيرات	-11.4901
▁قلوب	-11.4902
▁بالخوف	-11.4902
▁بمدخرات	-11.4902
▁الدستور	-11.4902
َتَّ	-11.4902
▁قهوته	-11.4902
▁بتشتغل	-11.4902
▁رفيع	-11.4902
▁متجه	-11.4902
▁داوم	-11.4903
عقلاني	-11.4903
▁كشاعر	-11.4903
▁قصّته	-11.4903
▁الأحداث	-11.4903
▁فرنساوي	-11.4903
▁الدراسي	-11.4903
▁الخلق	-11.4903
▁واغسل	-11.4903
لاّجة	-11.4903
▁مدعوّ	-11.4903
▁نويل	-11.4903
▁أضاف	-11.4903
▁كالمس	-11.4903
▁الأحكام	-11.4904
▁البستان	-11.4904
▁اطلا	-11.4904
▁ارواح	-11.4904
32	-11.4904
عْمَ	-11.4904
▁الضجة	-11.4904
▁جواد	-11.4904
▁ستضيع	-11.4904
سّنّا	-11.4904
▁فمتى	-11.4904
▁تنبح	-11.4904
▁الانهيار	-11.4904
▁تُكَل	-11.4904
عِينُ	-11.4904
▁مرّتين	-11.4905
▁تلاقي	-11.4905
▁قبّلته	-11.4905
▁المتحرك	-11.4905
▁لينكولن	-11.4905
▁معارضة	-11.4905
▁الارز	-11.4906
▁نْدير	-11.4906
▁برواتب	-11.4906
▁رواية	-11.4906
▁أمكنك	-11.4906
▁اِحت	-11.4906
المغولي	-11.4906
▁كدب	-11.4906
▁نحيف	-11.4906
▁الجسم	-11.4906
تُومْ	-11.4906
▁كبوة	-11.4906
▁الجريم	-11.4906
▁تُحَ	-11.4906
▁تفوتك	-11.4907
▁أسفل	-11.4907
▁الأفاعي	-11.4907
▁تجول	-11.4907
▁زلنا	-11.4907
▁بلغتك	-11.4907
▁موافقته	-11.4907
▁بالخبر	-11.4907
▁يستحمّ	-11.4907
▁حرارتي	-11.4907
▁ملحدة	-11.4907
▁الريفية	-11.4908
▁أفتقد	-11.4908
برمج	-11.4908
▁راضين	-11.4908
▁خاطئة	-11.4908
▁شنيع	-11.4908
▁صغارًا	-11.4908
▁تريست	-11.4908
▁معطفك	-11.4908
▁القصيرة	-11.4909
▁حبيبتي	-11.4909
▁استقلت	-11.4909
▁المعذرة	-11.4909
▁بابنه	-11.4909
▁القضية	-11.4909
▁ثقيلة	-11.4909
▁المضاد	-11.4909
▁عاديّون	-11.4909
▁قبيحا	-11.4909
▁حنفي	-11.491
▁يوكو	-11.491
▁اقفز	-11.491
▁غبيًّا	-11.491
▁لهجت	-11.491
▁السامية	-11.491
▁مربّي	-11.491
▁البصل	-11.491
▁مُلْك	-11.491
▁الأحذية	-11.4911
▁تحترق	-11.4911
▁ضجر	-11.4911
▁الغسيل	-11.4911
▁تذكّرني	-11.4911
▁يغرق	-11.4911
ْنِ	-11.4911
▁نفهّم	-11.4911
▁راضية	-11.4911
▁غفو	-11.4911
▁الجيتار	-11.4911
▁قطتان	-11.4912
النوم	-11.4912
طَل	-11.4912
▁مُستعد	-11.4912
نقاذ	-11.4912
َأَصْ	-11.4912
▁عجيب	-11.4913
▁ينجب	-11.4913
▁النزاع	-11.4913
▁نَوَ	-11.4913
للقصّة	-11.4913
▁المزهرية	-11.4913
▁تبرّع	-11.4913
▁عزيزتي	-11.4913
▁أدناه	-11.4914
▁أُدخِل	-11.4914
▁تكنولوجيّا	-11.4914
▁الزّوج	-11.4914
لاختباء	-11.4914
▁مندهشا	-11.4914
▁عظام	-11.4914
▁أوشكت	-11.4914
▁النظارات	-11.4914
▁تتّبع	-11.4914
▁يوصله	-11.4914
مَاءِ	-11.4915
ضائع	-11.4915
▁طلّقت	-11.4915
▁سأقول	-11.4915
▁حقائبي	-11.4915
▁هنري	-11.4915
ُقِّ	-11.4915
▁الصادقة	-11.4916
▁فسيج	-11.4916
▁يقفز	-11.4916
▁الموقف	-11.4916
▁سكرتير	-11.4916
▁الغذائي	-11.4917
▁الفراشات	-11.4917
▁كونغ	-11.4917
▁تصدقني	-11.4917
صدقك	-11.4917
▁استدار	-11.4917
▁الحوار	-11.4918
▁الكوكايين	-11.4918
▁عبث	-11.4918
▁عارياً	-11.4918
▁العراق	-11.4918
خور	-11.4918
▁المذاكرة	-11.4918
▁سفير	-11.4918
▁صبوراً	-11.4919
بوط	-11.4919
▁صياغ	-11.4919
▁لصالح	-11.4919
▁اهتم	-11.4919
▁المصلحة	-11.4919
▁عقيد	-11.4919
▁عالياً	-11.4919
▁هاتفيّا	-11.4919
▁الجُمَل	-11.492
▁الاستجواب	-11.492
▁قلعة	-11.492
▁الاقتصادي	-11.492
▁بالرّاحة	-11.492
▁يبالي	-11.492
جهاض	-11.492
▁الظهيرة	-11.492
▁لاصق	-11.492
▁عفواً	-11.492
▁الحجم	-11.492
▁الطّبّي	-11.492
▁ساتش	-11.492
ُلِّ	-11.4921
▁الغسّالة	-11.4921
▁أتقا	-11.4922
▁حظي	-11.4922
▁يتيم	-11.4922
▁اتّبع	-11.4922
▁الْحَق	-11.4922
▁تنتهي	-11.4922
▁لرؤيتكِ	-11.4922
وضات	-11.4922
▁أبالي	-11.4922
▁وتوفي	-11.4923
▁صراعا	-11.4923
▁شابّا	-11.4923
▁سّما	-11.4923
▁للحكومة	-11.4923
▁تحيا	-11.4923
▁بصديقي	-11.4923
▁أسرتي	-11.4923
حف	-11.4923
مرّ	-11.4924
▁لتشرب	-11.4924
▁الشّمس	-11.4924
▁تفتكر	-11.4924
▁تقدير	-11.4924
▁أَبِي	-11.4924
▁يُطلب	-11.4925
▁محتار	-11.4925
َائِ	-11.4925
▁أغراضك	-11.4926
رتباك	-11.4926
▁محفظتك	-11.4926
▁أيّهما	-11.4926
▁موضع	-11.4926
▁الصّيني	-11.4927
▁يدخن	-11.4927
▁سيتزوّجان	-11.4927
▁بكلمة	-11.4927
▁تعجبك	-11.4927
▁بنظام	-11.4927
▁درّاجته	-11.4927
▁جذبت	-11.4928
▁الأجنبية	-11.4928
▁والتحدث	-11.4928
▁استقرّ	-11.4928
▁أقصده	-11.4928
▁افتكر	-11.4928
▁بتمش	-11.4929
▁فضائي	-11.4929
▁إثنان	-11.4929
▁وظّف	-11.4929
▁المصورة	-11.4929
بسكلت	-11.4929
▁يطير	-11.4929
▁يرتكب	-11.4929
▁بالغباء	-11.493
▁يحق	-11.493
▁أيقظ	-11.493
موح	-11.493
▁مثيرًا	-11.4931
▁استحممت	-11.4931
▁المائدة	-11.4931
▁يرتكبون	-11.4931
▁الأدبية	-11.4931
▁القفز	-11.4931
▁وحدو	-11.4931
▁مجاز	-11.4931
▁الذكري	-11.4932
َزَ	-11.4932
▁أحترم	-11.4932
▁الأحلام	-11.4932
▁تتغير	-11.4932
▁ترقد	-11.4932
▁تضربني	-11.4932
▁فراش	-11.4932
▁بالحفلة	-11.4932
▁تمريض	-11.4933
تذكّر	-11.4933
▁الاختباء	-11.4933
فرّق	-11.4934
▁تؤذي	-11.4934
▁نحوياً	-11.4934
▁بالألمانية	-11.4934
بلاستيك	-11.4935
▁تقريرك	-11.4935
▁عقله	-11.4935
▁يَدْ	-11.4935
▁الولادة	-11.4936
▁تعاونك	-11.4936
▁ليراك	-11.4936
▁نافع	-11.4936
▁أقمت	-11.4936
▁مخلصا	-11.4936
▁قبعتها	-11.4937
الصّياح	-11.4937
أعمال	-11.4937
▁نفسيّا	-11.4937
▁الجرف	-11.4937
▁يرمز	-11.4937
▁ينهض	-11.4937
هومش	-11.4937
▁نجحنا	-11.4938
▁يقلّ	-11.4938
▁يروق	-11.4939
▁أُخرى	-11.4939
راه	-11.4939
▁عُثر	-11.4939
▁الهدف	-11.494
▁تشتريها	-11.494
▁مادام	-11.494
مقهى	-11.494
▁غيابها	-11.494
▁اعوام	-11.494
▁مستاء	-11.494
▁الثمن	-11.494
▁صديقاته	-11.494
▁مغلقاً	-11.4941
▁تشاجرا	-11.4941
▁سكار	-11.4942
ُصبت	-11.4942
▁محرج	-11.4942
▁تبتعد	-11.4942
ضح	-11.4943
▁مْعَ	-11.4943
▁بمقاس	-11.4943
▁بسكين	-11.4943
▁والفرنسية	-11.4943
▁الحواسيب	-11.4943
▁مغنّي	-11.4943
▁سيجارة	-11.4943
▁صفق	-11.4943
▁لمسيد	-11.4944
▁هائل	-11.4944
َإِنَّ	-11.4944
▁بالطفل	-11.4944
عدائي	-11.4944
▁القرد	-11.4944
▁أشقر	-11.4944
يدو	-11.4944
▁يستحقونه	-11.4944
▁الصّفّ	-11.4945
▁أقنعته	-11.4945
َيْها	-11.4945
▁استجاب	-11.4945
▁اتفق	-11.4945
▁لحسّ	-11.4945
▁الأخلاق	-11.4946
▁اضاف	-11.4946
▁قليلًا	-11.4946
▁السّفر	-11.4947
َلْيُ	-11.4947
رَأْ	-11.4947
▁وقح	-11.4947
▁الحضور	-11.4947
▁بالآ	-11.4947
▁الرصاص	-11.4948
▁أطفالهم	-11.4948
▁الجسدي	-11.4948
▁صوابك	-11.4948
▁يرحم	-11.4948
▁أحض	-11.4948
▁مناخير	-11.4949
▁نجاحك	-11.4949
▁الأدوات	-11.4949
▁يُحِب	-11.4949
▁خايف	-11.4949
▁إخوان	-11.495
▁بيضاء	-11.495
▁للعلم	-11.495
سوس	-11.4951
▁تجمعها	-11.4951
▁يتواصل	-11.4951
▁يتسلّ	-11.4951
▁عصرنا	-11.4951
▁تطلّق	-11.4952
▁مرتفعة	-11.4952
▁مفاجئ	-11.4952
ظافة	-11.4953
▁نترجم	-11.4953
؟!	-11.4953
توجيه	-11.4953
▁مصباح	-11.4953
▁أعينه	-11.4954
▁الأعداد	-11.4954
خبة	-11.4954
▁سأقوله	-11.4955
▁المتحرّ	-11.4956
▁رسام	-11.4956
▁أتظنّ	-11.4956
▁مسكين	-11.4957
▁الأويغور	-11.4957
▁الرئة	-11.4957
▁بنجاحي	-11.4958
▁بدعم	-11.4958
▁تروحش	-11.4958
▁الشامب	-11.4958
▁شراب	-11.4958
زحام	-11.4958
خليط	-11.4958
▁نط	-11.4959
▁دموع	-11.4959
▁ابنتك	-11.4959
▁المسلسل	-11.4959
▁فوضوي	-11.4959
▁الشئ	-11.496
▁مسدّسه	-11.496
▁أبقيت	-11.4961
▁رسمها	-11.4962
▁البوكير	-11.4962
▁ومبادئ	-11.4963
▁إسمع	-11.4963
▁معرفش	-11.4963
▁يسبحان	-11.4963
▁سترى	-11.4963
▁قلقاً	-11.4963
▁روبِ	-11.4963
▁قريبًا	-11.4964
▁سكني	-11.4964
زهور	-11.4964
▁أطبخ	-11.4964
▁نشاطا	-11.4964
▁يطلع	-11.4964
▁فلور	-11.4964
▁تصطحب	-11.4965
▁بالثل	-11.4965
ستونيا	-11.4965
▁كَلَّف	-11.4965
▁يشغل	-11.4965
▁مقاعد	-11.4965
ستأجر	-11.4965
دَهُ	-11.4966
▁تجارب	-11.4966
▁بكنّ	-11.4966
▁والله	-11.4966
▁خاصتي	-11.4968
هامدة	-11.4968
▁دُم	-11.4968
▁استغل	-11.4969
▁تأكّد	-11.4969
▁التّخاصم	-11.4969
▁مؤمن	-11.4969
▁العائلة	-11.497
▁لنفسك	-11.497
▁سألعب	-11.497
▁أُختك	-11.497
▁سيفعله	-11.497
▁الرّصاص	-11.4971
▁مجلة	-11.4972
منغولي	-11.4972
▁الإعلان	-11.4972
▁الألماس	-11.4972
▁خيّب	-11.4972
▁حاليا	-11.4973
فِكِ	-11.4973
▁والأطفال	-11.4974
▁سيرغب	-11.4974
▁يختار	-11.4974
▁كفاً	-11.4975
▁صع	-11.4975
ثول	-11.4976
▁دوماً	-11.4976
َقْدَر	-11.4977
▁ندخل	-11.4978
▁سياج	-11.4978
▁مظلتي	-11.4978
▁يكرهونه	-11.4979
▁للتّب	-11.4979
▁تتردد	-11.4979
▁صفنا	-11.4979
▁بتسمي	-11.498
▁طبعاً	-11.498
▁للعالم	-11.4981
▁تشع	-11.4982
▁مميت	-11.4982
▁للجميع	-11.4982
▁ملاكا	-11.4982
▁معتنق	-11.4982
▁نبيذ	-11.4983
▁ترجّع	-11.4983
▁فاز	-11.4983
▁نار	-11.4983
▁بالعين	-11.4983
▁للاس	-11.4983
▁الثقوب	-11.4984
▁شكّيت	-11.4984
▁يعتذر	-11.4984
إجابات	-11.4984
▁منطقيا	-11.4984
▁يشكّ	-11.4984
▁الأزم	-11.4986
▁سبع	-11.4986
▁فاض	-11.4987
ْلَ	-11.4988
▁سيساعدني	-11.4988
▁يرسم	-11.4988
▁للفلسطينيّين	-11.4989
▁تنصت	-11.4989
قحوان	-11.4989
▁عاجلا	-11.4989
▁والمرض	-11.499
طيعون	-11.499
▁تدعه	-11.4991
▁تزوّجها	-11.4991
▁زوّا	-11.4991
▁تخمّم	-11.4991
▁السياسة	-11.4992
▁مقعد	-11.4992
▁الجنة	-11.4993
▁حبيبة	-11.4993
▁الجدال	-11.4993
مسلم	-11.4993
تَفَ	-11.4993
▁المباد	-11.4994
▁يب	-11.4994
▁تعامليني	-11.4994
▁أشعار	-11.4994
▁هُناك	-11.4994
▁قلتُه	-11.4995
حَ	-11.4995
▁بجروح	-11.4995
كۆنت	-11.4995
▁لنجاح	-11.4996
▁يُوْ	-11.4996
▁البنات	-11.4996
▁الأوقات	-11.4997
▁باللعب	-11.4997
▁أصدقاؤ	-11.4997
▁أرقص	-11.4997
▁الغريبة	-11.4997
مساجد	-11.4998
مَن	-11.4998
▁جادّا	-11.4999
▁قُتِلَ	-11.4999
▁سابق	-11.5
▁الأزمة	-11.5
▁شخبار	-11.5
▁ادّار	-11.5
▁بالكتاب	-11.5
▁تُرك	-11.5001
▁متوقّف	-11.5001
▁مجيئ	-11.5001
▁التواصل	-11.5001
وكالات	-11.5002
▁مدرّستي	-11.5002
▁موظف	-11.5002
▁زائد	-11.5002
ِعُ	-11.5003
ولية	-11.5004
▁آمالي	-11.5004
▁بريدك	-11.5004
▁موجوداً	-11.5005
توقيت	-11.5005
َلْب	-11.5006
▁بإمكانكم	-11.5006
▁حماس	-11.5006
▁طفلًا	-11.5007
▁رؤيتك	-11.5007
▁خطابه	-11.5007
▁ساعدنا	-11.5007
▁لنصيحت	-11.5007
فّاح	-11.5008
▁يتفق	-11.5008
▁القِط	-11.501
▁حدودنا	-11.501
▁منصبه	-11.501
▁الفلسطينيّة	-11.5011
▁اقتراحي	-11.5011
حظيرة	-11.5014
▁مشاغب	-11.5014
▁المغامرة	-11.5016
▁يحبّكِ	-11.5018
▁مشبوه	-11.5018
▁الغرف	-11.5019
▁الخطبة	-11.502
▁أعصاب	-11.502
▁ملطّخ	-11.5021
▁فلسطينيّو	-11.5021
▁متقدّمة	-11.5022
▁المستوى	-11.5022
▁مقارنة	-11.5023
▁مثليّا	-11.5023
▁ابداً	-11.5023
▁مفهوم	-11.5023
العنف	-11.5024
▁المدرسية	-11.5025
▁سحاب	-11.5025
▁مؤلف	-11.5025
▁متزوّجة	-11.5026
لۆ	-11.5026
▁جحيم	-11.5026
▁اللَّهِ	-11.5027
▁اخرى	-11.5027
▁القائمة	-11.5028
▁صْر	-11.5028
▁متع	-11.5028
آمال	-11.5028
اخل	-11.5029
▁عنقك	-11.5029
▁إسمك	-11.5029
تسلق	-11.5029
▁توقعت	-11.5029
▁أمريكيين	-11.5029
▁كنز	-11.503
▁إسبوعين	-11.503
▁شاذ	-11.503
▁إتهم	-11.503
▁أفراد	-11.503
▁للأمازيغية	-11.5031
▁سأدع	-11.5031
▁أرتكب	-11.5032
▁الطبيعية	-11.5032
▁بريطانيا	-11.5032
▁بينهم	-11.5032
ليل	-11.5032
▁حمايته	-11.5033
▁النفق	-11.5033
▁ستساعده	-11.5033
▁مساهم	-11.5033
▁الأوز	-11.5034
▁متعبون	-11.5034
▁الشديدة	-11.5036
▁بذلة	-11.5036
▁دافئ	-11.5036
▁عايزها	-11.5036
▁لقلم	-11.5036
▁خزان	-11.5036
▁تتزوّج	-11.5037
▁تحوي	-11.5037
▁طيّب	-11.5037
▁الستر	-11.5037
جدداً	-11.5038
▁استرجع	-11.5039
▁الشمسية	-11.5039
ّظ	-11.5039
▁اسمعني	-11.5041
▁أوراق	-11.5041
▁التراج	-11.5041
▁أوافقه	-11.5042
▁الإغلاق	-11.5042
▁محبوبة	-11.5043
▁درج	-11.5043
▁مكسورة	-11.5043
▁لقطّ	-11.5044
▁تقاليد	-11.5044
درَس	-11.5045
▁يفترض	-11.5045
▁يعلّم	-11.5045
▁محبط	-11.5046
▁إرهابيّ	-11.5046
ضارب	-11.5047
▁بنتي	-11.5048
▁برلين	-11.5048
مخالف	-11.5048
▁خدمة	-11.5049
▁استراحة	-11.5049
▁تحذير	-11.505
▁بطيئة	-11.505
▁لپرۆبلام	-11.5051
▁حقًّا	-11.5051
▁مفرط	-11.5051
▁مسؤولية	-11.5051
▁إيجادها	-11.5051
بيب	-11.5052
▁جاكسون	-11.5052
▁فرانسا	-11.5052
▁لمساعدته	-11.5052
▁استعداد	-11.5053
▁مواهب	-11.5053
دته	-11.5054
▁الشوم	-11.5054
▁تحديد	-11.5055
ستقلال	-11.5055
▁ارتفاع	-11.5055
ُمَ	-11.5055
▁تاكُل	-11.5055
▁الفرن	-11.5055
جفّف	-11.5057
كفالة	-11.5057
▁إئتمان	-11.5058
▁٢٠	-11.5058
▁عزم	-11.5058
انضمام	-11.5058
▁عَلَي	-11.5059
ذار	-11.5059
▁زبائن	-11.506
▁جميلتان	-11.506
▁سأست	-11.506
▁أخسر	-11.506
▁جوال	-11.506
▁خائفين	-11.506
▁مقيم	-11.5061
▁شاشة	-11.5061
تدرّب	-11.5061
إمام	-11.5062
فوزنا	-11.5062
▁هدوء	-11.5063
▁استغلال	-11.5063
▁تحبّو	-11.5063
▁نزهة	-11.5063
▁تهاني	-11.5064
تحريك	-11.5065
▁الصغر	-11.5065
▁خنت	-11.5066
▁تتعا	-11.5066
▁المكالمة	-11.5066
▁ألمانية	-11.5069
نكتة	-11.507
▁أسقط	-11.507
▁ميتة	-11.5071
▁أولًا	-11.5072
ُقِد	-11.5072
▁يزداد	-11.5073
صحو	-11.5073
▁استخدامه	-11.5074
شريرة	-11.5076
▁مفيد	-11.5076
▁ضح	-11.5076
▁حيّنا	-11.5077
▁ودود	-11.5079
▁حليب	-11.5079
▁أَرَ	-11.508
▁السناج	-11.5081
▁ارت	-11.5082
مواعيد	-11.5082
▁عرق	-11.5082
▁شجاعتك	-11.5085
▁خسارت	-11.5085
▁أوصلته	-11.5086
فلاس	-11.5086
▁للا	-11.5086
▁الحضار	-11.5086
▁طفولتي	-11.5087
▁ترجمت	-11.5087
▁نصحق	-11.5087
▁المزدوجة	-11.5088
▁للشّ	-11.5089
▁تيكي	-11.5089
hr	-11.5089
لتي	-11.509
▁شركتنا	-11.5091
كوريا	-11.5092
فاك	-11.5095
▁جادّ	-11.5095
▁غيابي	-11.5096
▁صادقاً	-11.5097
وديّة	-11.5097
▁تنساني	-11.5097
▁ساعدهم	-11.5098
تفق	-11.5098
▁نَسَب	-11.5098
▁اتصالا	-11.5099
▁الحمر	-11.5099
جماعيّة	-11.5099
▁جمعة	-11.5099
▁بعين	-11.5099
▁مشاكلها	-11.51
▁الصبية	-11.51
▁صفعت	-11.51
ْجَ	-11.5101
تيليفوني	-11.5101
افتك	-11.5101
▁شارل	-11.5101
▁متزوجة	-11.5102
▁التلفزيوني	-11.5102
▁فَقَد	-11.5102
▁انطلق	-11.5102
▁بشحال	-11.5102
▁يعشق	-11.5103
▁مرآب	-11.5103
▁صبيّا	-11.5103
▁يديها	-11.5106
صَّح	-11.5106
▁السرعة	-11.5106
▁يصبك	-11.5107
▁تامّا	-11.5107
▁مشتق	-11.5108
▁يكرهني	-11.5109
لسّرعة	-11.511
▁مرّت	-11.5111
▁رأسك	-11.5111
بص	-11.5112
أسباب	-11.5112
خصص	-11.5112
▁صورك	-11.5112
▁يرجع	-11.5113
هزم	-11.5114
خرّب	-11.5115
▁غالط	-11.5115
▁سأفعله	-11.5117
▁جيتي	-11.5117
▁مستقر	-11.5118
▁نضت	-11.5118
ِعَ	-11.5119
▁فلان	-11.5122
اصطدام	-11.5123
ۆري	-11.5124
▁سيّئا	-11.5124
▁أجنبيّ	-11.5125
▁قطط	-11.5125
تعقيد	-11.5125
▁كرم	-11.5125
ثانويّة	-11.5127
بوكير	-11.5127
جثث	-11.5127
إدارة	-11.5127
▁الجدّ	-11.5128
وبخ	-11.5128
لسي	-11.5129
▁إلز	-11.513
▁الشرط	-11.513
▁ناف	-11.5133
يّين	-11.5133
▁شرّ	-11.5133
▁تحدّثت	-11.5135
▁أتأخر	-11.5136
▁خطبك	-11.5137
▁الجوار	-11.5137
▁حروب	-11.5138
▁إطارات	-11.5139
الرّاحة	-11.514
▁يغل	-11.5141
▁نفعله	-11.5141
▁يراك	-11.5142
▁آرائي	-11.5143
▁أخلاق	-11.5143
▁تواجد	-11.5143
ناقشه	-11.5144
ُك	-11.5145
▁فورد	-11.5145
▁دولي	-11.5146
▁نهض	-11.5147
يجب	-11.5148
▁قولتل	-11.5148
غرب	-11.5149
▁الكوك	-11.515
الصينية	-11.5151
ائمة	-11.5152
ثُ	-11.5153
▁هد	-11.5153
▁أرضي	-11.5153
▁بخط	-11.5154
▁روع	-11.5154
▁مقطع	-11.5155
▁التوفيق	-11.5156
َيْنَ	-11.5156
▁قطتك	-11.5157
▁اختراع	-11.5157
▁غريباً	-11.5157
▁كذبت	-11.5158
▁يزرع	-11.516
ليوغا	-11.516
لْمَان	-11.516
▁زعم	-11.5161
ذى	-11.5161
▁الداخل	-11.5162
▁الصحن	-11.5162
▁تساعدني	-11.5163
▁لندع	-11.5163
▁أشكال	-11.5164
▁أموت	-11.5164
مبدع	-11.5166
مبادئنا	-11.5166
اتور	-11.5166
▁غمسته	-11.5167
▁املك	-11.5167
▁خارق	-11.5168
▁خيارات	-11.5169
▁الضرورة	-11.517
▁لأمي	-11.517
نتس	-11.517
▁قدمه	-11.5172
▁الجهاز	-11.5172
▁تكمل	-11.5173
▁الشاط	-11.5173
▁قرون	-11.5174
تشدد	-11.5174
تستطيع	-11.5174
▁الترك	-11.5175
▁وعده	-11.5175
▁أذه	-11.5176
▁رج	-11.5176
ترول	-11.5176
▁أقتل	-11.5178
▁والمس	-11.5178
▁أذن	-11.5178
▁الجمع	-11.5179
▁يترجم	-11.5179
▁محظوظة	-11.5179
▁حقيقةً	-11.5179
▁وزّ	-11.5182
الإسبرانتو	-11.5182
▁يخط	-11.5182
▁عامًا	-11.5183
▁محدود	-11.5183
رِح	-11.5183
برا	-11.5183
▁يفهمني	-11.5184
▁مساعدتكَ	-11.5185
▁موسم	-11.5185
▁هاداك	-11.5186
▁باركك	-11.5186
▁طولك	-11.5187
▁فظيعة	-11.5187
▁سياس	-11.5187
تقلّق	-11.5187
▁قُلْت	-11.5187
عطيل	-11.5188
▁عيب	-11.5188
▁شرحت	-11.5189
▁رُح	-11.519
▁سعيدًا	-11.5191
▁إيران	-11.5191
تاكسي	-11.5191
▁ينفع	-11.5192
▁اللاف	-11.5192
▁محت	-11.5192
▁أبدو	-11.5192
ينَ	-11.5193
▁إهتمام	-11.5193
عان	-11.5193
جتها	-11.5193
▁سماعه	-11.5195
▁مضحكا	-11.5195
َةُ	-11.5197
▁الأسطو	-11.5197
▁حربا	-11.5198
▁أولاده	-11.5198
موجودة	-11.5199
▁تخبرها	-11.5199
▁آذ	-11.5199
▁نحاول	-11.5199
اعد	-11.5199
نغ	-11.52
▁كونك	-11.52
▁احتجت	-11.5201
رفاهي	-11.5201
▁وبخ	-11.5202
▁قرص	-11.5202
▁زملائها	-11.5202
ّك	-11.5202
▁ضاع	-11.5203
▁تهرب	-11.5203
ْرِي	-11.5204
▁نقولو	-11.5207
▁صاحبه	-11.5208
ربط	-11.5209
▁سفر	-11.5211
▁أحلم	-11.5211
▁الض	-11.5212
▁سرور	-11.5212
▁مفتون	-11.5212
▁السوق	-11.5213
▁كوبا	-11.5213
سأموت	-11.5216
▁معطف	-11.5217
▁أكرهه	-11.5218
▁التأكد	-11.5218
مراحل	-11.5218
▁يمثل	-11.5218
▁بالمال	-11.5218
▁لنخرج	-11.5218
▁كافيا	-11.5219
▁الثّاني	-11.5219
شف	-11.5219
▁إشت	-11.5219
قاعة	-11.5221
كۆن	-11.5222
▁ستحمي	-11.5222
▁نموت	-11.5222
برودة	-11.5222
▁تأمل	-11.5222
▁يبني	-11.5223
▁خذها	-11.5224
عياد	-11.5226
▁آمال	-11.5226
▁أحسنت	-11.5227
يروي	-11.5227
▁ضحّ	-11.5228
تفارق	-11.5229
▁خجل	-11.523
ختلف	-11.523
▁حاسوبا	-11.5232
▁مجنونة	-11.5233
▁لونه	-11.5234
بِيّ	-11.5235
▁يقطع	-11.5235
▁بعضهم	-11.5236
▁قْب	-11.5236
▁تنادي	-11.5236
ڥري	-11.5236
▁لونها	-11.5236
▁آرائ	-11.5236
▁تخبره	-11.5237
▁مريضاً	-11.5238
▁يستحم	-11.5238
▁غادرنا	-11.5239
▁أجز	-11.524
▁أباها	-11.524
▁أقصد	-11.5241
عليّ	-11.5244
▁شوكة	-11.5247
دّدا	-11.5247
▁ممتعا	-11.5248
▁الأرماني	-11.5248
زارة	-11.5249
▁بالدّم	-11.525
▁ركضت	-11.5251
▁صفعي	-11.5251
تواصل	-11.5252
قوة	-11.5252
يرا	-11.5253
تجاهل	-11.5253
فظين	-11.5253
▁نويت	-11.5254
▁محاس	-11.5254
سكّين	-11.5255
▁حُبّ	-11.5256
نب	-11.5256
▁أدام	-11.5258
▁بحمل	-11.5259
▁الأمريك	-11.526
تود	-11.5262
قّيت	-11.5263
رملية	-11.5264
عربيّة	-11.5265
▁الأمامي	-11.5265
ونا	-11.5266
▁تعمد	-11.5267
▁لنفسها	-11.5269
▁ليزا	-11.5269
يفات	-11.5269
▁الدولي	-11.527
▁تظنني	-11.527
▁للبنا	-11.5271
جاهل	-11.5272
▁أشياءا	-11.5275
▁مهدد	-11.5275
ۆني	-11.5275
▁تارك	-11.5277
تسأل	-11.5277
دلّل	-11.5279
▁ملاحظ	-11.528
▁يقتلون	-11.5281
ديهم	-11.5283
▁راس	-11.5284
▁الهوائي	-11.5285
▁ميلادك	-11.5285
ائية	-11.5286
▁مفتاحك	-11.5286
▁مرضه	-11.5289
آت	-11.5289
ائما	-11.529
▁يضربون	-11.5295
▁كرهت	-11.5295
▁والح	-11.5295
▁مصير	-11.5295
▁مرّةً	-11.5296
▁الذّك	-11.5297
▁نظّاراتي	-11.5298
زينة	-11.5298
▁سْم	-11.53
قاعات	-11.5301
▁تقرأه	-11.5302
نغها	-11.5303
تغمر	-11.5304
▁قبلتها	-11.5306
▁مطار	-11.5307
▁جادًّ	-11.5308
▁ألعاب	-11.5309
▁ضف	-11.5311
ليس	-11.5313
▁مجنونا	-11.5313
جيد	-11.5315
▁تاعنا	-11.5315
▁عالق	-11.5316
شهد	-11.5317
▁ستفعلين	-11.5318
طاليانية	-11.5318
دخول	-11.5319
▁شابا	-11.5319
▁الخلي	-11.5326
▁بطلاً	-11.5326
▁مدارس	-11.5328
▁تلاميذ	-11.5329
▁أصب	-11.5329
طابِ	-11.533
▁بلادي	-11.533
▁إيّاه	-11.5331
جُل	-11.5332
ديدة	-11.5332
لفضا	-11.5332
▁الورد	-11.5333
▁قبلته	-11.5333
▁أسابيع	-11.5336
▁باكرا	-11.5337
▁شاك	-11.5338
▁غناء	-11.5338
▁يافعا	-11.534
▁القطه	-11.5341
▁يتطل	-11.5341
▁الأرضية	-11.5342
▁العشر	-11.5343
▁تراها	-11.5344
رسالتها	-11.535
▁معلمة	-11.5351
▁عيناي	-11.5352
شكر	-11.5354
▁أصدقك	-11.5355
دراري	-11.5355
إعطاء	-11.5356
▁يَنْ	-11.5357
▁كود	-11.536
ندا	-11.5361
الصخر	-11.5362
ِ؟	-11.5363
لمسجد	-11.5365
▁رهي	-11.5366
▁ندب	-11.5368
لمفاتيح	-11.5368
▁الضح	-11.5368
▁للموسيق	-11.5369
تربيت	-11.5369
▁مث	-11.537
▁رقيق	-11.537
▁شّي	-11.537
▁كتابان	-11.537
احداً	-11.537
▁يقبل	-11.5371
لمخدّرات	-11.5371
بحار	-11.5371
بحيرة	-11.5373
كوك	-11.5375
أجزاء	-11.5375
▁طفله	-11.5376
وكونو	-11.5379
عش	-11.538
تذكار	-11.5382
▁واجهت	-11.5382
▁نَفسَ	-11.5384
▁سرواله	-11.5385
الورقة	-11.5386
جذاب	-11.5386
▁رافق	-11.5386
▁مالية	-11.5387
ريو	-11.5388
لاشت	-11.5389
▁حيات	-11.5389
▁تتبع	-11.5391
▁دافع	-11.5391
▁نديران	-11.5391
▁هادئة	-11.5392
▁يعش	-11.5393
▁الجرو	-11.5394
▁نقلته	-11.5394
▁سأنظّفه	-11.5396
▁فصلي	-11.5396
لعشاء	-11.5397
▁الابت	-11.5397
بلا	-11.5398
▁السّود	-11.5401
▁تدوم	-11.5402
يبدو	-11.5404
▁بحرية	-11.5406
▁عملته	-11.5408
َقَدْ	-11.5413
▁التطو	-11.5416
رائد	-11.5416
تشوّق	-11.5417
متحرّ	-11.5419
مدير	-11.542
ِلَ	-11.5421
▁جسمه	-11.5421
▁منطقي	-11.5422
▁قطان	-11.5425
▁إشارة	-11.5425
▁رأسي	-11.5425
استفاد	-11.5425
ينز	-11.5425
▁جنين	-11.5426
غرة	-11.5426
معايير	-11.543
▁قَر	-11.543
▁عسل	-11.5432
▁التّر	-11.5432
أين	-11.5432
▁بيتهم	-11.5433
ويلة	-11.5435
▁أمكنن	-11.5435
تزحلق	-11.5435
▁كريمة	-11.5439
▁تنبأ	-11.5441
▁مستعمل	-11.5441
زِم	-11.5442
باكر	-11.5443
رويين	-11.5448
▁الملاح	-11.5448
رتاح	-11.5449
خافة	-11.5451
لومبي	-11.5454
تعديل	-11.5454
▁الغرام	-11.5455
عاطفيّة	-11.5455
▁بناتي	-11.5458
▁سيق	-11.546
جراما	-11.546
▁أخذناه	-11.5461
ؤل	-11.5462
بشع	-11.5462
▁معاقب	-11.5465
▁تعاون	-11.5465
فرش	-11.5467
▁مرّا	-11.5467
▁هارب	-11.5469
أَنَّ	-11.5471
▁الأقدا	-11.5472
▁واقع	-11.5472
▁مسجدا	-11.5473
▁شويي	-11.5474
▁أَتْ	-11.5474
▁المسا	-11.5475
▁يسعه	-11.5477
تحت	-11.5477
▁نظارة	-11.5479
وحّد	-11.5479
▁روب	-11.5481
▁بفاضل	-11.5481
▁الغاية	-11.5482
▁تانية	-11.5484
مْشِي	-11.5486
▁باله	-11.5487
▁رفاهي	-11.5488
▁واعر	-11.5491
▁بلدنا	-11.5491
▁ثوان	-11.5492
▁أحر	-11.5492
خس	-11.5492
▁أتوقف	-11.5494
لأرض	-11.5496
▁بنوب	-11.5496
▁لڨ	-11.5497
ظهرها	-11.5497
▁أصغ	-11.5498
▁حفلته	-11.5498
▁محار	-11.55
▁جميلات	-11.5501
▁رده	-11.5502
تاجه	-11.5508
▁يرا	-11.5512
▁الكتا	-11.5513
دّد	-11.5516
▁يستحقنه	-11.5516
جُد	-11.5516
منظّم	-11.5517
▁نب	-11.5518
لفزيونيّة	-11.552
كوزي	-11.5526
هبنا	-11.5526
تلاعب	-11.5529
▁مخيّم	-11.5532
سرور	-11.5534
▁دام	-11.5535
▁متدين	-11.5537
▁الملكة	-11.5538
▁الضّع	-11.5538
صيب	-11.5539
▁عودة	-11.5542
▁تفتح	-11.5542
زودو	-11.5543
دينا	-11.5545
▁يعاملو	-11.5545
نذ	-11.5545
َوَل	-11.5548
▁قامو	-11.5549
امَ	-11.555
اشي	-11.555
▁طفلاً	-11.5551
▁صّح	-11.5551
▁معجبا	-11.5553
▁التف	-11.5554
▁اهتماما	-11.5554
▁البارَ	-11.5557
سيّد	-11.5557
▁شاهدنا	-11.5558
رهم	-11.556
رين	-11.5561
ستشير	-11.5565
▁خطئ	-11.5568
لحضور	-11.557
ِنْ	-11.557
▁تدربت	-11.5571
▁الاجتماعي	-11.5571
فروض	-11.5573
▁حقق	-11.5574
▁الَّ	-11.5575
▁ابيض	-11.5576
▁النجم	-11.5577
َتَّ	-11.5577
نسية	-11.5578
مخرج	-11.5579
▁وجودي	-11.5583
▁ماش	-11.5584
▁ألّ	-11.5584
▁وأكثر	-11.5584
▁السم	-11.5584
▁السير	-11.5585
▁أربعين	-11.5588
▁اتّصالا	-11.5588
▁يهوديّ	-11.5589
لأسبوع	-11.5589
▁تنض	-11.559
▁أُجب	-11.559
سقسي	-11.559
اكتمال	-11.5591
▁١	-11.5591
▁المغن	-11.5592
للغة	-11.5594
الخطأ	-11.5597
أنساك	-11.5598
▁رسمت	-11.5601
▁نايم	-11.5602
▁صائب	-11.5603
▁يقيم	-11.5604
▁غنيا	-11.5604
عكس	-11.5608
▁لذيذا	-11.5609
▁طير	-11.5609
▁محاولا	-11.561
▁عشائ	-11.5611
استاذ	-11.5612
▁قيما	-11.5617
▁تبدين	-11.5617
▁جزيل	-11.5622
َسُو	-11.5622
▁الشرك	-11.5627
▁استف	-11.5629
▁إيباحي	-11.5631
▁حاجات	-11.5634
أسماك	-11.5634
ادي	-11.5634
▁تذكرت	-11.5636
▁روايات	-11.5637
▁معدّ	-11.564
شعبيّة	-11.5641
بيّض	-11.5642
تّبع	-11.5643
▁مواطني	-11.5644
▁أُبق	-11.5646
▁شجاعته	-11.5646
▁رجاءا	-11.5648
لرحلة	-11.5648
▁الوفي	-11.565
▁مختص	-11.5652
أنهار	-11.5654
كمّل	-11.5655
▁مشا	-11.5657
▁المقص	-11.5657
زقت	-11.5657
▁حاسب	-11.5657
أكثرهم	-11.5658
اليوم	-11.566
لذي	-11.566
▁قصف	-11.566
▁جعلنا	-11.5661
▁يكرهان	-11.5661
عَق	-11.5661
▁برد	-11.5662
يُ	-11.5663
▁عاشق	-11.5672
▁تذكره	-11.5677
ندعم	-11.5678
ةٌ	-11.5678
▁الإت	-11.5679
▁طلبَ	-11.5684
أنوار	-11.5686
ارتي	-11.5688
▁تحد	-11.5688
▁مدرّسين	-11.5691
▁مُوَ	-11.5692
لجريمة	-11.5693
اجات	-11.5696
حض	-11.5696
تفضل	-11.5698
مًا	-11.5699
جنّة	-11.5701
▁الحادي	-11.5701
اقية	-11.5703
▁خطط	-11.5704
▁ذاكرت	-11.571
مهنة	-11.5714
▁أغل	-11.5717
قرر	-11.5718
▁شهد	-11.5719
عينات	-11.5719
تسامح	-11.572
انفجار	-11.5722
▁العق	-11.5722
ُو	-11.5722
▁معكِ	-11.5722
حادثة	-11.5724
▁أكت	-11.5726
▁تُش	-11.5728
▁دائر	-11.5728
▁الموسيق	-11.5732
▁الفني	-11.5732
خاوا	-11.5732
تزورني	-11.5733
يصة	-11.5733
تّب	-11.5734
▁بحثا	-11.5735
▁تستطيعين	-11.5735
▁مسو	-11.5737
نجو	-11.5739
فازوا	-11.5742
▁يتأذ	-11.5745
▁وجو	-11.575
عاصفة	-11.5751
تعدد	-11.5755
▁أَيُ	-11.5757
ستغني	-11.5759
تخلي	-11.576
لفرنسي	-11.5762
▁عمية	-11.5762
▁اقترحَ	-11.5763
▁تمش	-11.5766
تّى	-11.5767
ُفّ	-11.5772
امنة	-11.5775
أمور	-11.5776
▁مبكر	-11.5776
نسان	-11.5778
مون	-11.578
ِئْ	-11.5781
عض	-11.5781
▁بتش	-11.5781
مَا	-11.5785
▁أحز	-11.5785
يتو	-11.5789
يمّاك	-11.5792
ارِ	-11.5792
▁الشامبان	-11.5793
امات	-11.5794
▁هاو	-11.5794
وعية	-11.5794
▁خوفا	-11.5795
علّمه	-11.5795
▁فضول	-11.5795
زواجنا	-11.5796
▁لموس	-11.5798
▁أوروبية	-11.5798
▁ندي	-11.5804
▁الفل	-11.5806
▁معانا	-11.581
▁أُج	-11.5814
كساس	-11.5815
▁بيوت	-11.5817
▁بحثي	-11.5817
▁حديقت	-11.5821
تدفعني	-11.5824
ميكرو	-11.5824
▁إيجاره	-11.5826
▁تحسّ	-11.5827
▁s	-11.5828
▁الشرب	-11.5828
خرافي	-11.583
▁مثلنا	-11.5831
صبعه	-11.5832
▁يمين	-11.5832
▁يتعلّ	-11.5835
َقَط	-11.5837
دهشة	-11.5838
لبقاء	-11.584
قذف	-11.584
ةِ	-11.5841
السيف	-11.5846
▁سأجد	-11.5847
حكومات	-11.5848
يسار	-11.585
صّل	-11.5855
لحاسوب	-11.5857
▁أغني	-11.5859
يير	-11.586
▁نجمع	-11.5861
لتوصيل	-11.5863
▁مكتظ	-11.5864
▁عرفتهم	-11.5864
أنسى	-11.5866
▁الجمهوري	-11.5868
مَع	-11.587
▁إطلاقا	-11.5873
لهث	-11.5874
▁السماع	-11.5875
قراء	-11.5877
▁أخيه	-11.5877
▁6	-11.588
اهيّة	-11.5881
▁الأغل	-11.5882
▁عظيما	-11.5885
▁التس	-11.589
تحقّق	-11.5897
اردو	-11.5898
تحد	-11.59
▁الفسا	-11.5902
الغاز	-11.5904
▁الواق	-11.5905
▁سخيفا	-11.5906
أسرع	-11.5908
▁أطل	-11.5912
▁استقب	-11.5913
▁أعددت	-11.5914
▁فارقت	-11.5914
▁الأسف	-11.5915
▁هواتف	-11.5922
فَلَ	-11.5922
▁انتر	-11.5924
▁كارثيّ	-11.5925
▁مثاليّ	-11.5926
▁واجه	-11.5928
▁التد	-11.593
اهدنا	-11.593
ابتسام	-11.593
▁وحدا	-11.5931
ّبَ	-11.5935
▁حولي	-11.5935
▁الذات	-11.5936
▁والع	-11.5937
▁اعتقاد	-11.5938
▁والديها	-11.594
جيرانه	-11.5946
طوارئ	-11.5946
▁شوك	-11.5949
سأت	-11.5952
نساها	-11.5952
▁معلمي	-11.5953
▁عْلا	-11.5953
ائي	-11.5956
▁سكينا	-11.5957
▁للخط	-11.5957
طِي	-11.596
▁العج	-11.5961
▁عيادت	-11.5962
▁يُص	-11.5968
البوس	-11.597
▁تأخّرت	-11.597
ڥيري	-11.5971
▁پا	-11.5971
▁ثماني	-11.5972
أعداد	-11.5973
قبيل	-11.5973
▁والت	-11.5975
▁معنيا	-11.5976
قار	-11.5983
ذِرا	-11.5985
قِف	-11.5985
▁محمل	-11.5988
▁كراهي	-11.5988
▁دم	-11.5989
▁بأخته	-11.5989
▁مه	-11.5992
▁قيادت	-11.5994
▁درا	-11.5994
▁يظل	-11.5996
▁خوه	-11.5998
ضت	-11.6
▁السبي	-11.6005
قياس	-11.6006
مهلك	-11.6007
▁تمنّ	-11.6007
▁بلون	-11.6008
روعة	-11.6011
▁الذّن	-11.6012
الحسبان	-11.6013
▁الرا	-11.6017
اؤ	-11.6018
ستعجلش	-11.6018
نمسا	-11.6027
▁آبائ	-11.6027
▁لمجر	-11.6033
ُرض	-11.6035
ملوك	-11.6036
ينيش	-11.6038
▁أضفت	-11.604
▁مبت	-11.604
السّمك	-11.6042
متجر	-11.6042
جميلات	-11.6042
▁جداَ	-11.6042
مرآب	-11.6045
▁العظم	-11.605
حْك	-11.6053
▁المسن	-11.6054
سكين	-11.6055
▁يعرفني	-11.6057
▁ياكله	-11.606
الاشياء	-11.6067
تعب	-11.6067
▁جواربه	-11.6067
▁الغن	-11.6078
▁عنصري	-11.608
نفسي	-11.6082
▁h	-11.6085
▁تفعليه	-11.6086
بيتي	-11.609
▁يحبني	-11.609
َح	-11.6091
التعبير	-11.6094
▁تَح	-11.6095
▁غن	-11.6095
▁ضمن	-11.6096
▁حقّ	-11.6097
▁فلس	-11.6098
بطئ	-11.6099
لبحث	-11.6099
منصب	-11.61
▁تطف	-11.6106
▁ترش	-11.6113
باينة	-11.6117
موا	-11.6119
مناخ	-11.6119
▁مأساويّ	-11.612
▁بصرا	-11.6121
يعيش	-11.6122
َدُ	-11.6122
شوكة	-11.6123
▁سيء	-11.6126
▁تنز	-11.6127
▁لِك	-11.6128
ويات	-11.6129
▁يصبكم	-11.613
▁قرا	-11.6133
بوة	-11.6136
▁مبل	-11.6136
▁مهمته	-11.6136
▁مملا	-11.614
عطِ	-11.6142
▁ماضي	-11.6148
▁مف	-11.6152
▁رُ	-11.6155
▁بريئ	-11.6156
▁قاطع	-11.6159
▁ملّ	-11.6161
▁نصحت	-11.6163
▁بالقت	-11.6163
▁ازد	-11.6165
حمام	-11.6166
تبة	-11.6168
▁الجراح	-11.617
▁العين	-11.6171
▁سمعتَ	-11.6171
تناسب	-11.6172
غضب	-11.6173
▁يُؤْ	-11.6174
▁اعط	-11.6179
▁الكه	-11.6181
▁تقو	-11.6188
ملك	-11.619
▁إس	-11.62
صاف	-11.6202
يكَ	-11.6204
ّالة	-11.6204
بتلع	-11.6206
خة	-11.621
عافيت	-11.621
َمِ	-11.6212
▁الرماد	-11.6212
ذلك	-11.6215
أمثلة	-11.6219
▁شجاعا	-11.6221
▁ويش	-11.6223
▁وجت	-11.6223
صميم	-11.6226
▁فنان	-11.623
▁فوط	-11.623
أوكسي	-11.623
▁صَ	-11.6231
▁الغاب	-11.6235
▁قوّ	-11.6235
▁برؤيت	-11.6236
ُرّب	-11.6238
▁ثرث	-11.6243
▁والسن	-11.6243
أبناءهم	-11.6246
▁البطا	-11.6247
▁بطلق	-11.6249
تت	-11.6249
▁الأص	-11.625
عايش	-11.6252
ْيَة	-11.6253
▁عادي	-11.6255
▁بأمّ	-11.6263
▁أعم	-11.6263
▁مكانه	-11.6264
سود	-11.6265
طَة	-11.6268
جديد	-11.6269
▁تغري	-11.6271
دق	-11.6274
عصير	-11.6281
▁تبقيه	-11.6283
ينه	-11.629
سمعت	-11.6293
قوا	-11.6293
حق	-11.6293
▁الْخَل	-11.6297
نتخابات	-11.6302
▁عنهُ	-11.6303
احاً	-11.6315
▁رمادي	-11.6315
▁اذ	-11.6317
اجتنا	-11.632
الفرنسيين	-11.6324
▁وعوده	-11.6326
▁مارى	-11.6326
شّط	-11.6329
▁أدعك	-11.633
▁وثقت	-11.6331
وجب	-11.6333
▁أدع	-11.6334
▁الضّح	-11.6341
▁هاتفا	-11.6342
ددت	-11.6346
▁ذَ	-11.6352
جُمل	-11.6352
فطار	-11.6353
كلّيّة	-11.6354
وجدت	-11.6355
عْش	-11.6356
▁سكن	-11.6357
▁خفي	-11.6358
▁m	-11.636
▁قبض	-11.6361
تن	-11.6365
غيّر	-11.6372
يتم	-11.6377
▁ندم	-11.6381
▁تعاف	-11.6383
▁الكلّ	-11.6383
▁التع	-11.6384
▁يزره	-11.6387
عات	-11.6389
وده	-11.6399
تحترم	-11.6401
جال	-11.6404
▁أظهرت	-11.6412
▁خليل	-11.6413
▁بحال	-11.6419
جريمة	-11.642
▁الطلب	-11.6425
▁قميصه	-11.6425
▁أسئلته	-11.6426
▁أطفالا	-11.6428
لرئيس	-11.6429
▁احتي	-11.643
▁لحد	-11.6431
ابل	-11.6432
▁تفعلها	-11.6432
لعطلة	-11.6439
▁تَب	-11.6442
▁أمري	-11.6443
شعار	-11.6444
▁أمير	-11.6445
▁مرغ	-11.645
فشلك	-11.6456
▁وخي	-11.6456
بِّي	-11.6457
▁أعطيه	-11.6463
النجاح	-11.6469
ّز	-11.647
▁طبي	-11.6473
شكوك	-11.6475
▁فهمتُه	-11.6476
داك	-11.6482
▁كاث	-11.6483
▁مكتبته	-11.6483
ران	-11.6484
ربة	-11.6486
شار	-11.6487
صّ	-11.6493
اشعار	-11.6494
وشاح	-11.6495
الأطفال	-11.6498
▁عدالة	-11.6506
▁جدّته	-11.6507
واء	-11.6507
▁أدّ	-11.651
صناعية	-11.6511
صت	-11.6511
كّت	-11.6512
ثم	-11.6513
▁كلام	-11.6514
▁إعط	-11.652
▁جاه	-11.6524
▁فرضت	-11.6528
دعوك	-11.6528
▁عاملت	-11.6537
حرج	-11.6542
▁أهلا	-11.6544
فضِّل	-11.6549
▁وُض	-11.6552
▁تستط	-11.6555
حُ	-11.6555
َّيْ	-11.6555
▁عضوا	-11.6556
الْحُ	-11.6559
فارغ	-11.6569
تيقظة	-11.657
شته	-11.6571
خلف	-11.6575
▁تسوي	-11.6578
▁التّنظي	-11.6586
▁قرن	-11.6588
▁حجاب	-11.6589
▁آخرى	-11.6593
▁كيت	-11.6595
قبضت	-11.6597
زم	-11.66
ائحة	-11.6601
البقاء	-11.6604
▁السيخ	-11.6607
▁الارت	-11.6609
سات	-11.6609
▁للاحترا	-11.6617
"!	-11.6619
▁حتما	-11.6621
عالم	-11.6621
شغال	-11.6623
رحلتك	-11.6625
▁خلّين	-11.6628
▁حاب	-11.6629
إصلاحها	-11.6629
▁طفلهم	-11.6631
حياتي	-11.6632
تفقو	-11.6634
لّي	-11.6641
▁باردة	-11.6641
▁أبلغه	-11.6642
اكسي	-11.6642
عتقلوني	-11.6644
جبت	-11.6644
▁ومع	-11.6657
لمأساة	-11.6658
▁فس	-11.666
▁جارتن	-11.666
▁يعطيه	-11.6662
▁بينات	-11.6667
▁صباحا	-11.667
▁ريپۆند	-11.667
المِح	-11.6671
▁زيد	-11.6673
▁عَرَ	-11.6673
▁سأقو	-11.6676
▁الجنوبي	-11.6678
مقابلتك	-11.6679
▁خجِلة	-11.6684
يوم	-11.6689
ستعار	-11.6692
انني	-11.6694
▁بشأني	-11.6698
▁مدّ	-11.6699
ذي	-11.6701
▁أص	-11.6701
▁سلب	-11.6703
▁نادان	-11.6704
باردة	-11.6705
▁أصدقاءا	-11.6705
▁حَو	-11.6705
الد	-11.6706
قية	-11.6706
▁قنات	-11.6708
▁لبيض	-11.6709
▁أقلام	-11.671
▁نيو	-11.6711
▁دَعَ	-11.6712
▁تمرّ	-11.6722
أفريقية	-11.6723
ختار	-11.6724
كنت	-11.6726
▁ينساه	-11.6727
الثعلب	-11.6736
العودة	-11.674
▁قَد	-11.6746
الأصدقاء	-11.6746
حين	-11.6748
أخواتي	-11.6748
جبلية	-11.6754
دقة	-11.6755
▁معقد	-11.6762
راط	-11.6762
شهر	-11.6763
إنجاب	-11.6767
▁بص	-11.6768
ختي	-11.6769
َمَ	-11.677
▁تجده	-11.6772
لما	-11.6773
▁تدرك	-11.6776
تدي	-11.6777
يلي	-11.6777
سط	-11.6779
▁الاس	-11.6787
حمد	-11.679
▁تجنبه	-11.6792
▁قسمت	-11.68
ضي	-11.6802
ذة	-11.6802
باتي	-11.6807
كتفي	-11.6811
▁يومها	-11.6817
▁تخبري	-11.6819
▁يحضرانه	-11.6824
▁تخط	-11.6825
▁أقتلت	-11.6825
▁قاتلا	-11.6829
▁الجي	-11.683
اتهم	-11.6832
▁ناطق	-11.6833
ياطي	-11.6834
▁حساس	-11.6834
حِبُّ	-11.6834
فهمتش	-11.6839
اريا	-11.6842
إنجيل	-11.6843
▁عمّال	-11.6846
▁إعجابه	-11.6847
بديهي	-11.6849
ستحيل	-11.6851
لوب	-11.6851
▁طريقهم	-11.6861
▁آسي	-11.6861
خلد	-11.6866
قو	-11.6867
▁نزع	-11.6868
▁الأرضي	-11.6869
زير	-11.6874
▁مسافر	-11.6874
▁أبد	-11.6879
▁وقويّ	-11.6882
أزور	-11.6898
▁مضطر	-11.6903
▁وعي	-11.6905
▁النوب	-11.6913
▁نقولّ	-11.6913
▁أعماله	-11.6914
▁السّم	-11.6922
خطر	-11.6935
سهل	-11.6938
تساوي	-11.6941
▁الصّلا	-11.6944
▁العنا	-11.6945
يَرْ	-11.6946
▁تعدّ	-11.6962
▁وكل	-11.6962
▁والق	-11.6968
لمس	-11.697
يصدقها	-11.697
كاشف	-11.6977
ودي	-11.6977
قتنع	-11.6977
▁يمت	-11.6981
دنا	-11.6982
▁للرّ	-11.6999
▁ديسي	-11.7007
▁وآ	-11.701
▁بالواجب	-11.7015
▁أسرعي	-11.7016
▁بالفرح	-11.7016
▁حصانا	-11.7018
ائن	-11.7021
▁محفظت	-11.7024
ردت	-11.7024
▁المصار	-11.7036
▁جايح	-11.7039
▁الثّق	-11.7042
جودي	-11.7058
▁تجربت	-11.7061
مدرسية	-11.7062
كب	-11.7063
▁ڨ	-11.7065
ُشارك	-11.7065
لصّحف	-11.7068
▁أُغ	-11.7068
وبة	-11.7072
▁أَس	-11.7075
كنش	-11.7077
▁قُلت	-11.7082
▁إخ	-11.7085
جنب	-11.709
▁اوص	-11.7091
أحميك	-11.7096
عِ	-11.7097
بها	-11.71
▁امر	-11.7102
ونَ	-11.7104
نصح	-11.7122
▁حدّث	-11.7132
َث	-11.7133
▁ظننتُك	-11.7136
جِر	-11.7139
▁مط	-11.7153
▁تزوّجت	-11.716
المنزل	-11.7161
إنسان	-11.7165
▁حاسّ	-11.7166
▁كلّه	-11.7167
▁محب	-11.7167
رجا	-11.7168
لسّلطات	-11.7171
▁ثقاف	-11.7179
▁مالها	-11.7182
▁خطابا	-11.7185
▁البت	-11.7186
▁تردن	-11.7187
فخر	-11.7189
الدجاجة	-11.7193
إلكترونيّة	-11.7199
محققين	-11.7207
ُب	-11.7209
تقل	-11.7212
موز	-11.7215
بَح	-11.7217
وفي	-11.7221
▁تبع	-11.7224
ّاك	-11.7228
سياقة	-11.7228
الآخرين	-11.723
▁نادل	-11.723
يراها	-11.7242
▁عازب	-11.7243
▁سوما	-11.725
▁دمت	-11.7252
اربعة	-11.7252
تعتقد	-11.7252
لّق	-11.7256
تّعلّم	-11.7256
▁اللّ	-11.7259
▁مار	-11.726
▁أصدقاءه	-11.7261
▁والإ	-11.7264
تميز	-11.7267
▁معاملته	-11.7273
▁طعو	-11.7285
قذرة	-11.7286
يهة	-11.7287
▁الهادئ	-11.7287
تقبل	-11.7287
نتحر	-11.729
▁خدعته	-11.729
يقول	-11.7293
▁تصر	-11.7293
ْسُ	-11.7298
▁أه	-11.7307
عًا	-11.7309
احية	-11.7314
سرقة	-11.7314
نضم	-11.7315
▁السه	-11.7315
▁أطع	-11.7321
جيالا	-11.7326
إيطالية	-11.7329
عملها	-11.7332
تقتله	-11.7338
▁فسّ	-11.7339
أذى	-11.734
َتَ	-11.7343
وله	-11.7347
جامعيّة	-11.7348
نادي	-11.7353
▁علنا	-11.7354
باحث	-11.7355
▁يَع	-11.7358
ترك	-11.736
▁إدمانه	-11.7366
ُغلق	-11.7369
18	-11.7373
▁الحكوم	-11.7374
دۆر	-11.7376
عطيت	-11.7379
يلٍ	-11.7381
▁تصدّقه	-11.7384
▁عزل	-11.7389
ْقَل	-11.7395
▁راض	-11.7396
كاد	-11.7398
▁طاقة	-11.7405
▁يختل	-11.7409
▁دياله	-11.741
▁بصفع	-11.7413
تدخلوا	-11.7414
▁سق	-11.7414
▁خاب	-11.7419
لِمُ	-11.7422
ساعد	-11.7427
▁حملت	-11.7427
▁سنح	-11.7427
جعله	-11.7427
تتغيّر	-11.7435
▁الفو	-11.7436
التعفن	-11.7439
ُحضر	-11.7444
دّك	-11.7448
يور	-11.7451
▁غنية	-11.7455
▁تبي	-11.7456
▁فعليه	-11.7458
إمرأة	-11.7469
▁مادا	-11.7472
▁أعيد	-11.7472
ليفة	-11.7474
فۆر	-11.7475
التطبيق	-11.7478
بغي	-11.7478
فرط	-11.748
يدين	-11.7495
إمكاني	-11.7495
تبضع	-11.7495
ائ	-11.7495
روس	-11.7501
تواجد	-11.7502
قر	-11.7504
تلو	-11.7507
▁يذهبو	-11.7511
▁ألتق	-11.7514
حببت	-11.7515
▁الكس	-11.752
▁السّب	-11.7521
▁يحبّكم	-11.7528
رَقْ	-11.753
ثراء	-11.7533
حترمك	-11.7534
تأكيد	-11.7538
▁نلق	-11.7539
ّ!	-11.7542
قض	-11.7543
▁مذ	-11.7544
▁شان	-11.7545
كلة	-11.755
▁أقلّت	-11.7551
طبّ	-11.7552
كّر	-11.7557
▁الفقر	-11.7561
فَت	-11.7563
▁تطل	-11.7563
ومَ	-11.7565
▁الكب	-11.7566
▁نسم	-11.757
▁يلعبو	-11.7573
▁تستو	-11.7573
▁يسته	-11.7577
تب	-11.7579
لتّذكّر	-11.7581
▁رخيصة	-11.7582
الراحة	-11.7593
شتريت	-11.76
لمغادرة	-11.7601
وكا	-11.7602
شعب	-11.7602
سيان	-11.7602
▁حرم	-11.7603
موقع	-11.7607
▁مظهره	-11.7609
اهتمامات	-11.7611
دتني	-11.7612
▁إختبار	-11.7616
▁تنب	-11.7616
▁أَعْ	-11.7619
لماء	-11.762
سجد	-11.7627
تانية	-11.7632
▁١٩٩	-11.7633
إلا	-11.7636
▁الكفا	-11.7637
إزعاج	-11.7637
▁بتما	-11.7638
برنامجك	-11.7643
لصّهيونيّة	-11.7643
▁الخل	-11.7644
رقاء	-11.7646
آمنة	-11.7648
▁منحت	-11.7648
نغو	-11.7648
فحة	-11.7672
أني	-11.7673
▁سيّد	-11.7674
بنزين	-11.7675
▁حساباتل	-11.7681
سأنسى	-11.7685
▁حري	-11.7689
بقينا	-11.7694
▁عنهم	-11.7695
▁بدّل	-11.7698
رقة	-11.7702
الثروة	-11.7706
▁مدعوي	-11.7709
ُشِ	-11.7711
يزا	-11.7711
▁أريدها	-11.7715
▁صاحّ	-11.7715
تشاجر	-11.7716
للاجئين	-11.7719
زيارتي	-11.7719
▁أعز	-11.7723
▁حضرت	-11.7729
▁بعي	-11.7735
دانية	-11.7735
تفاهم	-11.7736
▁عزّ	-11.7743
جورجيا	-11.7743
مْرُ	-11.7744
▁فضلات	-11.7748
مىِ	-11.7749
ليّا	-11.7749
▁بكت	-11.7754
▁كلان	-11.7758
▁خَط	-11.7763
رير	-11.7764
تذوق	-11.7767
▁ليز	-11.7772
▁بينه	-11.7774
▁الترا	-11.7775
ظت	-11.7782
▁لليل	-11.7785
▁المروح	-11.7785
سكوب	-11.7786
راؤه	-11.7788
همة	-11.779
co	-11.779
▁رغبت	-11.7792
▁سالي	-11.7792
▁دلا	-11.7792
الأسلحة	-11.7794
عيدة	-11.7801
▁تركي	-11.7802
▁يومه	-11.7803
حدة	-11.7803
▁شعرا	-11.7805
سقط	-11.7806
▁أظنّك	-11.7808
▁الصي	-11.7813
▁حيّة	-11.783
▁فوجد	-11.7837
ئان	-11.7837
▁المحادث	-11.7838
الجامعة	-11.7843
▁إله	-11.7844
جاب	-11.7847
قاتلة	-11.7847
ّم	-11.785
خلوي	-11.7853
حزب	-11.7875
▁بالموا	-11.7878
وجودك	-11.7879
دعي	-11.7881
يدنا	-11.7881
▁أجبت	-11.7881
▁فست	-11.7883
اهر	-11.7888
▁الجم	-11.789
▁الأط	-11.7896
▁اختياره	-11.7897
نتقام	-11.79
▁شهي	-11.7901
راغ	-11.7903
▁ردد	-11.7904
▁الفي	-11.7904
▁ابتك	-11.7906
ْزَ	-11.7912
تكتك	-11.7919
زّ	-11.7919
سَب	-11.7924
اهرة	-11.7928
▁حبس	-11.7928
▁يَغْ	-11.7932
مج	-11.794
▁قيم	-11.7941
اغلب	-11.7942
ربع	-11.7942
▁وَاع	-11.7954
رتين	-11.7957
▁أوقفه	-11.7958
▁شكو	-11.7962
▁مفتوحت	-11.7963
مادا	-11.7965
الحبس	-11.7968
تفتح	-11.7969
66	-11.7976
المناسبة	-11.7978
ستطيع	-11.7981
عروض	-11.7983
زف	-11.7986
تطور	-11.7994
▁يفاج	-11.8003
لموت	-11.801
عاملني	-11.8015
مشاع	-11.8017
▁بزيارت	-11.8017
كْر	-11.8019
ويه	-11.8024
▁لپ	-11.8025
نش	-11.8026
لمرأة	-11.8031
ُصدق	-11.8034
الأقوال	-11.8036
▁الملا	-11.8036
طوني	-11.8036
▁عَمِ	-11.8039
▁تعلّمتم	-11.8049
َشِ	-11.805
▁يجيب	-11.8051
حلال	-11.8056
بقِ	-11.8057
رّيّة	-11.8062
تعاطف	-11.8062
▁مره	-11.8064
لزواج	-11.8067
▁علاجه	-11.8072
وماً	-11.8073
▁ارضا	-11.8074
يوف	-11.8076
▁للحص	-11.808
▁تخلّي	-11.8081
▁أحي	-11.8087
يتار	-11.8096
▁المخ	-11.8097
▁يكف	-11.8097
▁افت	-11.8109
الإحباط	-11.8112
غط	-11.8113
تَتْ	-11.8119
تفهم	-11.8129
رأت	-11.8133
يسير	-11.8133
كش	-11.8137
▁أره	-11.8144
▁السلم	-11.8147
حقيقيون	-11.815
▁المشتر	-11.8152
تُهُ	-11.816
▁متس	-11.8165
وعي	-11.8167
▁فُ	-11.8167
تابعة	-11.8173
تفقد	-11.8175
تدرس	-11.8176
جداد	-11.8176
▁تطبيق	-11.8178
توقعه	-11.8184
▁قدّ	-11.8184
نينة	-11.8187
▁تخت	-11.8187
رَ	-11.8192
▁هات	-11.8194
▁الانت	-11.8201
▁شهري	-11.8203
َشَ	-11.8212
▁سمك	-11.8214
لقطار	-11.8215
▁الطاب	-11.8221
قطّ	-11.8224
▁للحم	-11.8248
اصدقاء	-11.8253
أقرأها	-11.8254
▁الأك	-11.8259
▁ضررا	-11.8261
يقين	-11.8262
▁سحر	-11.8263
تجع	-11.8263
شئت	-11.8268
▁مبه	-11.827
▁تبر	-11.8271
تراك	-11.8276
▁الحاس	-11.8278
▁السف	-11.8279
▁هيئ	-11.8286
▁نصر	-11.8287
ّجه	-11.8291
ذكرى	-11.8293
صدق	-11.8299
تحالف	-11.8301
عاً	-11.8303
▁المنت	-11.8316
▁آج	-11.8325
▁بو	-11.8325
▁خَش	-11.8326
▁خو	-11.833
▁ليلا	-11.833
السادة	-11.8331
▁المعرك	-11.8332
والي	-11.8337
▁بيس	-11.8337
▁وافقت	-11.834
▁دوا	-11.8342
ارك	-11.8343
خي	-11.8343
▁نشيد	-11.8345
َصَ	-11.8346
موسيقى	-11.8355
▁الكوب	-11.8355
وحدي	-11.8364
يانو	-11.8364
▁الدكا	-11.8364
▁لاستع	-11.8366
▁الوق	-11.8368
عتياد	-11.8368
راته	-11.8369
صرف	-11.8378
هرة	-11.8379
▁مثالية	-11.838
▁لطفه	-11.8388
ملاً	-11.839
▁زوجت	-11.8395
▁حمي	-11.8397
▁مستع	-11.8401
منيات	-11.8403
▁وسائ	-11.8407
▁الشب	-11.8409
▁جرّ	-11.8414
تاي	-11.8415
▁بيده	-11.8425
تيكي	-11.8431
▁تجه	-11.8434
عليّة	-11.8437
شدة	-11.8438
▁خاصت	-11.8438
عله	-11.844
عقارب	-11.8449
▁تسر	-11.8451
اثة	-11.8452
لشَمْسُ	-11.8452
▁حتي	-11.8452
▁تعلمنا	-11.8453
▁عاشر	-11.8457
▁ۆب	-11.8462
ّؤ	-11.8464
▁أوقفت	-11.8466
▁تزا	-11.8467
▁رائد	-11.8468
خداع	-11.8469
أضرب	-11.8471
رّب	-11.8483
▁قتلته	-11.8487
ُغْ	-11.8491
▁تتع	-11.8493
نون	-11.85
ناول	-11.8502
غلب	-11.8507
▁إجتماع	-11.8511
ليتي	-11.8512
ريف	-11.8534
قرا	-11.8539
▁تلقا	-11.8541
▁لمرّ	-11.8542
نجل	-11.8548
كلت	-11.855
▁جسم	-11.855
رقه	-11.8553
يدا	-11.8556
▁يؤذ	-11.8559
▁هدا	-11.8561
بأ	-11.8561
▁مؤك	-11.8561
ئني	-11.8565
▁جيل	-11.8566
▁معاد	-11.8571
▁البن	-11.8572
▁وما	-11.8573
▁تعم	-11.8575
▁يضا	-11.8576
▁شغله	-11.8586
حادث	-11.8591
سَ	-11.8594
محض	-11.8595
▁تُسْ	-11.8595
تقدم	-11.8604
مّل	-11.8613
▁مجموعت	-11.8615
▁عكسي	-11.8617
▁تحبين	-11.8618
▁اساسي	-11.8631
بط	-11.8638
▁غضبان	-11.8641
اقصة	-11.8645
▁بالأم	-11.8649
سترخ	-11.8655
صفة	-11.8661
▁أساعده	-11.8661
▁سيُط	-11.8661
دعم	-11.8661
ياب	-11.8676
قْ	-11.8678
ثا	-11.8685
▁مْ	-11.8686
▁تكرار	-11.8703
▁الملاع	-11.8711
▁تشتم	-11.8718
سنان	-11.8722
كايت	-11.8723
▁امل	-11.873
▁تعار	-11.8732
رابط	-11.8737
▁عَس	-11.8739
غري	-11.8743
لصّ	-11.8743
نجلس	-11.875
قِ	-11.8754
▁وس	-11.8754
▁قوا	-11.8756
▁تتمر	-11.8758
اءات	-11.8758
قبلت	-11.8759
▁مكم	-11.8762
حامل	-11.8762
▁إضاف	-11.877
الموت	-11.8785
▁شرائ	-11.8793
زكام	-11.88
فعت	-11.8805
نهي	-11.8808
▁كثي	-11.881
حيات	-11.8816
ولا	-11.882
▁اللوح	-11.8831
ديمقراطية	-11.8838
▁بيرو	-11.8838
ماط	-11.8845
انو	-11.8848
▁القاض	-11.8851
▁خَا	-11.8861
لتصويت	-11.8866
غرا	-11.8872
تنفس	-11.8876
▁صدر	-11.8876
سعادة	-11.888
▁المعروف	-11.8898
لوقود	-11.8911
قامت	-11.8912
حس	-11.8922
▁ألن	-11.8926
▁يريدو	-11.8935
▁ظلم	-11.8939
ری	-11.8945
كهرباء	-11.8946
نَا	-11.895
مماثل	-11.8951
فئ	-11.8954
▁رف	-11.8957
▁أنكم	-11.8959
رِي	-11.8959
▁مسا	-11.8975
▁موز	-11.8978
َقَة	-11.8982
لممرّضات	-11.8987
أتذكر	-11.8989
▁اغ	-11.8989
▁حصّت	-11.8996
▁خيارا	-11.8996
سّار	-11.8998
َعْد	-11.9003
▁نجم	-11.9005
اي	-11.9005
▁تض	-11.9006
الج	-11.9008
▁امش	-11.9011
راقب	-11.9011
صواته	-11.902
▁الذهب	-11.9026
لشهر	-11.9027
▁النظري	-11.9028
رًا	-11.9032
▁لتساعدن	-11.9033
مرض	-11.9034
َعْ	-11.9035
حديث	-11.9038
مم	-11.904
▁بأل	-11.904
خطاء	-11.9042
▁كونو	-11.9046
▁المحلي	-11.9048
شكرك	-11.9053
▁الث	-11.9055
صيلة	-11.9062
▁اجتماعيّ	-11.9064
ُوّ	-11.9076
حتلّ	-11.9077
▁تنه	-11.9082
▁تغل	-11.9087
حقائق	-11.909
▁إمام	-11.9096
سمكة	-11.9097
ستخدم	-11.9097
▁مرا	-11.9102
ضرر	-11.9103
وحيدة	-11.9114
عجبتني	-11.9116
▁ياني	-11.9116
ِكِ	-11.9122
شباك	-11.9133
▁أعدد	-11.9134
ْنِي	-11.9138
▁لتفو	-11.9145
رّق	-11.9153
▁يسبّ	-11.9163
▁بنط	-11.9165
نبقي	-11.9166
نيّة	-11.9168
▁لكلب	-11.9168
▁يكونو	-11.9174
▁عودت	-11.9176
▁سأساعد	-11.9178
ُهم	-11.9178
▁حذرا	-11.9179
▁تمث	-11.9183
▁سرقت	-11.9187
دفن	-11.9189
▁أمامك	-11.919
▁السّا	-11.919
▁مدرّ	-11.919
كتسب	-11.9201
▁أُنش	-11.9202
▁تساءلت	-11.9202
▁تَق	-11.9206
ظهرت	-11.9206
▁بالدّ	-11.9213
▁سأس	-11.9215
صمة	-11.9215
ضلة	-11.9216
نِّي	-11.9233
▁تحر	-11.9236
يركي	-11.9237
روب	-11.9243
▁كَ	-11.9247
▁وصفا	-11.9251
▁الضر	-11.9253
▁الرحي	-11.9256
▁لبعضه	-11.9257
فترق	-11.9259
ُّ	-11.9261
▁5	-11.9265
علمنا	-11.928
جهد	-11.9281
داني	-11.9287
ستر	-11.9287
▁فمي	-11.9291
السبب	-11.9291
▁يغي	-11.9304
شاهدة	-11.9318
غب	-11.9319
لجميع	-11.9323
▁بنك	-11.9325
مينة	-11.9325
لاء	-11.933
▁المض	-11.933
لواحد	-11.9333
واتي	-11.9334
▁بالما	-11.9346
▁النوا	-11.9348
▁عكس	-11.9349
رع	-11.9356
ضة	-11.9358
▁أدل	-11.9361
َه	-11.9363
زوم	-11.9364
أهلها	-11.9369
▁لأعطي	-11.937
الها	-11.9383
ملكك	-11.9385
▁استد	-11.9389
المئة	-11.9395
ربي	-11.9396
▁ترين	-11.9397
َخْ	-11.9398
إ	-11.9403
▁أضع	-11.9418
إحباط	-11.9422
▁سحري	-11.9423
▁12	-11.943
▁تخبرا	-11.9434
▁لپي	-11.9435
ثّر	-11.944
▁يهدّ	-11.9441
▁يغت	-11.9443
عتقدت	-11.9448
▁بشد	-11.9449
جات	-11.945
▁الجزا	-11.9455
اضل	-11.9456
▁بوقت	-11.9456
▁المصري	-11.9462
َغ	-11.9471
دفعه	-11.9474
▁ايبا	-11.9477
ُض	-11.9478
لإزعاج	-11.9478
▁بانك	-11.9479
اعب	-11.948
▁سيت	-11.948
تبادل	-11.9482
▁أخبرته	-11.9482
▁البد	-11.9483
ُدر	-11.9483
واقعية	-11.9483
صادقين	-11.9487
ننتظر	-11.9488
الأشياء	-11.9491
لاف	-11.9496
▁عطا	-11.9498
▁هُو	-11.9507
▁بنصيحت	-11.9513
ليك	-11.9515
ادتي	-11.9516
ادا	-11.9519
▁قتله	-11.952
زدهر	-11.9525
شيط	-11.9535
▁فقر	-11.9543
كْب	-11.9544
خف	-11.9551
▁ألطف	-11.9554
▁تروي	-11.9554
▁الدّرا	-11.9558
يْر	-11.956
▁اته	-11.9561
مسلسل	-11.9565
▁فري	-11.9566
ديش	-11.9569
▁القو	-11.957
▁شغلت	-11.9571
▁عاط	-11.9574
▁يصف	-11.9575
تعرض	-11.9582
▁تطبيقي	-11.9588
▁196	-11.9589
▁صفات	-11.9592
▁أُفض	-11.9603
▁ولع	-11.9608
▁الّت	-11.9608
▁رسميّ	-11.9608
▁أسبوعا	-11.9614
َغْل	-11.963
جسر	-11.9631
جهات	-11.9633
راب	-11.9636
▁صرا	-11.9644
ميد	-11.9646
▁بيحب	-11.9657
▁نقا	-11.966
▁لأه	-11.966
يضا	-11.9669
لُها	-11.9678
▁سمّا	-11.9682
▁المركزي	-11.9683
▁بائس	-11.9684
النا	-11.9685
ْف	-11.9688
يسي	-11.969
ّين	-11.969
▁آب	-11.9702
ونها	-11.9711
َرْو	-11.9713
تفاصيل	-11.972
خطّ	-11.9734
يتساقط	-11.9743
غال	-11.975
نصيحته	-11.9751
أقوى	-11.9754
نعام	-11.976
سخ	-11.9768
▁أعجب	-11.9774
▁الاستق	-11.9779
▁تظاهرت	-11.9784
▁سامح	-11.9787
هب	-11.9788
أبي	-11.9797
أسلحة	-11.9802
▁اسباني	-11.9815
شوب	-11.9833
حلوى	-11.9854
▁تقلن	-11.9856
هادئة	-11.9868
عْد	-11.987
ُغَ	-11.9879
▁مبش	-11.988
شفت	-11.9915
▁لْ	-11.9918
▁تبّ	-11.9922
سامحه	-11.9924
ثروة	-11.9927
▁لنفس	-11.9929
تضيع	-11.9934
▁التر	-11.9937
ولة	-11.9943
▁للتّسم	-11.9944
روف	-11.9945
إمتحان	-11.9952
قاع	-11.9955
مةً	-11.9962
تشكيل	-11.997
فاف	-11.9972
▁حاف	-11.9973
▁المواع	-11.9979
▁قضت	-11.998
لاستعا	-11.9982
جاً	-11.9985
عراق	-11.9991
▁ستنج	-11.9993
نْتُمْ	-11.9994
قلت	-12.0003
قطار	-12.0012
طبية	-12.0024
وتي	-12.0035
سَى	-12.0036
▁نتي	-12.0037
مرة	-12.0038
پۆرت	-12.0041
▁بصّ	-12.0041
كية	-12.0044
▁عينيه	-12.0044
شكيلا	-12.0046
نجحوا	-12.0046
▁جئ	-12.0066
انيا	-12.0069
عَلُونَ	-12.0074
▁لِل	-12.0078
سلمون	-12.0081
رُ	-12.0081
▁نشي	-12.0085
▁بهذ	-12.0088
▁سأطل	-12.009
▁الرج	-12.0091
▁الطّاو	-12.0092
يشوف	-12.0092
سلامة	-12.0093
قتلني	-12.0096
▁إخل	-12.0097
▁طلبو	-12.0097
▁مثليّ	-12.01
صفحتي	-12.0106
حَل	-12.0115
▁سأق	-12.0121
ظني	-12.0125
▁إيا	-12.0133
▁أحبب	-12.0138
طني	-12.0151
▁عبو	-12.0153
طبيعية	-12.0153
مكان	-12.0156
▁يُفض	-12.016
ديا	-12.0163
ْت	-12.0163
▁حمر	-12.0165
أوصل	-12.0166
▁أنقل	-12.0167
▁بصف	-12.0176
▁المأ	-12.0187
▁سيصي	-12.0188
غَر	-12.0193
ِقَ	-12.0193
▁جايا	-12.0194
▁مظل	-12.0198
▁انتق	-12.0209
▁تعدد	-12.0217
واحدة	-12.0218
بتكلم	-12.0222
▁تتك	-12.0225
▁بشح	-12.0225
▁احترم	-12.0229
▁الشر	-12.0233
▁مكا	-12.0236
▁لاتو	-12.0237
ستسلام	-12.0237
ادت	-12.0238
فتش	-12.0241
▁بته	-12.0244
▁يتس	-12.0245
حقق	-12.0245
زنا	-12.026
حميك	-12.0262
لعشر	-12.0265
▁جارت	-12.0266
الأُم	-12.0269
▁الديني	-12.027
لدي	-12.0273
كافح	-12.0288
▁العالي	-12.0291
جّي	-12.0292
وقف	-12.0299
▁نش	-12.0302
رّر	-12.0329
لمصالح	-12.0332
ّتني	-12.0346
سّي	-12.0351
▁يسع	-12.0355
تعفن	-12.0363
ابور	-12.0368
قب	-12.0371
▁191	-12.0373
تبادلا	-12.0375
لخطة	-12.0378
جوابه	-12.0382
يَن	-12.0385
▁الإيطالي	-12.0385
َف	-12.0385
▁استع	-12.0387
▁بقلي	-12.0388
اول	-12.0397
لفقراء	-12.0407
ّلت	-12.0409
ذّر	-12.0409
فريقي	-12.0413
▁ندخ	-12.0415
ديك	-12.0417
▁التجار	-12.0419
▁حذر	-12.0423
▁الكف	-12.0428
▁تخل	-12.0429
اهدة	-12.0429
مساوي	-12.0431
▁اصاب	-12.0434
▁لعملي	-12.0435
لأبي	-12.0439
▁المختص	-12.0439
تولي	-12.0441
دعوة	-12.0443
▁يتبعو	-12.0443
خدم	-12.0448
لل	-12.045
▁ذب	-12.045
مذياع	-12.0451
▁شَع	-12.0453
رط	-12.0462
▁شفتي	-12.0465
كُمُوه	-12.0466
ستي	-12.0467
دينة	-12.0469
▁التفاه	-12.0481
▁راش	-12.0482
سمه	-12.0483
يديه	-12.0484
▁موسيق	-12.0485
▁السطو	-12.0493
منخفض	-12.0496
َنَا	-12.0498
▁اخ	-12.0503
لحصان	-12.0504
▁عازبا	-12.0506
ريا	-12.0515
▁الغل	-12.0517
▁هط	-12.052
▁وقبل	-12.0522
▁بوع	-12.0522
▁محقّا	-12.0525
كاتب	-12.0531
أسرتها	-12.0538
▁بانتظار	-12.0539
مدّة	-12.0541
لفظ	-12.0547
ِلا	-12.0551
▁قراء	-12.0555
▁يَخ	-12.0556
إجرامي	-12.0563
رنّ	-12.057
ساعده	-12.057
▁اِسم	-12.0571
▁تعالي	-12.0572
▁القذر	-12.0576
▁منهُ	-12.058
ئر	-12.0584
لسّجن	-12.0591
▁زح	-12.06
▁أيمكن	-12.0612
▁كلمت	-12.0613
▁كذ	-12.0618
ئًا	-12.0622
قيادة	-12.0624
▁كلماته	-12.0627
الميث	-12.0628
نديا	-12.0642
َاد	-12.0646
الا	-12.0662
شجرة	-12.0667
▁الديمقراطي	-12.0668
▁خيال	-12.0678
▁الظّ	-12.0679
▁ثق	-12.0688
▁فَر	-12.0695
بيض	-12.0698
▁المدرسي	-12.0701
لمجيئ	-12.0708
▁احتج	-12.0709
▁الجز	-12.0721
لبية	-12.0721
ّبت	-12.0732
▁الاغ	-12.0733
▁تضي	-12.0734
▁سمّ	-12.0734
▁تأكلي	-12.0739
▁نسد	-12.074
عه	-12.0751
▁طريقه	-12.0753
باقي	-12.0762
قوى	-12.0763
وشي	-12.0766
حكيم	-12.0769
طى	-12.0769
وَ	-12.0773
ركة	-12.0783
نجز	-12.0795
ّار	-12.0796
فته	-12.0797
▁الْمَ	-12.0801
َني	-12.0814
▁تعل	-12.0817
▁فعلا	-12.0817
▁السحر	-12.0817
كُل	-12.0826
فرقته	-12.0827
عاهرات	-12.0828
▁الرائع	-12.083
▁باليد	-12.0836
الفشل	-12.0838
▁بالن	-12.0839
روسي	-12.0841
لمواصلة	-12.0846
▁إثر	-12.0846
فلت	-12.0855
َدَ	-12.0856
ستحق	-12.0859
لقد	-12.0865
ستون	-12.0867
تشكّ	-12.0878
▁فإنه	-12.0878
▁السل	-12.0878
طابع	-12.0881
▁بدو	-12.0884
▁نع	-12.0893
▁يلتقي	-12.0895
ْش	-12.0896
ِهَا	-12.09
يفوز	-12.09
نلتقي	-12.091
ْد	-12.0911
لسرقة	-12.0912
▁الأنوا	-12.0913
▁جدّت	-12.0913
on	-12.092
▁لسيّار	-12.0928
أراك	-12.0935
اوي	-12.0936
▁تعر	-12.0943
▁إير	-12.095
▁تعجب	-12.0951
صْ	-12.0958
▁النق	-12.0964
اءِ	-12.0966
ربّي	-12.0968
▁وَا	-12.0973
حية	-12.0977
دياً	-12.0977
توج	-12.0981
▁الطر	-12.0981
لأصدق	-12.0991
ac	-12.0992
▁التّع	-12.0996
ظِّ	-12.0999
رسل	-12.1003
دري	-12.1003
الاَ	-12.1007
▁والمسا	-12.1013
▁رحلته	-12.1016
ئن	-12.1035
فِ	-12.1038
ليبار	-12.1053
▁سع	-12.1055
ائسة	-12.1057
▁أفك	-12.1061
▁عِ	-12.1077
▁سري	-12.1083
▁أفهمت	-12.1085
▁إع	-12.1091
▁والجم	-12.1097
▁اجل	-12.11
شحن	-12.1106
عطلة	-12.1107
▁يفهمو	-12.1115
▁إحذ	-12.1121
▁ابنت	-12.1134
▁تكتس	-12.114
ارع	-12.1141
لفلسطينيّين	-12.1145
تساعدني	-12.1156
لأرنب	-12.1163
عْب	-12.1169
آه	-12.117
▁ولاد	-12.1173
▁ديال	-12.1176
بته	-12.1182
بنتان	-12.1184
الو	-12.1187
بيضات	-12.1188
وحدة	-12.1195
حاسب	-12.1205
▁يجدو	-12.1215
الوردة	-12.1225
قني	-12.1227
▁قلبه	-12.1236
▁سأخ	-12.1236
فسه	-12.1244
▁زيارت	-12.1246
ثعلب	-12.1253
▁معد	-12.1254
▁اليُ	-12.1254
نقص	-12.1272
▁هت	-12.1277
ديان	-12.1279
▁لتنم	-12.1282
لشرح	-12.1284
ظف	-12.1285
شّر	-12.1285
نحبك	-12.1292
رتهم	-12.1295
جليد	-12.13
لإيجار	-12.1302
▁مضا	-12.1311
▁كلي	-12.1313
▁عر	-12.1317
▁مارا	-12.1322
تما	-12.1326
فَرِ	-12.133
ريّة	-12.1334
والدها	-12.1337
مضغ	-12.1337
▁ذكره	-12.1339
مطر	-12.134
لبشر	-12.1347
ريپۆندي	-12.1351
حذر	-12.1356
ناولن	-12.1356
حترم	-12.1359
أشباح	-12.1364
▁الطويل	-12.1366
▁دب	-12.1373
الغباء	-12.1377
▁يعتقلو	-12.1381
▁الام	-12.1384
لأمهات	-12.1385
▁ليسو	-12.1391
▁عددا	-12.1395
▁بناه	-12.1401
ِّ	-12.1402
▁عنيف	-12.1407
أشع	-12.1407
َبَ	-12.1411
ضلاته	-12.1423
▁تُج	-12.143
ساعدهم	-12.1431
فهمه	-12.1432
دْتَ	-12.1437
الفرحة	-12.145
▁الجري	-12.1456
وسي	-12.1459
▁مكت	-12.146
أصل	-12.148
ستثق	-12.148
دَ	-12.1484
ومة	-12.1486
▁عطل	-12.1486
▁تخو	-12.1488
▁فض	-12.1499
َب	-12.1505
رئة	-12.1506
▁محاول	-12.151
لِك	-12.1511
نواجه	-12.1516
وقات	-12.152
▁لنشر	-12.1523
رياضيات	-12.1525
سارا	-12.153
َكْذِب	-12.153
▁مختلفت	-12.1534
نسَ	-12.1557
بلت	-12.1558
▁الهلا	-12.156
يدات	-12.1561
إنها	-12.1564
ڥ	-12.1565
▁حاسوبيّ	-12.1566
▁وَالْ	-12.1568
▁باد	-12.1572
▁المالي	-12.1576
▁بالجوا	-12.1579
▁جائ	-12.1582
▁مشكلا	-12.1589
تسع	-12.1593
بره	-12.1604
▁وأح	-12.1617
▁أخر	-12.1621
عْرَ	-12.1633
عَرْ	-12.1641
الكرامة	-12.1644
ممارس	-12.1644
▁وحشي	-12.1649
رئ	-12.165
راكة	-12.1652
▁لِم	-12.1653
▁كافي	-12.1654
▁لَك	-12.1659
زرق	-12.166
▁أَكُ	-12.1662
▁صاحبت	-12.1664
لال	-12.1669
رحب	-12.1686
نظام	-12.1698
أختها	-12.1703
▁مق	-12.1712
فذ	-12.1716
ثمّ	-12.1722
▁الجميل	-12.1723
بخ	-12.1723
مجتمع	-12.1726
▁قميص	-12.1726
▁تتخ	-12.1731
فال	-12.1748
▁عائد	-12.1752
ماثل	-12.1754
▁للنّ	-12.1757
▁الصيني	-12.1764
عمه	-12.177
▁تزور	-12.178
▁شراءه	-12.1782
▁الفار	-12.1789
دِ	-12.1792
▁البارد	-12.1793
ناك	-12.1794
▁معتم	-12.1796
▁بغر	-12.1796
ِّيَ	-12.1796
▁بصم	-12.1809
▁الزوج	-12.1816
لّم	-12.1817
▁التش	-12.1832
رفته	-12.1845
▁أمّا	-12.1855
▁الاطفا	-12.1856
لسّارق	-12.1866
ونات	-12.1868
ّج	-12.1871
هام	-12.1872
كث	-12.1874
▁ورد	-12.1876
اخدو	-12.1881
لرجل	-12.1887
رحيم	-12.1889
حته	-12.1892
ستدع	-12.1894
▁النجا	-12.1896
تجري	-12.1899
عطي	-12.1903
اءت	-12.1904
حائط	-12.1907
▁نها	-12.1907
▁راكبا	-12.191
وتا	-12.1916
تمان	-12.1926
▁وقو	-12.1931
▁تشكي	-12.1933
همت	-12.1937
ثريا	-12.1962
مش	-12.1962
لَحْ	-12.1963
▁الْخَ	-12.1969
▁البط	-12.1973
▁يحبونه	-12.1982
ائح	-12.1983
موسيقا	-12.1989
▁يْ	-12.1989
▁أحم	-12.1993
تغلّ	-12.2003
▁النف	-12.2013
سح	-12.2016
مكة	-12.202
درّب	-12.2026
متاع	-12.203
▁مبادئ	-12.2032
▁محط	-12.2042
بدِ	-12.2043
▁غيرة	-12.2046
حبّها	-12.2048
▁شق	-12.205
موضوع	-12.2055
▁تصفّ	-12.2057
▁بتمو	-12.2061
▁يخر	-12.2064
ةَ	-12.2065
سديد	-12.2074
قولّك	-12.2076
▁صحت	-12.2076
▁أرأيت	-12.2077
▁خلو	-12.2084
علها	-12.2093
▁بالس	-12.2118
ساً	-12.2126
َمت	-12.2135
▁اقف	-12.2137
دينية	-12.2139
مشروبات	-12.215
ادات	-12.2152
لأمازيغية	-12.2152
▁الطرف	-12.2152
التحرك	-12.2157
▁الأدو	-12.216
نتي	-12.2161
▁جديا	-12.2166
لرّسائل	-12.2168
لّف	-12.2173
▁يُؤ	-12.2175
▁يتوقّ	-12.2186
لأبو	-12.2187
▁طب	-12.2188
لأخبار	-12.219
نخفض	-12.2196
َطْ	-12.2196
يهوم	-12.22
ظرو	-12.2214
َقْل	-12.2216
نتظرك	-12.2218
▁يَح	-12.2218
65	-12.222
▁التم	-12.2221
▁الصّح	-12.2221
▁السود	-12.2226
▁نظّ	-12.2227
▁عَم	-12.2231
ندو	-12.2237
الأرنب	-12.2246
عينيّ	-12.2249
خيّم	-12.2256
زور	-12.2262
▁وأك	-12.2265
▁وجهت	-12.2266
تعير	-12.2269
يسة	-12.2273
▁أتض	-12.2275
تّخذ	-12.2286
اضي	-12.2286
ائز	-12.2289
َم	-12.2292
▁إصلاحه	-12.2294
ناسب	-12.2295
هَا	-12.2297
َفَت	-12.2304
c	-12.2307
تسكّ	-12.2309
نسبة	-12.2311
لسه	-12.2312
▁أبك	-12.2319
همني	-12.2328
▁المعتق	-12.2329
لمت	-12.2336
▁الشفا	-12.2341
▁بالمِ	-12.2349
سى	-12.2354
▁رماد	-12.2358
▁معاي	-12.2363
لإعداد	-12.2364
▁قَال	-12.2365
الممتعة	-12.237
بّه	-12.2371
▁ليصدق	-12.2379
▁طال	-12.2381
شرطة	-12.2382
▁المرا	-12.2388
ملة	-12.2389
▁خلّي	-12.2392
ّاب	-12.2397
هزة	-12.2407
راث	-12.2408
▁أتمكّ	-12.2413
▁سيلتق	-12.2426
پل	-12.2427
اجلك	-12.2428
▁يدّ	-12.2429
أجعلك	-12.2431
▁يتعلم	-12.2435
▁جم	-12.2438
▁المجا	-12.2445
انكسر	-12.245
▁أترج	-12.2451
طّ	-12.2453
حاكم	-12.2457
▁وثلاث	-12.2463
▁تستعجل	-12.2471
بقوا	-12.2472
▁العش	-12.2474
َبِي	-12.2474
لِمَ	-12.2476
ضربني	-12.2477
▁يستعي	-12.2478
أيّ	-12.2482
بائهم	-12.2485
▁كد	-12.2487
▁تصع	-12.2498
▁أحِبّ	-12.2504
اندا	-12.2506
اطفال	-12.2512
▁متسامح	-12.2516
جمال	-12.2516
▁لسا	-12.2523
اصلة	-12.2523
ختر	-12.2525
نِ	-12.253
عرفش	-12.253
لاة	-12.2537
▁أجي	-12.2538
ضربك	-12.2541
صب	-12.2544
▁وثق	-12.2547
ذَ	-12.2549
علّم	-12.2549
واسط	-12.2552
صيد	-12.2553
ُلُ	-12.2556
▁تدخلو	-12.2557
زلة	-12.2558
كمل	-12.2568
▁كرسيا	-12.257
أجلك	-12.2571
▁حنا	-12.2577
ايحين	-12.258
▁العم	-12.2583
طف	-12.259
بيل	-12.2608
▁سأح	-12.2619
تعمل	-12.2622
▁يهودي	-12.2633
▁مغامر	-12.2636
سيارة	-12.2645
▁الفخ	-12.2649
لطوارئ	-12.2653
بشر	-12.2656
▁محتر	-12.2657
يدي	-12.2658
▁مقا	-12.2666
ْمَع	-12.2672
▁الصال	-12.2673
عينه	-12.2675
ياح	-12.268
لسفر	-12.2682
انفص	-12.2686
▁مفعما	-12.2688
بورت	-12.269
عدوّ	-12.2695
لني	-12.2697
▁تأخّر	-12.2702
مدًا	-12.2702
▁ناق	-12.2717
▁يقومو	-12.2723
أج	-12.2725
لغي	-12.2731
▁شقرا	-12.2733
▁اجتماعي	-12.2736
لقمر	-12.274
سبني	-12.2749
▁محقق	-12.2761
َمَن	-12.2769
▁يسمعه	-12.2777
لعودة	-12.2782
▁نهتم	-12.2785
خبزة	-12.2787
يمكن	-12.2788
لتِ	-12.2791
▁يشب	-12.2795
▁الرّيفي	-12.2801
▁كندي	-12.2804
عدها	-12.2808
▁مثليو	-12.2811
لْم	-12.2826
يكرو	-12.2833
▁بالحب	-12.2835
عجبك	-12.284
▁عاصف	-12.2843
▁مصابا	-12.2843
حلم	-12.2844
أَنْ	-12.2845
وميّا	-12.2845
طاق	-12.2847
▁المعامل	-12.2848
▁أهي	-12.2853
ذنب	-12.2862
صوّر	-12.2876
شقّ	-12.2878
حلات	-12.2881
جون	-12.2885
▁بكرا	-12.2893
▁أمتأك	-12.29
ْدين	-12.2901
ژان	-12.2902
▁تُكت	-12.2905
▁بدراس	-12.291
▁اسك	-12.2911
طْ	-12.2914
▁بمقد	-12.2914
▁زيار	-12.2914
▁يحم	-12.2933
لشرب	-12.2936
حياء	-12.2939
▁تراب	-12.2946
لفت	-12.2948
ڥي	-12.2949
لهدف	-12.295
بتسام	-12.2954
كتظا	-12.296
▁الجا	-12.2963
مدة	-12.2965
جن	-12.2972
▁يطي	-12.2975
رته	-12.2981
▁أسم	-12.2983
فس	-12.2983
همه	-12.2984
▁ابنا	-12.2991
▁بمدين	-12.2996
▁تقّدر	-12.3004
▁خائفة	-12.3008
▁المَ	-12.3014
▁بالتخ	-12.3018
طيت	-12.3021
▁سد	-12.3027
كّل	-12.3028
▁الجمهور	-12.3029
▁يسب	-12.3031
يو	-12.3037
إنجليزي	-12.3039
لمنصب	-12.3039
طوله	-12.3039
▁لحما	-12.3044
▁دائ	-12.3045
ستجواب	-12.3052
▁حقه	-12.3054
شعوب	-12.3054
لتقدم	-12.3062
▁منح	-12.3063
▁قائم	-12.3064
▁الصادق	-12.3066
▁المحلّي	-12.3068
▁بمدرّس	-12.3068
▁بالصّ	-12.3068
نوية	-12.3071
▁خا	-12.3072
▁اختط	-12.3074
حقا	-12.3075
▁العر	-12.3075
دۆ	-12.3078
▁أوروبي	-12.3081
بوس	-12.3082
نساء	-12.3084
▁بقر	-12.3099
ْك	-12.31
▁برو	-12.31
طح	-12.3101
▁حظ	-12.3102
َخَ	-12.3102
▁التّق	-12.3104
تّح	-12.3112
واي	-12.3114
البول	-12.312
دّيّ	-12.3121
افيك	-12.3125
بس	-12.3125
▁تتعل	-12.3126
▁غبا	-12.313
امبانيا	-12.3135
طورة	-12.3135
ويا	-12.3136
لّغ	-12.3141
مكن	-12.3143
▁وف	-12.315
لإخبار	-12.315
▁عائل	-12.3154
ارية	-12.3157
خلقو	-12.3159
لهجوم	-12.3163
▁متوجّه	-12.3171
إياب	-12.3174
▁سيارت	-12.3175
ِيا	-12.3176
▁للب	-12.3182
نزا	-12.3186
أريد	-12.3192
▁فسأ	-12.3201
جنون	-12.3203
دّم	-12.3207
▁بآل	-12.3212
▁لَهُ	-12.3216
▁عربي	-12.3218
▁بالله	-12.3224
▁تجر	-12.3234
▁شرك	-12.324
ْلِ	-12.324
!".	-12.3249
تري	-12.3249
▁مقت	-12.3251
زلازل	-12.3255
▁الأقو	-12.3259
عداد	-12.3262
ماع	-12.3262
الحياة	-12.3265
لكتاب	-12.3268
▁محقا	-12.3274
▁بَع	-12.3277
▁يغضب	-12.3285
لدن	-12.3285
عتَ	-12.3287
هش	-12.3294
▁استعم	-12.3295
لوقت	-12.3297
▁ضربة	-12.3301
▁حذّرت	-12.3303
▁حرف	-12.3303
▁بكتاب	-12.3305
نان	-12.3307
▁مِنْهُ	-12.3312
ّعارة	-12.3324
▁وفاز	-12.3328
▁اتّصال	-12.3334
▁ممس	-12.3336
حص	-12.3336
إسبرانتو	-12.3337
صباح	-12.3339
عقوبات	-12.3343
حرف	-12.3344
ذب	-12.3345
ِلُ	-12.3352
▁بأد	-12.3353
▁لثلاث	-12.3362
قيادته	-12.3362
▁اقل	-12.3367
▁الرح	-12.3367
سَهُ	-12.3371
ثنا	-12.3373
جمل	-12.3373
طالي	-12.3374
ازل	-12.3385
▁الصيفي	-12.3404
▁اِر	-12.3404
نح	-12.3408
لآخرين	-12.3413
طور	-12.3416
خذو	-12.3419
ريت	-12.3423
▁توحي	-12.3423
▁تلفزيوني	-12.3424
▁بوص	-12.3425
▁تنظّ	-12.3433
▁الرش	-12.3434
سمي	-12.3435
▁هَل	-12.3437
▁أعي	-12.3444
افي	-12.3448
▁يتجم	-12.3453
▁تُسم	-12.3453
▁تأجل	-12.3457
زلت	-12.3457
▁الدجاج	-12.3471
عجبه	-12.3472
▁لوحد	-12.3477
▁لأمّ	-12.3477
ركات	-12.3478
مجيء	-12.3492
ضوا	-12.3504
لّمه	-12.3505
كَم	-12.3507
ستمرار	-12.3509
حفظت	-12.351
▁بالتسا	-12.3513
▁ينامو	-12.3513
▁فرا	-12.3514
▁لكنن	-12.3527
كنيسة	-12.353
وجود	-12.3531
لتطبيق	-12.3531
أمهات	-12.3531
▁اربع	-12.3537
تموه	-12.3541
ِغ	-12.3542
حترامي	-12.3542
▁يُعتق	-12.3546
ذِر	-12.3546
أمّهات	-12.3551
▁قن	-12.3554
ْبَ	-12.3554
▁فإ	-12.3556
▁بيضا	-12.356
شوكا	-12.3563
لانتظار	-12.3565
▁ران	-12.3572
رها	-12.3573
ُنُ	-12.3578
▁للق	-12.358
خون	-12.358
لز	-12.3588
جميلة	-12.3592
▁ليه	-12.3592
▁دُر	-12.3595
ناعة	-12.36
▁خطت	-12.3601
تباه	-12.3602
▁حدثت	-12.361
يتقابل	-12.361
لزكام	-12.3614
زحلق	-12.3615
▁معق	-12.3618
▁العُ	-12.3619
ْوَى	-12.362
تغط	-12.3625
تبر	-12.3632
▁بمعاي	-12.3635
حجرة	-12.3636
ريق	-12.3638
▁إطار	-12.365
▁قسطا	-12.3651
▁الأع	-12.3654
▁الصو	-12.3655
▁انما	-12.3656
عال	-12.3656
▁المراقب	-12.3658
نُ	-12.366
ئه	-12.3662
لجزائر	-12.3664
َانِي	-12.3667
واياتها	-12.3668
ِتُ	-12.3674
ستفاد	-12.3675
َهُو	-12.368
تى	-12.368
▁سأنظّف	-12.3682
▁متأ	-12.3683
▁والصين	-12.3684
▁ظ	-12.3685
▁اصط	-12.3703
▁سروال	-12.3705
▁محكم	-12.372
▁غاب	-12.3723
▁الراب	-12.3726
▁ترا	-12.3732
تالي	-12.3739
لوي	-12.3743
▁علّمت	-12.3743
▁صارما	-12.3744
▁أَيْن	-12.3745
مدرّس	-12.3748
كبير	-12.3753
▁سأله	-12.3759
▁غال	-12.3771
▁بالأمازيغي	-12.3773
بيجر	-12.3774
▁نرف	-12.3779
كّ	-12.378
▁البي	-12.3789
تع	-12.3795
تُّ	-12.3797
دتي	-12.3797
▁جريد	-12.3799
▁بج	-12.3806
صبع	-12.3807
لقة	-12.3811
▁رياضيا	-12.3813
▁مكالم	-12.3819
فاصيل	-12.3822
ّفني	-12.3823
لناس	-12.3827
بدل	-12.3831
مُوس	-12.3834
وط	-12.3841
▁الشمال	-12.3842
▁قبو	-12.3843
تشار	-12.3848
▁طالياني	-12.3849
اهيتي	-12.3855
أليف	-12.3864
عليه	-12.3871
مخدّرات	-12.3873
▁أدعو	-12.3873
▁بمو	-12.3877
▁سار	-12.388
جربة	-12.3881
▁اللو	-12.3892
يكون	-12.3894
▁تدرب	-12.3894
يموت	-12.3897
▁مهت	-12.3899
مميّز	-12.3904
▁عَلَ	-12.3909
ُوا	-12.3913
إصبع	-12.3916
حبها	-12.3916
اسي	-12.3918
▁يتغ	-12.3921
وائيّة	-12.3926
▁الرَّح	-12.3927
ثير	-12.3928
▁العقو	-12.3929
اوند	-12.3934
يضع	-12.3938
إنّ	-12.3941
صحيح	-12.3947
يخ	-12.3952
▁بخس	-12.3954
أمريكي	-12.3961
تحس	-12.3963
لتصق	-12.3968
▁الصّهيوني	-12.3972
الطبيب	-12.3978
عيّن	-12.3981
أجيال	-12.3983
لفيزي	-12.3992
▁الاحترا	-12.3999
▁يتعا	-12.4002
َصِ	-12.4002
لحيوانات	-12.4002
▁المدخ	-12.4021
ُوهُ	-12.4024
يڨ	-12.4031
كرام	-12.4036
▁حقيقي	-12.404
لسرطان	-12.4043
نشر	-12.4049
حتى	-12.4051
مكانك	-12.4051
▁إشار	-12.4054
▁جزير	-12.4054
▁زجاج	-12.4056
صُ	-12.4056
أكبر	-12.406
دعوتك	-12.4066
ميلاد	-12.4067
▁ثل	-12.4072
ْس	-12.4073
رّد	-12.4074
وصيتك	-12.4077
▁اسمُ	-12.4078
جدها	-12.4082
▁تُو	-12.4085
مشاكل	-12.4085
▁جنسيّ	-12.409
▁القبو	-12.409
ميلان	-12.4092
▁للآ	-12.4101
▁تام	-12.4102
قُص	-12.4104
▁نتعل	-12.4107
ِكْ	-12.4108
خطئ	-12.4109
دْ	-12.4113
ملابس	-12.4114
لول	-12.4119
▁عسكري	-12.4121
▁يبقو	-12.4123
▁يستو	-12.4126
▁مجان	-12.4128
فكير	-12.4131
▁زياد	-12.4133
▁الحج	-12.4136
تفاحة	-12.4139
▁يعجب	-12.414
تعبير	-12.4143
▁بف	-12.4156
ۆسي	-12.4157
▁الرمل	-12.4164
▁نم	-12.4168
ليزا	-12.4172
▁توق	-12.4172
فضول	-12.4175
جميل	-12.4177
▁مسكو	-12.4178
قدرو	-12.418
مسيد	-12.4183
طال	-12.4183
▁بصر	-12.4184
ستلمت	-12.4185
ّاط	-12.4188
الليلة	-12.419
▁والدا	-12.4192
▁وإل	-12.4193
▁بحرو	-12.4194
ُم	-12.4194
سمة	-12.4197
تبدو	-12.42
▁العسكري	-12.4206
فريق	-12.4207
ْر	-12.4211
▁سرب	-12.4212
▁يوص	-12.4214
▁نَفس	-12.4214
َبُ	-12.4218
▁عنكم	-12.4225
▁الثانوي	-12.4226
حقيبة	-12.4226
▁العنصر	-12.4227
▁الإث	-12.4229
فهمني	-12.4231
شتبه	-12.4232
َة	-12.4234
رانژ	-12.4235
التلفاز	-12.4235
▁طبق	-12.4236
▁سيج	-12.4238
عددنا	-12.4241
فصيل	-12.4241
▁شرو	-12.4245
أحلام	-12.4248
لديّ	-12.4256
رفين	-12.426
▁فرو	-12.4261
▁جوابا	-12.4262
▁ننظ	-12.4263
▁أقم	-12.4266
افرين	-12.4269
أردت	-12.4272
▁دوّ	-12.4273
▁غي	-12.4274
▁الذكر	-12.428
الداخل	-12.4281
▁يجع	-12.4284
الأرض	-12.4285
صّغيرا	-12.4286
▁معاملت	-12.4287
▁سأغي	-12.4289
بوسطن	-12.4292
▁أهله	-12.4294
▁اغني	-12.4294
لولا	-12.4295
نفسها	-12.4295
صص	-12.4296
سوم	-12.4296
ّغ	-12.4297
▁معرفت	-12.4301
ّفك	-12.4305
ِحًا	-12.4306
تكرار	-12.4308
▁تساو	-12.431
لرياضيات	-12.4313
▁الحيو	-12.4314
احِ	-12.4316
لأج	-12.4316
▁صبيا	-12.4323
علّق	-12.4325
إسم	-12.4327
يّز	-12.4328
ِبِ	-12.4328
▁بالسر	-12.433
▁كفا	-12.4332
عندي	-12.4333
▁ار	-12.4334
▁طلت	-12.4338
َةِ	-12.4344
راق	-12.4344
قبيح	-12.4345
محطّ	-12.4345
هؤلاء	-12.4348
▁مسيحيّ	-12.4354
▁الجماعي	-12.4355
▁السكا	-12.4355
ِف	-12.4356
لخدمة	-12.4358
لحليب	-12.4359
امپۆ	-12.4367
▁المثال	-12.437
▁تدو	-12.4373
لعجلة	-12.4374
ru	-12.4377
أنفسنا	-12.4377
أدوات	-12.4377
ختصر	-12.4378
لاق	-12.4378
خفيف	-12.4382
دفاً	-12.4383
▁بإطلا	-12.4383
ِج	-12.4388
▁نَسَ	-12.4391
حلية	-12.4396
يستطيع	-12.4398
96	-12.4398
ذاهب	-12.44
راقص	-12.4402
جدّته	-12.4404
خمس	-12.4408
▁مستيقظا	-12.4409
ثوان	-12.4412
كثيرًا	-12.4413
يلان	-12.4413
ظّف	-12.4414
مرحباً	-12.4415
▁بأع	-12.4416
رّة	-12.4419
تَبْ	-12.4419
نُو	-12.442
▁بشعب	-12.4421
تز	-12.4421
نيويورك	-12.4423
غرفتي	-12.4425
▁مضحك	-12.4425
يمۆ	-12.4425
مسيحيّ	-12.4426
▁حْ	-12.4426
دقائق	-12.4427
▁وخمس	-12.4427
ضخم	-12.4428
لقهوة	-12.4429
وزي	-12.443
غرف	-12.4431
9	-12.4431
التدخين	-12.4436
لاحظ	-12.4438
آسف	-12.4439
مراهق	-12.4442
هدوء	-12.4446
دقيقة	-12.4446
▁أَح	-12.4447
▁جاري	-12.4448
هواتف	-12.4449
زملائها	-12.4449
شجاعتك	-12.4449
شاشة	-12.4452
عارف	-12.4452
٢٠	-12.4452
ْغِ	-12.4453
طفولتي	-12.4454
▁عرفته	-12.4454
جوّز	-12.4454
▁يري	-12.4455
آرائي	-12.4456
▁تسل	-12.4457
▁لأفعل	-12.446
ارتفاع	-12.446
▁طر	-12.446
أود	-12.446
إيراني	-12.4462
ُحت	-12.4462
فجأة	-12.4463
شركتنا	-12.4466
تذكره	-12.4468
أوساكا	-12.4469
ببساطة	-12.447
تمّ	-12.4474
▁بوكي	-12.4474
جاكسون	-12.4474
جرائم	-12.4474
خاطئ	-12.4476
ئتمان	-12.4477
▁عمو	-12.4478
صرّف	-12.4478
مُونَ	-12.4479
خاصته	-12.448
جوجل	-12.4481
َقْ	-12.4481
صَب	-12.4481
أحبّك	-12.4482
تحذير	-12.4482
▁سيفو	-12.4485
خلو	-12.4485
نَفس	-12.4487
أسنانك	-12.4489
نتائج	-12.4489
تورونتو	-12.4489
وظيفتي	-12.4491
أخير	-12.4491
رخيص	-12.4491
تاتويبا	-12.4492
دقيق	-12.4492
تلميذ	-12.4492
وظيفته	-12.4493
'	-12.4493
تقاليد	-12.4494
▁انح	-12.4495
مختلفة	-12.4496
سألتني	-12.4496
نموذج	-12.4496
موريل	-12.4498
▁أشكر	-12.4498
أوروبا	-12.4498
تسجيل	-12.45
نزهة	-12.4502
تأقلم	-12.4502
رأسه	-12.4503
تعال	-12.4503
(	-12.4503
لطيفة	-12.4504
ترجمتها	-12.4505
▁تعت	-12.4506
قراءتها	-12.4506
تكوين	-12.451
خبار	-12.451
أقصد	-12.4511
الصيف	-12.4511
يقولون	-12.4512
ئاً	-12.4513
إدمان	-12.4513
أكسجين	-12.4514
برنامج	-12.4516
ارتكاب	-12.4516
أبوه	-12.452
لحم	-12.4522
اطفة	-12.4522
▁وأخي	-12.4523
محمد	-12.4523
مجدداً	-12.4523
جرّاح	-12.4523
صدفة	-12.4524
سليمة	-12.4524
سام	-12.4526
▁نتلا	-12.4526
ْهَا	-12.4528
▁مهنت	-12.4529
عائلتي	-12.4529
لندن	-12.4531
أشرب	-12.4531
دفاع	-12.4534
▁مخدّر	-12.4535
واسعة	-12.4535
انتي	-12.4536
مقارنة	-12.4538
فنجان	-12.4539
أصدقائ	-12.4539
دنبر	-12.454
حاجا	-12.454
يقظ	-12.4542
لغوي	-12.4542
ضيوف	-12.4542
ملطّخ	-12.4542
ساعتك	-12.4543
سألته	-12.4544
أشكال	-12.4545
جحيم	-12.4546
نعسان	-12.4547
أخبرت	-12.455
▁بالبر	-12.4552
أعصاب	-12.4553
تستطيعين	-12.4553
مشبوه	-12.4553
تحديد	-12.4554
علابالي	-12.4554
مواهب	-12.4556
إرهابيّ	-12.4556
▁الدخ	-12.4557
سؤالك	-12.4559
ضخمة	-12.4562
هولة	-12.4562
أحب	-12.4564
▁لأسر	-12.4565
اقتراحي	-12.4565
يضربون	-12.4567
لغابا	-12.4567
ّاف	-12.4569
يساعدني	-12.457
برلين	-12.457
طيّب	-12.4571
مأساوي	-12.4571
فريقنا	-12.4572
مولود	-12.4575
السياسة	-12.4577
▁الرَّ	-12.458
مشاغب	-12.458
▁إيّا	-12.4582
مجنونة	-12.4583
▁سيّارت	-12.4584
فَقَ	-12.4585
بصراحة	-12.4588
جعة	-12.4588
مطلوب	-12.459
▁يتجاو	-12.4593
استعداد	-12.4594
بشدة	-12.4596
▁لرب	-12.4596
زبائن	-12.4596
خسره	-12.46
عصفور	-12.46
تفطّن	-12.4603
▁إصط	-12.4603
▁لّخ	-12.4604
فانتا	-12.4604
استغلال	-12.4608
النّافذة	-12.4608
صيف	-12.461
أصغر	-12.4612
▁الضغ	-12.4612
▁ممرّض	-12.4614
إنّه	-12.4616
غلاق	-12.4616
طلين	-12.4617
سكّان	-12.4618
الشاطئ	-12.4621
ساوي	-12.4622
▁القص	-12.4622
متقدّمة	-12.4622
عضو	-12.4626
القبائل	-12.4627
وصلنا	-12.463
اسباني	-12.463
صيدلية	-12.4631
المكسيك	-12.4632
فورد	-12.4632
عزيز	-12.4634
▁مؤل	-12.4634
ألف	-12.4638
لخدما	-12.4638
الأفكار	-12.4638
▁طابق	-12.4638
▁انقر	-12.4639
مهنته	-12.4639
أفعال	-12.4639
تظنني	-12.4639
تجه	-12.464
أعمى	-12.4642
رخصة	-12.4642
مدرّسة	-12.4642
الشوكولا	-12.4642
الألمانية	-12.4643
والديّ	-12.4643
فعلته	-12.4645
ثقيل	-12.4645
إر	-12.4647
تأخّر	-12.4647
اللَّهِ	-12.4649
▁ينتق	-12.465
الدّكتور	-12.465
رسائل	-12.4651
الشمس	-12.4651
تغيّر	-12.4652
▁ممث	-12.4652
▁يتفك	-12.4652
▁بلط	-12.4656
الأبواب	-12.4657
طبيق	-12.4659
ُمِل	-12.466
جيّدة	-12.4661
بندقي	-12.4662
▁أفلا	-12.4663
الرّصاص	-12.4663
قطّع	-12.4664
الإسبانية	-12.4667
▁سأفتقد	-12.4667
تياز	-12.4667
الفواكه	-12.4668
التّخاصم	-12.4669
▁لِأَ	-12.4671
الألماس	-12.4671
أفراد	-12.4671
▁الأحم	-12.4671
إهتمام	-12.4674
وضح	-12.4676
الثّانويّة	-12.4676
بتاعت	-12.4677
ارتكابه	-12.4677
▁تحرّ	-12.4678
الآ	-12.4679
محطّة	-12.4679
الطيران	-12.4683
الخمر	-12.4685
▁حزينا	-12.4686
نرويجي	-12.4687
أبله	-12.4687
مفرد	-12.4689
▁محر	-12.4693
مفهوم	-12.4693
شجاع	-12.4693
ءُ	-12.4696
توا	-12.4696
بغض	-12.4699
راكش	-12.4699
الرُّ	-12.4699
أويغوري	-12.47
▁اضط	-12.47
بكيت	-12.4702
تنساني	-12.4705
الأساسية	-12.4706
▁يوز	-12.4707
نڥ	-12.4707
▁السائ	-12.4708
بلاده	-12.4709
▁عجب	-12.471
▁الخضر	-12.4711
حقًّا	-12.4711
صاحبه	-12.4712
بطيئة	-12.4713
ّخرا	-12.4714
▁مطلق	-12.4717
باركك	-12.4719
قاعد	-12.4719
زيادة	-12.4719
أخطاء	-12.472
الدّواء	-12.4721
الرصاص	-12.4722
سرتي	-12.4722
ِرُ	-12.4723
▁أؤ	-12.4726
َنَّ	-12.4727
مكتظ	-12.473
▁بالتس	-12.4731
▁فَإِن	-12.4732
الحواسيب	-12.4734
▁التصر	-12.4734
دفئ	-12.4734
رجاءً	-12.4735
▁تزر	-12.4736
▁طبعا	-12.4738
الأبجدي	-12.474
▁هههه	-12.4741
الفرص	-12.4741
شّح	-12.4742
▁الخش	-12.4743
سنوات	-12.4745
َلِم	-12.4745
▁التوت	-12.4746
▁تخف	-12.4747
▁سلوك	-12.4747
▁التسو	-12.4749
لنسبال	-12.475
ياخد	-12.475
▁قبعته	-12.475
ْهُ	-12.4751
غبيّ	-12.4753
موساً	-12.4754
َوَ	-12.4758
▁البلاست	-12.4758
هة	-12.4758
الوحيد	-12.476
فْعَل	-12.476
لحظة	-12.4761
كافي	-12.4761
أولاده	-12.4761
اليمين	-12.4761
يأخذن	-12.4762
جميلتان	-12.4762
▁مهد	-12.4762
▁مشوّش	-12.4764
▁يسي	-12.4766
كلماته	-12.4766
▁إرهاب	-12.4766
نسيّة	-12.4767
الأوان	-12.4769
ُكُم	-12.4769
▁امرأ	-12.4771
▁تخاصم	-12.4771
مجهول	-12.4772
▁دۆكّ	-12.4772
▁يسمعو	-12.4773
▁فوض	-12.4773
▁طفولت	-12.4773
▁آثا	-12.4774
▁الأساس	-12.4775
بتاع	-12.4777
▁أرجو	-12.4779
استطعت	-12.4781
أختك	-12.4782
▁أمازيغ	-12.4782
▁الأمازيغ	-12.4784
▁الأجنبي	-12.4785
العافية	-12.4785
▁البرتقا	-12.4787
▁المتطر	-12.479
غسّالة	-12.479
▁التعلي	-12.4791
ظهيرة	-12.4793
وحْ	-12.4793
نَّاس	-12.4793
▁ينط	-12.4794
ثياب	-12.4796
▁صبورا	-12.4796
▁الاقتصاد	-12.4796
كوكايين	-12.4798
مستقر	-12.4799
▁رفق	-12.4799
قِط	-12.48
مصلحة	-12.48
تدخل	-12.4801
▁بإم	-12.4802
▁تجمعه	-12.4803
جاجة	-12.4803
عاش	-12.4803
نوبز	-12.4803
أيمكن	-12.4803
صنبور	-12.4805
▁أُخر	-12.4805
▁بجو	-12.4806
استراحة	-12.4806
أرجح	-12.4807
عصافير	-12.4808
▁لنتحدّ	-12.4808
▁بالدر	-12.481
▁يتفط	-12.4811
▁فاتن	-12.4812
غذائي	-12.4813
▁مختب	-12.4814
قصائد	-12.4815
رأيي	-12.4815
▁المب	-12.4817
لَكُ	-12.4817
رياضية	-12.4817
عدد	-12.4818
إثنين	-12.4818
ُدخِل	-12.4819
▁مُحت	-12.4819
مزهرية	-12.482
▁المعذر	-12.4821
ْأَ	-12.4822
تخبره	-12.4822
▁دلوقت	-12.4823
أبرياء	-12.4824
▁عُث	-12.4825
لتخفي	-12.4825
▁الكلاسيكي	-12.4825
▁ساخن	-12.4829
▁الثالث	-12.4829
إِيمَا	-12.483
▁التاسع	-12.483
▁مرتب	-12.4831
▁البساط	-12.4831
▁بسيط	-12.4832
وڥ	-12.4832
▁الوظيف	-12.4833
لزّوج	-12.4834
طنان	-12.4834
▁مباشر	-12.4834
توقيع	-12.4836
▁نحويا	-12.4837
لدستور	-12.4838
سئلت	-12.4839
لمستودع	-12.4839
رجوك	-12.4839
كنولوجيّا	-12.4839
▁نشوف	-12.484
▁للمز	-12.484
▁استخ	-12.484
وارئ	-12.484
هداف	-12.4841
▁اللاز	-12.4842
▁بالحفل	-12.4842
حبوب	-12.4842
لتّلفاز	-12.4842
لشّيطان	-12.4842
▁نستنّا	-12.4843
نائي	-12.4843
▁بالألماني	-12.4844
لجلوس	-12.4844
إنتظار	-12.4844
لإهمال	-12.4845
كَلَّ	-12.4845
▁للمدرس	-12.4845
وضوح	-12.4845
لسلطة	-12.4846
ُحض	-12.4846
▁أبناؤ	-12.4846
لمؤسس	-12.4846
تخاصمان	-12.4846
ضعاف	-12.4846
برازيل	-12.4847
▁عاريا	-12.4848
أرسله	-12.4848
▁الإسباني	-12.4848
لطيور	-12.4848
▁حدوث	-12.4848
ونوبيل	-12.4849
كرهونه	-12.4849
لبدء	-12.4849
▁القصير	-12.4849
شغولاً	-12.485
لمتحف	-12.485
أري	-12.485
▁القديم	-12.4851
خروج	-12.4851
متوج	-12.4852
مسألة	-12.4852
لطلاب	-12.4853
سلّح	-12.4853
لطابق	-12.4853
ضليع	-12.4854
ضاعف	-12.4854
لفطور	-12.4855
لجنة	-12.4855
▁ملحد	-12.4855
ْزِ	-12.4855
صادف	-12.4855
لتعليم	-12.4857
َالَ	-12.4857
▁تتدخ	-12.4857
لامتحان	-12.4857
رواتب	-12.4857
▁لإض	-12.4857
للّيلة	-12.4857
لرّياضة	-12.4858
لعلاج	-12.4858
الشّجاعة	-12.4859
اغتص	-12.4859
أرَ	-12.4859
تويبا	-12.4859
لنّسيان	-12.486
▁واشنط	-12.486
لرّياضيّات	-12.486
▁الطّبّ	-12.4861
لنّساء	-12.4861
▁منتجات	-12.4861
ستراليا	-12.4861
ُفِ	-12.4861
تّصالا	-12.4863
احنة	-12.4863
▁المنظ	-12.4864
▁الكيميا	-12.4864
توحّش	-12.4865
إئتمان	-12.4865
نفسك	-12.4866
▁بالفرنسي	-12.4866
طّفل	-12.4866
عيسى	-12.4867
ياضيّات	-12.4867
وفيق	-12.4867
▁ايمي	-12.4868
▁متزوّ	-12.4869
▁ملوّ	-12.4869
لازم	-12.4869
مستقلة	-12.487
ئها	-12.487
تقاسم	-12.487
▁إنجاز	-12.487
عرفت	-12.487
▁استرج	-12.487
▁بِن	-12.487
▁مستشف	-12.4871
▁كيلومتر	-12.4871
▁الانتخاب	-12.4872
لَيْك	-12.4872
صوص	-12.4872
لَهُ	-12.4873
ّوش	-12.4873
ْدِ	-12.4874
زيونيّة	-12.4874
لكتروني	-12.4875
▁الرّياضيّ	-12.4875
نجلترا	-12.4875
جُمَل	-12.4875
غسيل	-12.4877
زدحم	-12.4877
مقدّس	-12.4877
ُعْ	-12.4877
اَ	-12.4877
▁يحزن	-12.4877
▁الروسي	-12.4877
▁W	-12.4878
▁الجامعي	-12.4878
تأكّ	-12.4879
سورپري	-12.4879
كّان	-12.488
قتصادي	-12.4881
ُوهُمْ	-12.4882
حياناً	-12.4882
▁بنجا	-12.4883
▁التّلفز	-12.4883
مباراة	-12.4883
٩	-12.4883
b	-12.4883
▁وَاْل	-12.4883
ḥ	-12.4884
D	-12.4884
T	-12.4884
F	-12.4884
G	-12.4884
M	-12.4884
[	-12.4884
]	-12.4884
z	-12.4884
~	-12.4884
«	-12.4884
»	-12.4884
è	-12.4884
Ɛ	-12.4884
а	-12.4884
٧	-12.4884
ڜ	-12.4884
گ	-12.4884
ھ	-12.4884
۰	-12.4884
ṣ	-12.4884
ṭ	-12.4884
–	-12.4884
—	-12.4884
€	-12.4884
→	-12.4884
▁be	-12.4884
☭	-12.4884
آآآآ	-12.4884
N	-12.4884
S	-12.4884
زَّاف	-12.4884
چ	-12.4884
۱	-12.4884
あ	-12.4884
فرانسي	-12.4884
عقوبت	-12.4884
eb	-12.4884
ww	-12.4884
▁پرۆ	-12.4884
▁انتخب	-12.4884
ec	-12.4884
▁اْلأَ	-12.4884
طفأ	-12.4884
▁سۆل	-12.4885
سوّق	-12.4885
شْكُو	-12.4885
طرنج	-12.4886
هِدَ	-12.4886
▁أَجْ	-12.4886
َرِب	-12.4886
nt	-12.4887
علّمون	-12.4887
▁عمومي	-12.4887
أَشْ	-12.4887
برتقالة	-12.4887
06	-12.4887
▁الأربع	-12.4888
فقتي	-12.4888
ؤوس	-12.4888
رسائله	-12.4889
▁ليپر	-12.4889
يسبول	-12.489
مفاج	-12.489
وِل	-12.4891
▁غلط	-12.4892
▁أنجب	-12.4892
▁سفّ	-12.4892
▁اثن	-12.4892
الطّلب	-12.4892
تّين	-12.4893
▁بالثّ	-12.4893
lɛ	-12.4894
▁الأغني	-12.4894
عاب	-12.4894
الانتخابات	-12.4895
ئيس	-12.4896
براز	-12.4896
▁المحقّ	-12.4896
يْدِي	-12.4896
لأشخاص	-12.4897
الجديدة	-12.4897
▁بالخو	-12.4898
لأحذ	-12.4899
▁رائح	-12.4899
▁علاقت	-12.4901
جرؤ	-12.4903
خبرتن	-12.4903
جنبية	-12.4903
▁لأمري	-12.4903
رويج	-12.4904
تعاون	-12.4906
جبنة	-12.4907
▁اطم	-12.4907
▁أسئ	-12.4908
▁مشترك	-12.4908
خترع	-12.4908
ريعة	-12.4908
▁نَف	-12.4909
▁العبري	-12.4909
رتجف	-12.491
وليسي	-12.4911
شغّل	-12.4912
َحِي	-12.4913
دعُ	-12.4913
▁ساحر	-12.4913
▁بواج	-12.4913
لسَّ	-12.4915
محظو	-12.4915
كحولي	-12.4918
▁العطل	-12.4918
فسّر	-12.4919
مدخرات	-12.4919
▁استحق	-12.492
▁كۆم	-12.492
بالتح	-12.4921
▁الروم	-12.4921
▁أحقا	-12.4922
أكس	-12.4922
▁ضو	-12.4923
احيان	-12.4923
صاخب	-12.4924
َّفْ	-12.4924
▁القرني	-12.4925
▁المصور	-12.4927
▁لَأ	-12.4928
ساءل	-12.4928
فتقدك	-12.4929
▁لبر	-12.4932
تَّح	-12.4932
▁الأورا	-12.4932
ُلقِ	-12.4933
أحكام	-12.4933
ذكّرني	-12.4934
▁سأبق	-12.4934
أمريكية	-12.4935
▁باخت	-12.4936
نترنت	-12.4937
َعَلَ	-12.4938
الثانية	-12.4938
رَدْ	-12.4938
▁مْع	-12.4941
▁خاتما	-12.4942
▁إكرا	-12.4942
▁الأساسي	-12.4943
▁إهتم	-12.4944
▁سافل	-12.4944
أوامر	-12.4945
رّاجة	-12.4946
إنجليزيّة	-12.4947
أَيْ	-12.4947
▁بالألم	-12.4947
▁أُحض	-12.4947
لآل	-12.4947
عتها	-12.4948
▁كاپ	-12.4948
لتذكرة	-12.4952
كيلو	-12.4952
شهادة	-12.4952
حِرَ	-12.4954
▁أحلاما	-12.4954
97	-12.4954
▁جنس	-12.4954
قّق	-12.4955
▁إكرامي	-12.4956
حكوم	-12.4956
▁لزوج	-12.4957
▁شيكا	-12.4957
▁متحج	-12.4958
▁بالحيا	-12.4959
▁نست	-12.4959
أفاعي	-12.496
لأنها	-12.496
هاجم	-12.4962
ْكَر	-12.4962
▁مراسل	-12.4966
▁بالضّ	-12.4968
لأنك	-12.4968
لإفطار	-12.4969
لأصدقاء	-12.497
▁الكنيس	-12.497
▁أستحق	-12.4971
▁نشك	-12.4971
إنساني	-12.4972
▁رقمي	-12.4973
▁الفلس	-12.4973
ْهُم	-12.4974
▁الإثني	-12.4975
▁هْن	-12.4976
▁يعط	-12.4977
▁بالنسب	-12.4977
▁أثّ	-12.4978
لوقين	-12.4978
ِينَ	-12.4979
خيك	-12.498
فتقد	-12.4982
اؤك	-12.4984
مُتَ	-12.4985
صبي	-12.4986
رضية	-12.4986
ذكرتي	-12.4987
▁الأرج	-12.4987
▁كَلَّ	-12.4989
جتهد	-12.499
ثمن	-12.4991
دساً	-12.4992
ختك	-12.4992
ائيّ	-12.4992
▁عاليا	-12.4993
جاج	-12.4994
فشلت	-12.4995
▁ممتل	-12.4996
وسعه	-12.4996
▁وَعَلَ	-12.4997
تأخرت	-12.4998
رونيّة	-12.4999
▁الرغ	-12.4999
▁غز	-12.4999
رامية	-12.5
▁مذن	-12.5001
رّسا	-12.5003
قيتها	-12.5003
شارع	-12.5004
تاكُل	-12.5005
لأحداث	-12.5005
َلَّ	-12.5007
▁ساعا	-12.5008
اللّون	-12.5009
صدمة	-12.5009
لقواعد	-12.5009
▁خاف	-12.5009
▁ساب	-12.501
ُبار	-12.501
▁فۆ	-12.5011
تابَ	-12.5012
خزان	-12.5013
▁مزرعت	-12.5014
وارع	-12.5015
▁الكرس	-12.5016
▁كعك	-12.5017
دارو	-12.5017
سيّارته	-12.5018
▁الولاد	-12.5018
▁يؤلم	-12.5018
▁استقل	-12.5019
▁الخاصّ	-12.5019
▁الفلب	-12.5021
بتها	-12.5021
وكيو	-12.5022
تون	-12.5022
طوال	-12.5023
▁صي	-12.5023
ئيسي	-12.5024
▁متوجّ	-12.5024
شخاص	-12.5024
َصْ	-12.5028
ههههه	-12.5028
تشفى	-12.5029
كْل	-12.5029
أتس	-12.503
▁دقا	-12.503
وسعك	-12.5031
لْمَ	-12.5031
حيح	-12.5031
لبرت	-12.5032
أسترالي	-12.5032
بريل	-12.5032
فاتورة	-12.5034
مرتين	-12.5036
نشق	-12.5038
افلة	-12.504
▁خاط	-12.5041
▁مخلص	-12.5043
لّذي	-12.5044
▁تؤلم	-12.5044
سّر	-12.5046
▁البر	-12.5047
َيْن	-12.5047
▁بواجبات	-12.5047
صالحا	-12.505
ائج	-12.5051
الم	-12.5054
▁جيّ	-12.5056
غرباء	-12.5059
▁وَهُ	-12.5059
ريقها	-12.5059
▁إسعا	-12.5059
لغيت	-12.506
▁أمطر	-12.506
▁الإنجل	-12.5061
▁عسكريّ	-12.5061
ليش	-12.5066
▁بحيات	-12.5067
بسيطة	-12.5069
الباص	-12.5069
▁متفر	-12.5069
العائلة	-12.5069
راءته	-12.5071
طّو	-12.5071
▁كرو	-12.5073
▁البقا	-12.5074
▁حقائب	-12.5076
نانسي	-12.5076
أتي	-12.5078
خرى	-12.5078
▁ناكل	-12.5078
وقة	-12.5079
مِث	-12.5079
▁حرارت	-12.508
▁للفو	-12.5084
ُّم	-12.5084
تركه	-12.5085
إصط	-12.5085
▁والخ	-12.5086
خوتي	-12.5086
▁السعي	-12.5089
رجح	-12.5093
▁باحت	-12.5094
محتم	-12.5094
▁الضو	-12.5094
تشابها	-12.5095
َمُ	-12.5095
مصنع	-12.5095
وهُمْ	-12.5096
مبادئ	-12.5097
خدمه	-12.5099
ضِعت	-12.51
نحنت	-12.5101
▁التّج	-12.5103
▁نساع	-12.5104
▁للتع	-12.5104
سلمان	-12.5105
▁بقس	-12.5105
نتباه	-12.5105
شّمس	-12.5106
جئين	-12.5107
▁لِأَق	-12.5109
ِيَن	-12.511
خترت	-12.5111
ضبة	-12.5111
▁ولي	-12.5113
سريعة	-12.5113
▁يشع	-12.5116
ْمُ	-12.5116
▁سرّ	-12.5119
▁الخري	-12.5121
عطاني	-12.5122
▁الرياضي	-12.5122
▁مواع	-12.5123
يُقدّ	-12.5126
▁تُوم	-12.5126
نتاج	-12.5127
شتاء	-12.5127
غته	-12.5129
▁الإف	-12.5131
▁صْ	-12.5131
الشارع	-12.5134
▁خدّ	-12.5136
دؤو	-12.5136
كُن	-12.5137
▁تُخ	-12.514
ازات	-12.514
عطف	-12.5142
ؤلف	-12.5145
ظلة	-12.5145
▁خضرا	-12.5146
الأوراق	-12.515
فُوه	-12.5151
َسْ	-12.5152
▁المطب	-12.5153
ليابان	-12.5153
لجبل	-12.5154
▁القاع	-12.5156
رَو	-12.5157
ائهم	-12.5157
َوْم	-12.5161
▁مُو	-12.5164
ذّب	-12.5167
▁ممرّ	-12.5167
لمخيّ	-12.5168
لبقر	-12.5169
بتي	-12.517
لمانية	-12.517
طيرة	-12.5175
▁زملا	-12.5181
نْسَ	-12.5181
▁لَو	-12.5182
▁لقط	-12.5186
▁ثقيل	-12.5191
ثِق	-12.5191
َيْت	-12.5193
▁حَا	-12.5198
▁مرتي	-12.5199
▁التلف	-12.5201
باهي	-12.5203
جنبه	-12.5203
▁تبرّ	-12.5205
نظارات	-12.5206
جنبي	-12.5209
▁أورو	-12.5213
▁فوج	-12.5214
▁بعضكم	-12.5215
ريباً	-12.5217
▁المعط	-12.5217
تأخذ	-12.522
أهلا	-12.5221
▁مراهق	-12.5221
▁حبّك	-12.5227
▁روم	-12.5227
رِف	-12.5227
نشاط	-12.5227
نتحار	-12.5229
وث	-12.523
دراجته	-12.523
نَّ	-12.5234
▁إعت	-12.5234
ُسَ	-12.5235
▁الممر	-12.5236
تبق	-12.5237
ثماني	-12.5238
ابْ	-12.5238
عاونك	-12.5239
غذاء	-12.524
روبو	-12.5241
▁يُس	-12.5242
مهوم	-12.5244
نزاع	-12.5247
رِه	-12.5247
غور	-12.5248
▁دارو	-12.5248
▁متيق	-12.5248
تروح	-12.525
جذو	-12.5251
لجبال	-12.5252
دۆك	-12.5252
وَالَ	-12.5254
▁وأد	-12.5256
أخيرًا	-12.5257
▁بسرع	-12.5257
▁الإشا	-12.5258
سرائيلي	-12.5258
رسال	-12.526
شروبا	-12.5261
▁الحديدي	-12.5263
▁نتح	-12.5263
▁سكرت	-12.5264
▁الشّرط	-12.5265
قناة	-12.5266
أكُل	-12.5268
طيّ	-12.5268
▁يتط	-12.5269
كُنَّ	-12.527
▁ويكي	-12.5272
▁بأحد	-12.5273
تاجر	-12.5273
▁مبار	-12.5277
إِخ	-12.5277
غتصب	-12.5278
رَسَ	-12.5283
وييا	-12.5284
▁العصاف	-12.5284
ئلا	-12.5284
▁باص	-12.5285
▁وأش	-12.5286
حْد	-12.5288
▁يتخاصما	-12.5288
أخي	-12.5289
▁طيبا	-12.529
لأفلام	-12.5291
ودّ	-12.53
قرضت	-12.5303
لسيارات	-12.5304
جزا	-12.5304
▁جْد	-12.5306
روجي	-12.5307
▁لپۆ	-12.5308
▁آذا	-12.531
انهيار	-12.5311
مبكر	-12.5311
نتعش	-12.5312
▁دۆك	-12.5312
ريكان	-12.5314
▁استث	-12.5315
لضوء	-12.5316
وصله	-12.5316
وحيد	-12.5318
دّت	-12.5322
إقح	-12.5324
إنت	-12.5325
▁پلا	-12.5326
عدك	-12.5326
▁تجمع	-12.5326
لزمن	-12.5326
عِم	-12.5327
رْك	-12.533
ستجوب	-12.5331
▁بلغت	-12.5332
سف	-12.5332
▁واست	-12.5336
المشتبه	-12.5339
▁بِال	-12.5342
▁ايب	-12.5344
أخيك	-12.5344
اهدت	-12.5345
بانيا	-12.5345
▁الأدبي	-12.5346
إبني	-12.5348
حول	-12.535
▁تنته	-12.535
توس	-12.5355
المسيحي	-12.5359
▁سدّ	-12.5359
حضره	-12.5359
▁اقتر	-12.5362
▁يخص	-12.5363
▁شمس	-12.5365
مثير	-12.5365
▁خاطئ	-12.5365
حانات	-12.5366
▁يحوّ	-12.5367
دأ	-12.5368
▁يوقف	-12.5369
ستوني	-12.5371
رّضة	-12.5374
كنجي	-12.5375
هرته	-12.5376
ثاء	-12.5377
▁محطّ	-12.5378
ً،	-12.538
نّوا	-12.538
▁نْس	-12.5381
جباتك	-12.5383
نهضر	-12.5383
لَد	-12.5386
راجل	-12.539
▁بِل	-12.5391
رَة	-12.5393
مپ	-12.5395
ربعين	-12.5396
صغار	-12.5396
أحذية	-12.5396
▁إِلَي	-12.5396
تشرّ	-12.5398
تعرّض	-12.54
▁أدر	-12.5401
سماع	-12.5403
يْن	-12.5404
▁أرج	-12.5405
بن	-12.5405
▁مواجه	-12.5405
▁الهج	-12.5409
▁تتغ	-12.5411
▁النّوا	-12.5411
الثلج	-12.5413
ُّو	-12.5414
طالب	-12.5419
مخجل	-12.5421
ثَ	-12.5421
ضلك	-12.5422
▁الخارجي	-12.5423
▁يوصل	-12.5423
ۆڥ	-12.5424
َتَح	-12.5424
ِكو	-12.5425
كرهه	-12.5425
▁يرس	-12.5428
▁شفته	-12.5429
كُو	-12.543
لاتصال	-12.5431
لحاف	-12.5432
▁صفر	-12.5434
قفز	-12.5436
▁عالي	-12.5437
ثوا	-12.5438
ّس	-12.544
دراهم	-12.5444
لنّوم	-12.5445
ورود	-12.5446
▁القاه	-12.5453
▁حبّا	-12.5464
ساعدة	-12.5466
▁اثنا	-12.5468
ُعد	-12.5468
▁المدين	-12.5472
أكتب	-12.5473
▁اعتقا	-12.5474
عَت	-12.5478
كور	-12.548
▁القبع	-12.5481
زرعت	-12.5482
▁اللّيلي	-12.5487
▁يدف	-12.549
علة	-12.5491
الظّه	-12.5493
▁مغلقا	-12.5496
[...]
