<pad>	0
<unk>	0
<s>	0
</s>	0
.	-2.3135
'	-3.54205
▁I	-3.63062
▁the	-3.7379
▁to	-3.8213
s	-3.88363
▁a	-3.96677
▁Sami	-4.08794
▁you	-4.11971
?	-4.20277
▁is	-4.26595
t	-4.3135
,	-4.4969
▁in	-4.59496
▁was	-4.73929
▁of	-4.7558
▁	-5.03581
▁that	-5.04654
▁Tom	-5.08334
▁Layla	-5.08509
▁me	-5.13617
▁and	-5.17092
n	-5.20012
▁The	-5.2002
▁for	-5.20947
▁have	-5.23677
ed	-5.26496
▁He	-5.2718
▁You	-5.30505
▁his	-5.34609
▁are	-5.38262
▁with	-5.4593
▁it	-5.49309
m	-5.49477
▁be	-5.49862
d	-5.54365
▁my	-5.57531
▁like	-5.57841
▁your	-5.61032
▁this	-5.61907
y	-5.62241
▁not	-5.62285
▁do	-5.62612
▁can	-5.63004
▁on	-5.63789
!	-5.71517
▁She	-5.7429
ing	-5.74483
▁him	-5.75741
▁did	-5.77117
▁We	-5.79278
▁don	-5.82488
▁he	-5.85918
▁her	-5.88609
▁at	-5.93206
▁It	-5.93225
▁has	-5.95375
▁know	-5.9751
▁Fadil	-5.9843
▁life	-6.03422
▁What	-6.03698
▁M	-6.0586
▁want	-6.06716
▁will	-6.09715
▁go	-6.10451
▁had	-6.14812
▁what	-6.18653
▁Do	-6.1997
▁from	-6.2008
▁up	-6.21826
re	-6.24762
▁an	-6.2735
▁one	-6.2832
▁all	-6.28801
ll	-6.30814
very	-6.33577
▁here	-6.35046
▁we	-6.35925
ve	-6.38567
▁about	-6.38721
▁Thi	-6.40346
▁out	-6.50319
▁time	-6.52522
▁love	-6.53295
▁by	-6.55507
e	-6.5591
▁Why	-6.56539
▁going	-6.57283
ly	-6.59692
▁does	-6.60084
▁think	-6.60387
▁house	-6.60873
▁How	-6.61585
▁there	-6.629
▁get	-6.63747
▁no	-6.63834
▁They	-6.65285
▁"	-6.66517
▁so	-6.66895
▁as	-6.6691
▁were	-6.67231
-	-6.68217
▁need	-6.68404
▁There	-6.69675
▁Mary	-6.7118
▁That	-6.71313
▁us	-6.72112
▁been	-6.72736
▁she	-6.73416
▁come	-6.73634
▁see	-6.74656
▁but	-6.75789
▁never	-6.7614
▁help	-6.76579
▁car	-6.7816
▁went	-6.7866
▁should	-6.79916
▁Don	-6.80163
▁A	-6.80606
▁money	-6.81777
▁who	-6.83319
▁Where	-6.83401
▁would	-6.85035
▁am	-6.85846
▁home	-6.8622
r	-6.86379
▁just	-6.87237
▁good	-6.91292
▁tell	-6.92016
▁teacher	-6.92687
▁T	-6.92997
▁than	-6.93424
▁wanted	-6.94608
▁people	-6.95475
▁now	-6.9676
▁more	-6.96795
▁or	-6.98114
▁Let	-7.01161
▁our	-7.02005
▁book	-7.02176
▁right	-7.02376
▁forget	-7.02557
▁dog	-7.03554
▁could	-7.03761
▁day	-7.04347
▁got	-7.04759
▁back	-7.06482
▁must	-7.07169
▁if	-7.07609
▁Can	-7.08843
▁new	-7.09154
▁many	-7.09556
▁work	-7.1044
▁Are	-7.12407
▁father	-7.14734
▁into	-7.1481
▁much	-7.14994
▁told	-7.15236
▁school	-7.15746
▁man	-7.15902
▁too	-7.16215
▁speak	-7.18085
▁when	-7.1822
▁say	-7.18614
▁some	-7.18855
▁lot	-7.19905
▁said	-7.2035
▁again	-7.21151
▁Please	-7.22782
ir	-7.23237
▁Who	-7.23323
▁made	-7.25199
▁only	-7.26421
▁live	-7.26576
▁take	-7.2734
▁before	-7.27666
▁came	-7.28094
▁two	-7.28537
▁last	-7.28601
▁room	-7.28886
."	-7.2903
▁If	-7.30103
▁off	-7.30777
▁always	-7.31094
▁how	-7.32094
▁When	-7.32941
▁any	-7.33278
▁No	-7.3367
▁asked	-7.33977
▁left	-7.34646
▁something	-7.34658
▁down	-7.34889
▁English	-7.365
▁where	-7.37559
▁name	-7.37841
▁they	-7.38476
▁read	-7.38902
▁S	-7.40887
▁give	-7.41084
▁b	-7.41236
▁friends	-7.41606
▁please	-7.4169
▁way	-7.4189
▁isn	-7.43225
▁today	-7.4334
▁look	-7.44819
▁long	-7.45119
▁better	-7.45148
▁make	-7.45241
▁Arabic	-7.46145
▁t	-7.46259
▁play	-7.46268
es	-7.47204
▁anything	-7.47208
▁May	-7.48354
▁night	-7.48483
▁Did	-7.49336
▁Is	-7.49833
▁tomorrow	-7.50291
▁still	-7.50297
▁over	-7.50333
▁talk	-7.51199
▁door	-7.5222
▁happy	-7.5247
is	-7.53418
▁won	-7.5477
▁them	-7.5493
▁re	-7.55574
▁doctor	-7.55727
er	-7.55743
▁other	-7.56608
cause	-7.5716
▁old	-7.57203
▁Th	-7.57518
▁mother	-7.58858
▁started	-7.59275
▁friend	-7.59734
▁well	-7.59792
▁stay	-7.60115
▁understand	-7.60768
▁C	-7.61446
▁P	-7.63343
▁eat	-7.6347
▁call	-7.63546
▁world	-7.6387
▁yesterday	-7.63871
▁saw	-7.63902
▁three	-7.6513
al	-7.65658
▁police	-7.66331
▁first	-7.66354
▁another	-7.66392
▁Have	-7.6761
st	-7.67618
▁found	-7.68448
▁language	-7.68463
▁French	-7.68836
▁why	-7.68913
▁happened	-7.68997
a	-7.69529
▁believe	-7.69777
▁Mennad	-7.70118
▁remember	-7.70123
▁lost	-7.70214
▁every	-7.70402
▁heard	-7.7184
▁hospital	-7.72649
▁Jamal	-7.72732
▁years	-7.72813
▁letter	-7.7377
▁problem	-7.73772
took	-7.75143
▁leave	-7.7519
▁things	-7.75238
▁clinic	-7.75417
▁beautiful	-7.7542
ally	-7.75747
▁Berber	-7.76786
▁morning	-7.76788
▁hard	-7.77119
▁hear	-7.77741
▁job	-7.77984
▁looking	-7.78567
▁may	-7.7975
▁learn	-7.8034
out	-7.8083
▁called	-7.81473
▁woman	-7.82461
▁spend	-7.82817
▁everything	-7.83938
▁own	-7.84032
▁buy	-7.84039
ake	-7.84057
▁after	-7.84187
▁child	-7.85419
▁God	-7.85627
▁un	-7.85724
▁used	-7.8581
▁real	-7.86519
▁little	-7.86939
▁put	-7.87292
▁Muslim	-7.88368
▁find	-7.88514
▁seen	-7.88555
▁cat	-7.88569
ting	-7.88573
▁away	-7.88805
▁bus	-7.88819
▁All	-7.88943
ought	-7.89978
▁country	-7.90044
▁water	-7.90131
▁brother	-7.91589
▁year	-7.91846
▁thought	-7.91941
▁try	-7.92026
▁phone	-7.92417
on	-7.92532
▁met	-7.93179
▁best	-7.94182
▁late	-7.94666
▁music	-7.94809
▁Cairo	-7.94876
▁alone	-7.94887
▁doing	-7.95887
▁even	-7.96147
▁children	-7.96553
▁person	-7.96799
▁wants	-7.96984
▁nothing	-7.98269
▁sister	-7.98334
▁busy	-7.98637
se	-7.98812
o	-7.99069
▁thing	-7.99621
▁g	-7.99635
▁family	-7.99971
▁Nobody	-7.9998
▁visit	-8.00015
▁sure	-8.00172
▁big	-8.00672
▁wait	-8.00995
able	-8.01252
▁show	-8.01443
▁wrong	-8.01715
▁use	-8.0201
▁talking	-8.02171
▁looks	-8.02915
▁ask	-8.02993
▁Be	-8.03217
▁married	-8.03506
▁class	-8.04484
▁tried	-8.05343
▁around	-8.05364
▁under	-8.05457
▁girl	-8.05494
▁coming	-8.05512
▁waiting	-8.05629
▁L	-8.05998
▁ever	-8.06387
▁lives	-8.07087
▁Muslims	-8.07352
▁sentence	-8.07387
▁lived	-8.07994
▁hate	-8.08334
▁open	-8.08662
▁study	-8.08822
▁next	-8.09055
▁knew	-8.09058
▁himself	-8.09063
▁Islam	-8.09064
▁tired	-8.09087
▁died	-8.09627
▁r	-8.09931
w	-8.10174
▁E	-8.10218
▁sleep	-8.10349
hose	-8.1076
▁TV	-8.10973
▁let	-8.11752
be	-8.11951
ted	-8.12371
▁place	-8.12664
▁Dima	-8.12938
▁Tatoeba	-8.12944
▁question	-8.13268
▁hours	-8.13544
▁dogs	-8.13795
▁F	-8.13926
ept	-8.14182
▁son	-8.14265
▁truth	-8.14944
▁born	-8.14995
▁Japanese	-8.14996
▁th	-8.15163
▁week	-8.15283
▁boy	-8.15516
▁knows	-8.1635
▁enough	-8.16982
▁Everyone	-8.16994
▁meet	-8.17015
▁Come	-8.17051
▁feel	-8.17121
▁books	-8.17954
▁m	-8.18325
▁W	-8.18677
▁dangerous	-8.19079
▁change	-8.1922
▁pick	-8.203
in	-8.20421
▁these	-8.21025
:	-8.21159
▁tennis	-8.21192
▁such	-8.21197
▁station	-8.21203
▁end	-8.21224
▁wife	-8.2127
▁bed	-8.21359
"	-8.21754
▁soon	-8.21801
ave	-8.22145
▁k	-8.22438
▁watch	-8.22589
▁answer	-8.23267
;	-8.23334
▁hair	-8.23506
▁six	-8.23514
▁each	-8.23705
▁quit	-8.23897
▁computer	-8.23913
▁working	-8.24324
▁hope	-8.24335
▁His	-8.24801
▁Stop	-8.25589
▁fast	-8.25639
▁parents	-8.25646
▁train	-8.25696
ose	-8.25843
▁care	-8.2601
▁In	-8.26663
▁head	-8.2675
▁s	-8.27036
▁drink	-8.27604
▁Japan	-8.27854
▁Gaza	-8.27856
▁already	-8.27861
▁keep	-8.2787
▁yet	-8.27962
▁great	-8.27973
▁food	-8.27993
▁write	-8.28057
ight	-8.28197
an	-8.29878
▁coffee	-8.30184
▁together	-8.30186
▁swim	-8.30798
▁looked	-8.31145
▁ten	-8.31577
▁tourists	-8.31876
▁stop	-8.32031
came	-8.32464
▁angry	-8.32563
▁through	-8.32571
▁done	-8.32769
▁party	-8.32868
▁word	-8.33545
not	-8.34237
▁turn	-8.34878
▁sorry	-8.35014
▁office	-8.35078
▁most	-8.35371
▁And	-8.35439
▁hand	-8.35516
▁face	-8.36039
▁loved	-8.37267
▁pay	-8.37478
▁Dania	-8.37502
▁behind	-8.37503
▁while	-8.3751
▁living	-8.37517
▁which	-8.37526
▁true	-8.37544
▁arrived	-8.37668
▁kind	-8.37675
▁voice	-8.38378
▁tourist	-8.38384
▁student	-8.38384
▁rest	-8.38673
▁To	-8.38699
▁worked	-8.38956
▁words	-8.39295
▁Ou	-8.39776
▁accident	-8.40098
▁idea	-8.40926
▁daughter	-8.41005
▁window	-8.41011
▁picture	-8.41013
▁month	-8.41033
▁mind	-8.41054
▁red	-8.41173
▁Go	-8.41233
ite	-8.41451
▁students	-8.41783
?"	-8.41886
l	-8.42055
▁Egypt	-8.42693
▁clothes	-8.42698
▁few	-8.42742
▁nice	-8.4278
▁story	-8.42826
▁ga	-8.4313
▁playing	-8.43367
▁cold	-8.43806
▁heart	-8.43807
▁America	-8.44862
▁afraid	-8.45399
▁community	-8.45428
▁invited	-8.45554
▁once	-8.45804
▁kill	-8.45932
▁plan	-8.45966
▁B	-8.46169
I	-8.46306
▁mosque	-8.4648
▁miss	-8.46698
▁run	-8.46712
▁rich	-8.47031
▁clean	-8.47264
▁Algeria	-8.47617
▁listen	-8.47787
▁sentences	-8.47862
th	-8.48135
▁Boston	-8.48177
▁anymore	-8.48184
▁O	-8.48217
▁decided	-8.48236
ce	-8.4825
▁someone	-8.48268
▁trust	-8.48271
▁important	-8.48297
▁hungry	-8.4832
▁rain	-8.48338
▁finished	-8.48358
▁killed	-8.48584
▁eyes	-8.4861
▁often	-8.48705
▁table	-8.48755
ion	-8.48827
▁drive	-8.49196
▁ready	-8.49344
▁Al	-8.49595
▁young	-8.50057
ok	-8.50856
▁small	-8.50975
▁enjoy	-8.51033
▁stupid	-8.51033
▁college	-8.51034
▁trouble	-8.5105
▁Would	-8.51057
▁noise	-8.51071
▁city	-8.51072
▁easy	-8.51101
▁Good	-8.51181
his	-8.51335
▁fell	-8.51804
▁Every	-8.52324
▁sam	-8.52702
or	-8.53029
▁H	-8.53423
▁broke	-8.53434
▁hit	-8.53564
▁fun	-8.53892
▁baby	-8.53973
▁dinner	-8.53975
▁hotel	-8.53983
▁worry	-8.54024
▁bad	-8.541
▁moved	-8.54161
▁sound	-8.54244
▁sent	-8.5436
▁speaks	-8.54372
▁far	-8.54395
▁tonight	-8.54776
eally	-8.55153
▁aren	-8.55319
▁ago	-8.55762
▁Here	-8.56585
▁difficult	-8.56604
▁deserve	-8.56762
▁near	-8.56784
▁times	-8.56882
▁Israel	-8.57003
▁YouTube	-8.57004
▁also	-8.57017
▁wrote	-8.57076
▁four	-8.57128
▁mine	-8.57169
▁being	-8.57374
▁letters	-8.57708
ever	-8.57919
ity	-8.58008
▁number	-8.58423
▁hurt	-8.58492
me	-8.58538
▁Will	-8.59163
▁fire	-8.59721
▁women	-8.60133
▁homework	-8.60145
▁else	-8.60167
▁Look	-8.60184
▁become	-8.6027
▁five	-8.60308
▁mistake	-8.60593
▁learning	-8.60703
▁hot	-8.61032
▁ran	-8.61132
▁days	-8.61245
▁Christian	-8.61658
▁light	-8.61851
ies	-8.63168
▁For	-8.63202
▁free	-8.6326
▁black	-8.6336
▁myself	-8.63361
▁yourself	-8.63363
▁high	-8.63429
▁promise	-8.63461
▁One	-8.635
▁But	-8.63913
▁changed	-8.64004
▁happen	-8.64215
▁spen	-8.64683
▁mean	-8.64949
▁tea	-8.64987
ell	-8.65144
▁p	-8.66128
▁Ju	-8.66151
▁needed	-8.66212
▁John	-8.66682
▁afternoon	-8.66688
▁front	-8.66741
▁shoes	-8.66749
▁having	-8.66834
▁wish	-8.6698
▁As	-8.6704
▁watching	-8.67086
▁walk	-8.67688
▁start	-8.6769
▁goes	-8.67946
▁f	-8.68192
le	-8.68395
▁key	-8.68649
▁pen	-8.6878
▁hands	-8.68827
ful	-8.68993
▁death	-8.70135
ween	-8.70141
▁quickly	-8.70155
▁honest	-8.70219
▁Her	-8.70291
▁drinking	-8.70529
▁meeting	-8.70575
▁thank	-8.7062
▁comes	-8.70706
▁waited	-8.7096
▁eating	-8.71131
▁languages	-8.71176
i	-8.71808
▁receive	-8.72025
▁movie	-8.72026
ous	-8.73294
h	-8.73371
▁both	-8.73413
▁fel	-8.73564
▁business	-8.73589
▁pocket	-8.73705
▁accept	-8.73708
▁anyone	-8.73789
▁beach	-8.73818
▁classes	-8.73889
▁part	-8.73928
▁listening	-8.74017
▁early	-8.74172
▁reading	-8.74687
▁seems	-8.74845
▁saying	-8.74912
pretty	-8.75251
▁others	-8.75317
▁short	-8.75505
▁o	-8.75598
nna	-8.75683
▁sit	-8.76128
▁road	-8.76153
▁favor	-8.76171
▁So	-8.76196
▁questions	-8.76792
▁strong	-8.77317
▁dictionary	-8.77418
▁Ken	-8.77454
▁possible	-8.77463
▁writing	-8.77611
est	-8.77626
▁dance	-8.78766
▁Yes	-8.78834
▁Thanks	-8.78941
▁reason	-8.79453
▁matter	-8.79459
▁religion	-8.79544
▁tree	-8.79707
▁since	-8.79757
▁w	-8.809
▁cut	-8.81165
▁dead	-8.81166
▁perfect	-8.81224
▁Some	-8.81248
▁piano	-8.8125
▁restaurant	-8.81254
▁die	-8.81377
▁missing	-8.81605
▁town	-8.81734
▁opened	-8.82081
▁Mr	-8.82144
▁begin	-8.8233
ment	-8.82675
▁At	-8.82718
ould	-8.82973
▁moment	-8.8341
▁D	-8.83672
▁apple	-8.83683
▁meat	-8.83878
▁report	-8.84744
ther	-8.84797
▁lie	-8.84895
▁then	-8.85118
▁milk	-8.8525
▁Farid	-8.8525
▁floor	-8.85254
▁taking	-8.85308
▁its	-8.85328
▁whole	-8.85406
▁pills	-8.85419
turned	-8.85552
▁shot	-8.85736
▁walked	-8.85738
▁studying	-8.85807
▁minutes	-8.86279
▁full	-8.86938
▁shop	-8.87097
▁set	-8.87381
▁d	-8.87494
less	-8.87562
▁tall	-8.87793
▁months	-8.87853
▁Thank	-8.88142
▁expect	-8.88995
▁agree	-8.89041
▁sat	-8.89076
▁fish	-8.89192
▁makes	-8.89296
▁China	-8.894
▁probably	-8.89418
▁slept	-8.89514
▁dress	-8.897
▁later	-8.89791
ten	-8.90676
▁Not	-8.91283
ive	-8.91621
il	-8.91734
▁dream	-8.92085
▁Gi	-8.92652
▁land	-8.93249
▁murder	-8.93316
▁poor	-8.93668
▁swimming	-8.93783
▁company	-8.93792
▁completely	-8.93808
▁forgot	-8.93852
body	-8.93859
▁sick	-8.93957
▁touch	-8.93975
▁song	-8.94052
▁sleeping	-8.94364
▁rear	-8.94716
▁war	-8.9494
▁works	-8.95089
f	-8.95133
▁ca	-8.95362
clock	-8.95707
▁ride	-8.95915
▁keys	-8.95954
▁teachers	-8.9668
ers	-8.96973
ame	-8.97377
▁wonder	-8.97863
▁grow	-8.98074
▁OK	-8.98293
▁borrow	-8.98294
▁bicycle	-8.98294
▁course	-8.98294
▁stopped	-8.98305
▁smoking	-8.98311
▁outside	-8.98337
▁weather	-8.9838
▁park	-8.98417
▁fine	-8.98455
ic	-8.98693
▁bet	-8.98835
▁team	-8.98944
▁co	-8.99323
ation	-8.99696
▁speaking	-8.99878
▁pain	-9.00016
▁Uni	-9.0088
ife	-9.01729
▁Ne	-9.01915
▁address	-9.02582
▁return	-9.02643
▁translate	-9.028
▁cry	-9.02921
▁Tokyo	-9.03055
▁attention	-9.03055
▁garden	-9.03055
▁choice	-9.03056
▁prefer	-9.03056
▁uncle	-9.03056
▁jail	-9.03056
▁neighborhood	-9.03057
▁birthday	-9.03057
▁leaving	-9.03065
▁blue	-9.03068
▁history	-9.03098
▁caught	-9.03109
▁math	-9.03117
▁pretend	-9.03167
▁scared	-9.03167
▁game	-9.0321
lmost	-9.03248
▁enter	-9.03292
▁different	-9.03305
▁inside	-9.03359
▁kids	-9.03362
▁evening	-9.0379
all	-9.03893
▁forgive	-9.03999
hich	-9.04169
▁learned	-9.0447
▁close	-9.05534
▁means	-9.05672
▁l	-9.06086
▁G	-9.06154
▁men	-9.06385
▁German	-9.07664
▁health	-9.07684
▁protect	-9.0804
▁climb	-9.08055
▁convince	-9.08055
▁decision	-9.08055
▁information	-9.08056
▁telephone	-9.08056
▁white	-9.08074
▁bank	-9.08091
▁marry	-9.08108
▁somebody	-9.08129
▁cell	-9.0815
▁racist	-9.08167
▁glasses	-9.08326
▁longer	-9.08356
▁alive	-9.08358
▁fear	-9.08382
▁says	-9.0839
▁stand	-9.08464
til	-9.08921
▁writ	-9.08927
▁R	-9.08981
▁lose	-9.09037
▁du	-9.09517
▁taste	-9.09605
▁worth	-9.09716
▁win	-9.09855
▁sever	-9.09939
▁N	-9.10218
▁movies	-9.10472
▁pai	-9.10891
▁bit	-9.11297
▁2	-9.11445
▁secret	-9.11515
▁neighbor	-9.11544
▁bedroom	-9.11611
▁unt	-9.11626
▁hour	-9.11912
▁seem	-9.1202
ring	-9.12135
▁bar	-9.12758
▁sea	-9.12909
en	-9.13087
Sayib	-9.13318
▁appointment	-9.13318
▁hundred	-9.13318
▁Monday	-9.13319
▁shopping	-9.13326
▁herself	-9.13329
▁strange	-9.13335
▁Hello	-9.13349
▁weekend	-9.13356
▁glad	-9.13391
▁check	-9.13457
▁anybody	-9.13495
▁past	-9.13583
making	-9.13758
▁gun	-9.13786
▁mom	-9.13865
▁national	-9.14
▁bring	-9.14035
▁animals	-9.14079
▁Man	-9.14111
▁wa	-9.14656
▁dark	-9.16776
▁building	-9.1724
olice	-9.17424
▁age	-9.17525
▁store	-9.1753
▁wall	-9.17849
it	-9.18158
▁stole	-9.18332
▁order	-9.18377
▁shoot	-9.18518
▁cats	-9.18568
c	-9.18622
▁large	-9.18707
▁serious	-9.18775
▁Sunday	-9.18874
▁library	-9.18874
▁radio	-9.18874
▁built	-9.18874
▁proud	-9.18875
▁medication	-9.18876
▁quiet	-9.18877
▁hurry	-9.18883
▁move	-9.18897
▁least	-9.18909
▁States	-9.18946
▁present	-9.18953
▁everyone	-9.18954
▁wearing	-9.19012
▁bag	-9.19068
▁solve	-9.19073
▁Nothing	-9.1918
▁danger	-9.1921
▁older	-9.19241
▁cost	-9.19376
▁gone	-9.19409
▁teach	-9.19716
▁Get	-9.20039
▁count	-9.20176
▁trip	-9.20309
forward	-9.21065
▁talked	-9.21102
▁body	-9.21444
▁area	-9.21472
rew	-9.21504
▁cook	-9.21864
▁happens	-9.21957
▁plane	-9.22169
▁Tur	-9.22448
ance	-9.22576
u	-9.22791
▁camera	-9.22832
▁sweet	-9.22856
▁law	-9.22967
▁video	-9.23003
rought	-9.23017
▁ticket	-9.2304
p	-9.23439
at	-9.2401
▁studie	-9.24023
▁blood	-9.24351
▁Wh	-9.24352
▁eight	-9.24385
▁belong	-9.24416
▁American	-9.24636
▁safe	-9.24657
▁Chinese	-9.24756
▁affair	-9.24756
▁immediately	-9.24756
▁thirsty	-9.24756
▁umbrella	-9.24756
▁berber	-9.24756
▁impossible	-9.24757
▁famous	-9.24757
▁enemy	-9.24757
▁Listen	-9.24757
▁France	-9.2476
▁summer	-9.2476
▁idiot	-9.24761
▁Bob	-9.24765
▁crazy	-9.2477
▁With	-9.2479
▁everybody	-9.24808
▁advice	-9.24814
▁husband	-9.249
▁chair	-9.24908
▁sky	-9.24926
▁mess	-9.25015
▁attack	-9.25053
▁dad	-9.25065
▁kiss	-9.25108
▁crying	-9.25116
▁wine	-9.25214
▁either	-9.25225
▁Now	-9.25659
▁problems	-9.26096
▁ended	-9.26667
▁known	-9.27146
▁clock	-9.28234
▁follow	-9.28521
▁horse	-9.29256
▁guy	-9.2933
use	-9.29455
▁final	-9.29581
▁human	-9.29634
▁fe	-9.29646
▁point	-9.30251
▁girls	-9.30383
ish	-9.30525
▁respect	-9.30572
▁finish	-9.306
▁sa	-9.30998
▁fruit	-9.31006
▁straight	-9.31006
▁television	-9.31006
▁breakfast	-9.31007
▁peace	-9.31007
▁keyboard	-9.31008
▁except	-9.31014
▁Jim	-9.31016
▁Today	-9.31024
▁traffic	-9.3103
▁bike	-9.31048
▁boss	-9.31048
▁river	-9.3105
ant	-9.31061
▁box	-9.31089
▁abroad	-9.31129
▁knife	-9.31155
▁snow	-9.31165
▁brothers	-9.31175
▁standing	-9.31297
▁alcohol	-9.313
▁saved	-9.31355
▁dollars	-9.3141
▁returned	-9.31652
appy	-9.31875
▁sun	-9.31877
▁missed	-9.31981
led	-9.32293
▁reach	-9.32603
▁guys	-9.32739
▁accus	-9.32756
▁travel	-9.33148
aught	-9.33372
▁played	-9.33636
▁whe	-9.33977
▁c	-9.34282
llowed	-9.34932
▁pictures	-9.35206
▁experience	-9.35238
▁opinion	-9.35911
ur	-9.35929
▁whom	-9.36104
▁minute	-9.36113
▁hat	-9.36163
▁feeling	-9.36749
▁sha	-9.36888
▁spoke	-9.37131
▁appear	-9.37327
▁glass	-9.37584
▁social	-9.37607
▁Nancy	-9.37673
▁Sadiq	-9.37673
▁Saturday	-9.37673
▁drunk	-9.37673
▁depression	-9.37673
▁soccer	-9.37673
▁teeth	-9.37673
▁perform	-9.37673
▁subject	-9.37673
▁Baya	-9.37674
▁twenty	-9.37674
▁Hebrew	-9.37674
▁support	-9.37674
▁control	-9.37676
▁girlfriend	-9.37679
▁earth	-9.37679
▁wedding	-9.3768
▁smart	-9.37686
▁Aart	-9.37694
▁exactly	-9.37696
▁running	-9.37706
▁disappeared	-9.37718
▁airport	-9.37752
▁doubt	-9.37753
▁hiding	-9.37756
▁chose	-9.3779
▁break	-9.37812
▁popular	-9.37838
▁Wait	-9.37838
▁continued	-9.3786
▁case	-9.38048
▁aware	-9.38075
▁save	-9.38492
eople	-9.38652
ke	-9.38674
▁bill	-9.38682
▁slapp	-9.38766
▁La	-9.38798
▁news	-9.38803
▁Sa	-9.39149
▁Bett	-9.39491
▁intend	-9.40041
▁attend	-9.40228
k	-9.40293
▁card	-9.40955
age	-9.40972
id	-9.41113
ew	-9.41484
Yes	-9.42255
▁Y	-9.42331
g	-9.42619
▁message	-9.42837
▁street	-9.43019
▁crime	-9.43072
▁Palestinian	-9.43087
▁ruin	-9.43112
▁smell	-9.43147
▁tie	-9.43933
▁beg	-9.43996
ate	-9.44184
▁foreign	-9.44234
!"	-9.44298
ter	-9.44344
▁success	-9.44424
▁surprise	-9.44496
▁suffer	-9.4459
▁share	-9.44626
▁arrive	-9.44672
▁Sh	-9.44723
▁cars	-9.44778
▁kitchen	-9.44816
▁pregnant	-9.44816
▁science	-9.44816
▁baseball	-9.44816
▁mouth	-9.44816
▁medicine	-9.44816
▁Spanish	-9.44817
▁expensive	-9.44817
▁York	-9.44817
▁cheese	-9.4482
▁chance	-9.44821
▁desk	-9.44822
▁treatment	-9.44826
▁driving	-9.44829
▁University	-9.4483
▁moving	-9.44833
▁wallet	-9.44833
▁nurse	-9.44839
▁fuck	-9.4484
▁prepared	-9.4485
▁cup	-9.44862
▁Mike	-9.44899
▁suppose	-9.44926
▁arm	-9.44938
▁arrested	-9.44948
▁interesting	-9.4495
▁test	-9.44987
ather	-9.45011
▁patient	-9.45017
▁interested	-9.4503
▁boat	-9.4512
▁deal	-9.45146
▁equal	-9.45184
▁lead	-9.45222
▁whatever	-9.45292
▁remind	-9.45508
▁closed	-9.4553
▁grandfather	-9.45561
▁shut	-9.45715
▁fly	-9.45868
▁ex	-9.45875
am	-9.46308
▁Were	-9.46318
▁Shu	-9.46344
ne	-9.46382
▁birds	-9.46453
▁island	-9.46647
▁fit	-9.46649
▁mail	-9.46691
▁e	-9.46723
▁suit	-9.46996
▁Ca	-9.47213
▁sense	-9.47364
▁sad	-9.47577
any	-9.476
ow	-9.47753
▁apples	-9.47964
gan	-9.4798
▁appreciate	-9.48034
▁al	-9.48211
▁warm	-9.48473
▁beca	-9.48772
▁sign	-9.49433
▁thinking	-9.49558
▁taken	-9.49662
▁state	-9.49836
▁moon	-9.50026
▁usual	-9.50273
▁second	-9.50686
▁page	-9.50692
▁color	-9.50735
▁bird	-9.50799
▁collect	-9.50851
▁piece	-9.50882
▁verse	-9.51535
▁An	-9.51744
▁cheat	-9.52028
▁succeed	-9.52071
ich	-9.52107
▁Well	-9.52265
▁account	-9.52374
▁correct	-9.52391
▁Ramadan	-9.52508
▁arguing	-9.52508
▁church	-9.52508
▁London	-9.52508
▁entire	-9.52508
▁thousand	-9.52508
▁difference	-9.52509
▁channel	-9.52511
▁taxi	-9.52512
▁suspect	-9.52514
▁gift	-9.52515
▁Allah	-9.52518
▁lunch	-9.52523
▁contact	-9.52529
▁everywhere	-9.5253
▁speech	-9.52534
▁anthem	-9.52555
▁Hurry	-9.52557
▁huge	-9.52568
▁bored	-9.52569
▁innocent	-9.52578
▁bread	-9.52624
▁green	-9.52656
▁principal	-9.52685
▁cake	-9.52779
▁passed	-9.52801
▁sh	-9.52815
▁surprised	-9.52939
▁eggs	-9.53004
▁walking	-9.53132
▁lo	-9.53145
▁mad	-9.53277
▁form	-9.53312
▁extreme	-9.53508
▁rules	-9.53569
▁rush	-9.53616
fter	-9.5367
te	-9.53696
▁Eve	-9.53777
▁toward	-9.53868
▁per	-9.54017
▁watched	-9.54061
▁side	-9.54121
▁answered	-9.54395
▁Palestinians	-9.54409
pital	-9.54504
▁bigge	-9.5467
▁bear	-9.55005
▁eats	-9.55037
▁Poli	-9.5507
▁See	-9.55234
one	-9.55935
▁rent	-9.55948
▁offer	-9.56673
▁mistakes	-9.56907
▁Hi	-9.56921
▁drives	-9.5735
cal	-9.57509
▁On	-9.57514
▁kick	-9.58326
▁Mos	-9.58807
▁pencil	-9.58813
▁pillow	-9.5906
▁sing	-9.59733
▁smoke	-9.6022
ng	-9.60324
▁explain	-9.60406
▁treat	-9.60733
▁deep	-9.60758
▁Friday	-9.60842
▁Kyoto	-9.60842
▁pregnancy	-9.60842
▁vacation	-9.60842
▁conference	-9.60842
▁Emily	-9.60842
▁refused	-9.60842
▁drank	-9.60843
▁countries	-9.60843
▁illness	-9.60844
▁project	-9.60844
▁Sorry	-9.60846
▁prison	-9.60847
▁weird	-9.60847
:30	-9.60847
▁government	-9.60848
▁novel	-9.6085
▁Lord	-9.6085
▁castle	-9.60851
▁native	-9.60852
▁duty	-9.60852
▁sometimes	-9.60854
▁Jane	-9.60861
▁Paris	-9.60863
▁risk	-9.60864
▁somewhere	-9.60894
▁shape	-9.609
▁cancer	-9.60919
▁Bill	-9.60939
▁disappointed	-9.60971
▁failed	-9.60971
▁worst	-9.60973
▁fall	-9.60994
▁act	-9.61004
▁lucky	-9.61024
▁noticed	-9.6106
▁above	-9.61067
▁rice	-9.61102
▁clear	-9.61192
▁truck	-9.61287
▁li	-9.61289
▁driver	-9.61318
▁seat	-9.61388
▁locked	-9.614
stood	-9.6146
▁foot	-9.61502
▁hold	-9.61733
▁gay	-9.6174
▁Was	-9.61748
▁ate	-9.61874
▁hung	-9.62217
▁convert	-9.62247
▁6	-9.62296
▁cause	-9.62975
red	-9.63295
▁believed	-9.63408
Never	-9.6347
▁calls	-9.63482
▁ball	-9.6366
▁Move	-9.63838
▁allow	-9.64621
ad	-9.64683
night	-9.6476
ut	-9.64911
▁thanks	-9.64987
▁drug	-9.65146
▁less	-9.65381
▁cap	-9.65423
▁Has	-9.65491
No	-9.65755
▁Try	-9.66153
ill	-9.66779
▁consider	-9.67053
lend	-9.67109
▁i	-9.67402
▁brave	-9.67543
▁nation	-9.67887
▁future	-9.67889
▁paper	-9.6817
▁fact	-9.68311
▁practice	-9.68368
rying	-9.69107
▁ill	-9.69285
▁depend	-9.69441
▁gre	-9.69699
▁dis	-9.69828
▁exam	-9.69837
▁complete	-9.69864
▁Earth	-9.69889
’	-9.69932
▁ambulance	-9.69932
▁century	-9.69932
▁chocolate	-9.69932
▁couple	-9.69932
▁earlier	-9.69932
▁effort	-9.69932
▁introduce	-9.69932
▁purpose	-9.69932
▁similar	-9.69932
▁situation	-9.69932
▁happiness	-9.69933
▁juice	-9.69933
▁responsibility	-9.69933
▁bottle	-9.69934
▁investigation	-9.69934
▁twice	-9.69936
▁actually	-9.69937
▁private	-9.69937
▁freedom	-9.69938
▁million	-9.69938
▁boyfriend	-9.69939
▁Everything	-9.69942
▁price	-9.69954
▁created	-9.6996
▁upset	-9.69962
▁boring	-9.69963
▁carefully	-9.69969
▁confused	-9.69972
▁suddenly	-9.6998
▁involved	-9.69989
▁wood	-9.69994
▁slowly	-9.69997
▁asleep	-9.70123
▁market	-9.70132
▁understood	-9.70155
▁en	-9.70165
▁punch	-9.70207
▁express	-9.70217
▁laughed	-9.70321
▁treated	-9.70456
▁traveled	-9.70559
▁followed	-9.70571
▁Eat	-9.70596
▁line	-9.707
▁Oh	-9.70779
▁raining	-9.70797
▁wondered	-9.70805
▁shower	-9.70858
▁spoken	-9.70868
▁sports	-9.70869
▁judge	-9.70892
▁held	-9.70997
ged	-9.71177
▁post	-9.71302
▁loud	-9.71426
▁asking	-9.71618
▁leaves	-9.71693
▁Mom	-9.71744
ay	-9.71774
▁broken	-9.71886
▁planet	-9.72384
▁lied	-9.72552
▁Ann	-9.7278
▁devo	-9.73049
ated	-9.73075
hildren	-9.73449
▁dreams	-9.73601
as	-9.74001
▁fool	-9.74111
▁West	-9.74204
▁doors	-9.74473
▁rock	-9.74711
ions	-9.74827
▁Bo	-9.74995
▁using	-9.7505
▁talks	-9.75093
el	-9.75238
ent	-9.75766
pt	-9.76151
land	-9.76528
ver	-9.7696
though	-9.7766
▁boys	-9.77951
▁laugh	-9.7807
▁poem	-9.78133
▁orange	-9.78151
▁War	-9.78328
▁club	-9.78352
▁dip	-9.78665
▁se	-9.7872
▁king	-9.78796
▁hole	-9.78906
▁takes	-9.78924
▁10	-9.78982
▁divorce	-9.79533
▁yours	-9.79832
▁poet	-9.79932
▁Palestine	-9.79932
▁faucet	-9.79932
▁system	-9.79932
▁themselves	-9.79932
▁grandmother	-9.79933
▁jump	-9.79933
▁necessary	-9.79933
▁lawyer	-9.79934
▁village	-9.79935
▁Tomorrow	-9.79936
▁di	-9.79937
▁Bank	-9.79938
▁education	-9.79944
▁cried	-9.79944
▁guess	-9.79946
▁international	-9.79947
▁common	-9.79948
▁single	-9.7997
▁admitted	-9.79977
▁guilty	-9.79995
▁useful	-9.80032
▁Love	-9.80044
▁major	-9.80044
▁cheap	-9.80058
▁terrible	-9.80062
▁committed	-9.8008
▁choose	-9.80111
▁middle	-9.80146
▁knocked	-9.80181
▁nine	-9.8035
ar	-9.80387
b	-9.80399
▁acting	-9.8045
▁aunt	-9.8047
▁along	-9.80595
▁eaten	-9.80598
▁dry	-9.80601
▁appeared	-9.80606
▁seven	-9.80734
▁anger	-9.80903
▁flowers	-9.80967
▁yes	-9.8106
▁pull	-9.8111
▁pa	-9.8112
thirty	-9.81303
▁-	-9.81338
▁nose	-9.81356
▁mental	-9.81392
▁includ	-9.81468
▁Any	-9.82186
▁eye	-9.82269
It	-9.82388
▁vari	-9.8243
▁ears	-9.82826
▁cop	-9.82898
ary	-9.83038
▁charge	-9.8305
▁greet	-9.8325
▁understands	-9.83798
ry	-9.8387
▁realize	-9.83979
You	-9.84095
▁plann	-9.84394
▁trees	-9.8443
ch	-9.85125
he	-9.85126
▁catch	-9.85304
▁K	-9.85549
▁ski	-9.85604
▁biolog	-9.85796
▁recognize	-9.85875
▁inter	-9.86057
▁wash	-9.86459
▁meal	-9.86662
▁windows	-9.86882
ling	-9.87374
to	-9.88287
▁de	-9.88305
sh	-9.88563
S	-9.88593
old	-9.88927
▁Pu	-9.88941
▁pro	-9.89074
▁1	-9.89117
ro	-9.8913
▁translation	-9.892
▁ways	-9.89291
filled	-9.89558
▁attract	-9.9008
▁King	-9.9038
▁remain	-9.90624
▁sell	-9.90681
▁air	-9.90695
▁invite	-9.90713
▁pass	-9.90715
▁Europe	-9.90962
us	-9.90967
▁power	-9.91032
▁Br	-9.91036
izi	-9.91039
–	-9.91044
—	-9.91044
▁England	-9.91044
▁Osaka	-9.91044
▁Ouzou	-9.91044
▁achieve	-9.91044
▁across	-9.91044
▁mirror	-9.91044
▁replied	-9.91044
▁attempt	-9.91044
▁comprise	-9.91044
▁relationship	-9.91044
▁blind	-9.91044
▁joking	-9.91044
▁wolf	-9.91044
▁Canada	-9.91044
▁memory	-9.91044
▁Great	-9.91045
▁2006	-9.91045
▁betray	-9.91045
▁marriage	-9.91045
▁kidding	-9.91046
▁daily	-9.91047
▁Women	-9.91056
▁Egyptian	-9.91058
▁pool	-9.91058
▁cross	-9.91058
▁Rami	-9.9106
▁Leave	-9.91062
▁favour	-9.91064
▁stories	-9.91064
▁president	-9.91066
▁easily	-9.91069
▁Italy	-9.9107
▁issue	-9.91071
stairs	-9.91073
▁funny	-9.91081
▁Help	-9.91083
▁released	-9.91098
▁fifty	-9.91109
▁barking	-9.91115
▁admit	-9.9113
▁owe	-9.9113
▁greatest	-9.91134
▁special	-9.91148
▁repair	-9.91166
▁dating	-9.91169
ched	-9.91184
▁center	-9.91218
▁simple	-9.91242
▁half	-9.91247
▁bridge	-9.91269
▁shirt	-9.91276
▁lake	-9.91291
▁June	-9.91313
▁drew	-9.91319
Sometimes	-9.91326
▁argued	-9.91333
▁list	-9.91346
▁laughing	-9.91349
▁ahead	-9.91352
▁Algerian	-9.91407
▁smiled	-9.91437
▁remained	-9.91467
▁push	-9.91486
▁coma	-9.91498
go	-9.91529
▁yen	-9.91561
▁washing	-9.91605
▁fair	-9.91655
▁culture	-9.91691
▁fishing	-9.91763
▁farm	-9.91771
ian	-9.91939
▁happening	-9.92028
▁meaning	-9.92033
▁fat	-9.92055
▁agreed	-9.92104
▁stolen	-9.92181
▁translated	-9.92326
▁though	-9.92442
▁responsib	-9.92549
▁match	-9.92661
▁ring	-9.92829
▁fired	-9.9285
ook	-9.92999
▁shy	-9.9302
▁By	-9.93196
claimed	-9.9346
▁sub	-9.93467
▁gate	-9.94013
▁wear	-9.94014
lly	-9.94073
▁Jew	-9.94113
▁fl	-9.94267
▁rights	-9.94321
▁cards	-9.94405
▁Dr	-9.94486
nd	-9.9458
dom	-9.94777
▁apologize	-9.94833
▁rely	-9.94946
▁religions	-9.96351
ually	-9.97217
ha	-9.97423
▁nor	-9.98082
ach	-9.9853
▁pair	-9.98562
▁warn	-9.99174
▁ma	-9.99206
hap	-9.99218
▁Sta	-9.99246
time	-9.99672
tting	-10.0004
uk	-10.0006
▁Ho	-10.0024
mail	-10.0065
▁dro	-10.0109
▁ha	-10.0111
ck	-10.0112
▁20	-10.0156
▁paint	-10.0175
▁lesson	-10.0178
▁animal	-10.0182
▁rule	-10.0183
ctions	-10.0191
her	-10.0206
▁translat	-10.0229
▁rea	-10.0249
▁burn	-10.0252
▁slap	-10.0272
...	-10.0273
▁dipp	-10.0276
ice	-10.0276
▁fix	-10.028
▁U	-10.0306
▁fight	-10.0318
▁breath	-10.0322
▁Speak	-10.0327
▁wo	-10.0339
▁Bakir	-10.0354
▁Christmas	-10.0354
▁afford	-10.0354
▁available	-10.0354
▁bottom	-10.0354
▁newspaper	-10.0354
▁ourselves	-10.0354
▁progress	-10.0354
▁silence	-10.0354
▁surgery	-10.0354
▁university	-10.0354
▁victory	-10.0354
▁advance	-10.0354
▁clothing	-10.0354
▁British	-10.0354
▁stuff	-10.0354
▁absent	-10.0355
▁tongue	-10.0355
▁yellow	-10.0355
▁Jack	-10.0355
▁dropped	-10.0355
▁Sarah	-10.0355
▁jealous	-10.0355
▁credit	-10.0355
▁generation	-10.0355
▁socks	-10.0355
▁knowledge	-10.0355
▁heavy	-10.0356
▁salary	-10.0356
▁director	-10.0356
▁kindness	-10.0356
▁email	-10.0357
▁handsome	-10.0357
▁settle	-10.0357
▁Keep	-10.0358
▁guide	-10.0358
▁wonderful	-10.0359
▁annoying	-10.036
▁anywhere	-10.036
▁blame	-10.036
▁forgotten	-10.0361
▁total	-10.0362
▁bath	-10.0364
ink	-10.0367
▁deeply	-10.0368
▁policy	-10.0368
▁terrorists	-10.0369
▁worse	-10.0369
▁justice	-10.0373
▁dying	-10.0376
▁advise	-10.0377
▁refrigerator	-10.0381
▁smaller	-10.0383
▁stone	-10.0383
ia	-10.0384
▁solution	-10.0384
▁mo	-10.0385
▁Should	-10.0386
▁faster	-10.0392
ue	-10.0392
▁van	-10.0397
▁fixed	-10.0398
▁salt	-10.0404
▁Dad	-10.0407
▁star	-10.0408
▁comfortable	-10.0411
▁coat	-10.0412
▁Dan	-10.0414
▁cooking	-10.0415
▁natural	-10.0423
ble	-10.0427
▁debts	-10.0439
▁results	-10.0439
ence	-10.0445
▁19	-10.0454
▁healthy	-10.0456
▁Me	-10.0463
▁pray	-10.0474
▁smile	-10.0475
▁washed	-10.0478
▁cute	-10.0485
▁dressed	-10.0487
resident	-10.0504
▁interests	-10.0521
▁3	-10.0551
▁hearing	-10.063
▁Re	-10.0631
▁ra	-10.0649
▁staying	-10.0651
▁grate	-10.072
▁h	-10.0734
▁manage	-10.0742
▁Americans	-10.0753
▁ho	-10.0762
▁neighbors	-10.0805
ine	-10.089
▁Ma	-10.0921
loves	-10.0952
pped	-10.096
▁St	-10.0982
▁wor	-10.0983
▁hi	-10.1025
▁lift	-10.1037
and	-10.1037
ments	-10.1043
▁hire	-10.1058
▁pl	-10.1072
▁drugs	-10.1072
▁ver	-10.1174
▁carry	-10.1184
▁shout	-10.1211
▁Li	-10.122
▁Say	-10.1223
▁sword	-10.1312
▁Arab	-10.1371
▁computers	-10.1409
year	-10.1444
▁awake	-10.1445
▁su	-10.1485
▁changes	-10.1488
▁ice	-10.1491
▁weeks	-10.1515
▁interest	-10.1525
loud	-10.1534
▁search	-10.1538
▁machine	-10.1588
▁citizen	-10.1612
▁fo	-10.1632
▁cares	-10.1635
▁join	-10.1638
▁st	-10.1649
▁br	-10.166
▁Hey	-10.17
▁suggest	-10.1738
▁lik	-10.1739
▁argue	-10.1746
▁survive	-10.1746
▁shock	-10.1749
▁continue	-10.175
▁lay	-10.1763
▁quick	-10.1774
▁slow	-10.1778
▁9	-10.1779
▁birth	-10.1782
▁Australia	-10.1783
▁Internet	-10.1783
▁Jerusalem	-10.1783
▁fashion	-10.1783
▁guitar	-10.1783
▁injured	-10.1783
▁opportunity	-10.1783
▁rabbit	-10.1783
▁shahada	-10.1783
▁Jesus	-10.1783
▁courage	-10.1783
▁Italian	-10.1783
▁Welcome	-10.1783
▁Linda	-10.1783
▁Quran	-10.1783
▁mutual	-10.1783
▁sighed	-10.1783
▁instead	-10.1783
▁swallow	-10.1783
▁article	-10.1783
▁failure	-10.1783
▁fault	-10.1783
▁evidence	-10.1783
▁further	-10.1783
▁garage	-10.1783
▁website	-10.1783
▁haunted	-10.1783
▁passport	-10.1783
▁extra	-10.1783
▁Spain	-10.1783
▁disease	-10.1783
▁punishment	-10.1783
▁hobby	-10.1783
▁provide	-10.1783
▁alarm	-10.1783
▁request	-10.1783
▁worried	-10.1783
▁Obviously	-10.1783
▁condition	-10.1783
▁space	-10.1784
▁swear	-10.1784
▁Bible	-10.1784
esterday	-10.1784
▁invented	-10.1784
▁spirit	-10.1784
▁childhood	-10.1785
▁Year	-10.1785
▁excellent	-10.1786
▁roof	-10.1786
▁classroom	-10.1786
▁Kate	-10.1786
▁friendship	-10.1786
▁apartment	-10.1786
▁Kabylie	-10.1786
▁dishes	-10.1787
▁coward	-10.1787
▁winter	-10.1787
▁recently	-10.1788
▁text	-10.1788
▁dancing	-10.179
▁Write	-10.1791
▁Father	-10.1791
▁certainly	-10.1791
▁Bless	-10.1791
▁collection	-10.1797
▁ashamed	-10.18
▁gloves	-10.1802
▁covered	-10.1806
▁quality	-10.1808
▁attic	-10.1809
▁oil	-10.1809
▁fever	-10.181
▁concerned	-10.1812
▁Esperanto	-10.1813
▁cool	-10.1814
▁changing	-10.1815
lif	-10.1816
▁notice	-10.182
▁painting	-10.1821
pillar	-10.1824
▁singing	-10.183
▁younger	-10.1833
▁desi	-10.1834
▁members	-10.1842
▁ability	-10.1843
light	-10.1845
▁following	-10.1848
▁harder	-10.1852
▁lying	-10.1859
▁feet	-10.1866
▁Per	-10.1872
end	-10.188
▁mountains	-10.1882
▁goal	-10.1885
▁sight	-10.1888
▁Water	-10.1889
▁Germany	-10.1901
▁hide	-10.1904
▁parked	-10.1906
mer	-10.1921
side	-10.1921
▁normal	-10.1936
▁expected	-10.194
▁friendly	-10.194
▁forty	-10.1942
▁bother	-10.1967
▁wealth	-10.1982
▁deserved	-10.1983
▁Mamm	-10.2018
▁stars	-10.2023
▁pack	-10.2044
▁sen	-10.2052
▁constant	-10.2055
▁thinks	-10.2059
▁weight	-10.2064
orget	-10.2069
▁papers	-10.2075
▁medica	-10.2078
male	-10.2079
▁sleepy	-10.2098
▁weak	-10.2108
▁exist	-10.2112
▁gr	-10.2138
▁crimes	-10.2155
▁n	-10.2177
▁opinions	-10.2187
▁horses	-10.2213
▁da	-10.2216
▁fle	-10.2223
▁thin	-10.2237
▁tickets	-10.2238
▁videos	-10.2242
▁ace	-10.2254
▁mistaken	-10.2281
▁raise	-10.2329
▁waste	-10.2334
▁sp	-10.2336
R	-10.2355
▁dial	-10.2401
▁hu	-10.2414
unch	-10.2463
▁Exc	-10.2477
▁speaker	-10.2478
xcuse	-10.2496
▁Ben	-10.2498
▁commit	-10.2521
ie	-10.2566
ade	-10.2576
▁bo	-10.2602
▁Christians	-10.2621
▁hurts	-10.264
▁numbers	-10.2652
▁meant	-10.2658
0.	-10.2697
▁rains	-10.274
▁names	-10.2749
ked	-10.2768
de	-10.2772
▁beer	-10.2792
ness	-10.282
▁ideas	-10.2823
▁voices	-10.2843
What	-10.2847
D	-10.2855
ist	-10.2864
▁tear	-10.2871
▁sw	-10.2874
▁force	-10.2963
ringing	-10.2976
placed	-10.3015
▁Am	-10.3024
▁harm	-10.3028
▁answers	-10.303
▁abuse	-10.3119
3	-10.3174
But	-10.3174
▁personal	-10.3179
men	-10.3187
way	-10.3193
▁Mou	-10.3209
▁sons	-10.3226
eri	-10.3251
▁web	-10.3275
▁flower	-10.3275
▁sport	-10.3282
▁weigh	-10.3304
▁gets	-10.3347
▁add	-10.3355
▁Du	-10.3359
F	-10.3368
▁ti	-10.337
▁knock	-10.3379
aked	-10.3399
▁resign	-10.3402
▁contain	-10.3404
▁teache	-10.3406
till	-10.3411
▁decide	-10.3413
▁luck	-10.3414
omeone	-10.3418
0	-10.3429
▁certain	-10.344
ah	-10.3441
ducation	-10.3448
▁faith	-10.3449
▁€	-10.345
▁Correct	-10.345
▁Facebook	-10.345
▁Muhammad	-10.345
▁Sikh	-10.345
▁Yitzhak	-10.345
▁character	-10.345
▁describe	-10.345
▁destination	-10.345
▁enemies	-10.345
▁episode	-10.345
▁horror	-10.345
▁nervous	-10.345
▁ordinary	-10.345
▁recommend	-10.345
▁shopkeeper	-10.345
▁siblings	-10.345
▁strength	-10.345
▁complicated	-10.345
▁incident	-10.345
▁silver	-10.345
▁confront	-10.345
▁violent	-10.345
▁indicted	-10.345
▁scene	-10.345
▁prophet	-10.345
▁suicide	-10.345
▁delicious	-10.345
▁dozen	-10.345
▁fresh	-10.345
▁silent	-10.345
▁approach	-10.345
▁super	-10.345
▁group	-10.345
▁program	-10.345
▁Check	-10.345
▁property	-10.345
▁conversation	-10.345
▁sharp	-10.345
▁bathroom	-10.345
▁capacity	-10.345
▁damage	-10.345
▁sixteen	-10.345
▁method	-10.345
▁headache	-10.345
▁Brown	-10.3451
▁nursing	-10.3451
▁sugar	-10.3451
▁spread	-10.3451
▁clever	-10.3451
▁downtown	-10.3451
▁election	-10.3451
▁flag	-10.3451
▁cream	-10.3451
▁master	-10.3451
▁dislike	-10.3452
▁Salima	-10.3452
▁pizza	-10.3452
▁temple	-10.3452
▁Doctor	-10.3452
▁ground	-10.3452
▁hospitalized	-10.3452
▁season	-10.3453
▁amazing	-10.3453
▁gym	-10.3453
▁trapped	-10.3453
▁lonely	-10.3454
▁brush	-10.3455
▁bitch	-10.3455
▁itself	-10.3455
▁alcoholic	-10.3455
▁avoid	-10.3455
▁protection	-10.3455
▁Russian	-10.3457
▁yelling	-10.3458
▁cash	-10.3459
▁downstairs	-10.3459
▁steal	-10.346
▁pale	-10.346
▁gang	-10.3462
▁singer	-10.3462
▁discovered	-10.3462
▁European	-10.3462
▁dude	-10.3462
▁assume	-10.3463
▁persuade	-10.3463
▁leader	-10.3463
▁someday	-10.3463
▁prayer	-10.3468
▁clearly	-10.3469
▁public	-10.347
▁burning	-10.3471
▁soup	-10.3478
▁license	-10.348
▁mention	-10.3483
▁calm	-10.3483
▁satisfied	-10.3484
▁example	-10.3484
▁existence	-10.3484
▁fighting	-10.3486
▁improved	-10.3486
▁bless	-10.3487
▁draw	-10.3488
▁evil	-10.3489
▁killer	-10.3492
▁savings	-10.35
▁map	-10.3501
▁stamps	-10.3501
▁theory	-10.3502
▁exchange	-10.3503
▁politics	-10.3505
▁J	-10.3511
▁event	-10.3514
▁storm	-10.3516
▁seek	-10.3524
▁traveling	-10.3528
▁handle	-10.353
6	-10.3532
▁cousins	-10.3534
▁round	-10.3534
▁holidays	-10.3534
▁explained	-10.3541
▁sold	-10.3548
▁succeeded	-10.3549
▁roses	-10.3564
▁respected	-10.3573
▁speed	-10.3576
▁despise	-10.358
definitely	-10.3596
▁murdered	-10.3628
▁develop	-10.3646
▁symbol	-10.3666
▁sel	-10.3671
les	-10.3673
▁bite	-10.3674
▁main	-10.3686
▁jobs	-10.3692
▁Ah	-10.3692
ide	-10.37
▁fond	-10.3706
▁Arabs	-10.3708
ship	-10.3735
The	-10.374
ime	-10.3744
▁oranges	-10.3766
▁cave	-10.3771
ternal	-10.3776
▁arms	-10.3784
▁painte	-10.3788
stitute	-10.3826
▁pillows	-10.3832
ified	-10.3853
▁meter	-10.3856
verage	-10.3859
▁thre	-10.386
▁beat	-10.3863
ma	-10.387
▁track	-10.3876
▁examine	-10.3878
▁smells	-10.3882
M	-10.3894
▁strip	-10.3906
▁obvious	-10.3922
▁feelings	-10.3936
ard	-10.3985
how	-10.3989
▁bush	-10.3992
▁Pass	-10.3992
om	-10.4009
▁cons	-10.4011
▁throw	-10.4073
▁founded	-10.4074
are	-10.4074
ily	-10.4095
um	-10.4111
irds	-10.4122
lace	-10.4129
hall	-10.4148
rs	-10.4189
x	-10.4225
1	-10.4247
A	-10.4269
▁diet	-10.4279
▁mu	-10.4345
▁produce	-10.4401
▁date	-10.4454
▁threaten	-10.4464
▁ge	-10.4471
aid	-10.4474
cer	-10.449
ourists	-10.4513
ped	-10.4517
▁199	-10.4528
▁ba	-10.4545
ical	-10.4591
▁earn	-10.4597
▁runs	-10.4602
lose	-10.4604
▁fork	-10.4631
▁Ch	-10.4666
▁general	-10.4668
?!	-10.4686
▁daughters	-10.4686
elve	-10.4688
tic	-10.4702
▁im	-10.4736
phone	-10.4756
man	-10.4758
▁Whi	-10.4794
▁begg	-10.4797
ists	-10.4836
rah	-10.4842
▁fil	-10.4875
▁merc	-10.4902
ak	-10.4906
▁talle	-10.4942
▁Lo	-10.4967
come	-10.497
That	-10.4983
▁pre	-10.5017
da	-10.5059
tain	-10.5076
▁action	-10.5105
place	-10.5135
7	-10.5143
▁la	-10.5161
ince	-10.5162
hi	-10.5168
mission	-10.5183
egan	-10.5184
ul	-10.5205
oke	-10.521
ga	-10.5217
▁intention	-10.5259
▁complain	-10.5265
▁photo	-10.5271
▁figure	-10.5294
▁leg	-10.5315
owed	-10.5316
ism	-10.532
▁sisters	-10.5327
▁stranger	-10.5329
▁spot	-10.5332
▁step	-10.5369
▁discuss	-10.54
▁poison	-10.5402
▁practise	-10.5402
▁repeat	-10.5403
▁block	-10.5404
▁concern	-10.5407
star	-10.5412
▁simpl	-10.5413
▁arrest	-10.5417
▁Pres	-10.543
▁psychiatri	-10.5439
▁sudden	-10.544
▁hijab	-10.5442
▁improve	-10.5444
▁positi	-10.5448
ل	-10.545
/	-10.545
▁Armani	-10.545
▁Chicago	-10.545
▁Greece	-10.545
▁Hawaii	-10.545
▁Instead	-10.545
▁Lincoln	-10.545
▁Philip	-10.545
▁application	-10.545
▁bastard	-10.545
▁campaign	-10.545
▁chapter	-10.545
▁chicken	-10.545
▁chief	-10.545
▁cigarette	-10.545
▁construction	-10.545
▁embrace	-10.545
▁encourage	-10.545
▁exaggerating	-10.545
▁fridge	-10.545
▁garbage	-10.545
▁lecture	-10.545
▁magazine	-10.545
▁pianist	-10.545
▁postpone	-10.545
▁reputation	-10.545
▁sacrifice	-10.545
▁scissors	-10.545
▁species	-10.545
▁temperature	-10.545
▁transfer	-10.545
▁universe	-10.545
▁vegetables	-10.545
▁Mathematic	-10.545
▁ocean	-10.545
▁welcome	-10.545
▁yourselves	-10.545
▁Fanta	-10.545
▁adapt	-10.545
▁emotion	-10.545
▁stomachache	-10.545
▁tragic	-10.545
▁USA	-10.545
▁Kenji	-10.545
▁Syria	-10.545
▁security	-10.545
▁plastic	-10.545
▁contrary	-10.545
▁vanished	-10.545
▁194	-10.545
▁Timmy	-10.545
▁opposite	-10.545
▁deprive	-10.545
▁Strip	-10.545
▁scratch	-10.545
▁obey	-10.545
▁alibi	-10.545
▁24	-10.545
▁Harry	-10.545
▁bomb	-10.545
▁widow	-10.545
▁element	-10.545
▁divide	-10.545
▁Korea	-10.5451
▁trick	-10.5451
▁Trump	-10.5451
▁absolutely	-10.5451
99	-10.5451
▁scold	-10.5452
▁trade	-10.5452
▁reject	-10.5452
▁finger	-10.5452
▁Fuck	-10.5452
▁devil	-10.5452
▁grass	-10.5452
cycle	-10.5452
▁drop	-10.5452
▁generous	-10.5452
▁distance	-10.5453
▁fluently	-10.5453
▁size	-10.5453
▁sheep	-10.5454
▁multi	-10.5454
▁India	-10.5455
▁destroyed	-10.5455
▁cloud	-10.5455
rry	-10.5456
▁Rome	-10.5456
▁desperate	-10.5456
▁retired	-10.5456
▁camp	-10.5457
▁nationality	-10.5457
▁Qa	-10.5457
▁butter	-10.5458
▁task	-10.5458
▁among	-10.5458
▁influence	-10.5458
▁crush	-10.5458
▁stage	-10.5458
▁Tony	-10.546
▁policeman	-10.546
▁south	-10.546
▁mouse	-10.5461
▁term	-10.5462
▁fi	-10.5462
▁possibility	-10.5463
▁exit	-10.5464
▁brown	-10.5465
▁reality	-10.5467
▁fox	-10.5468
▁tension	-10.5468
▁type	-10.5469
ock	-10.5469
▁media	-10.547
▁waved	-10.547
▁cutting	-10.5471
▁approve	-10.5471
▁insects	-10.5474
▁Language	-10.5474
▁scare	-10.5475
▁film	-10.5476
▁lock	-10.5479
▁escaped	-10.5481
▁graduated	-10.5481
▁knocking	-10.5484
▁sang	-10.5485
▁screamed	-10.5486
hearted	-10.5487
▁length	-10.5489
▁searching	-10.5489
▁Muiriel	-10.5491
▁official	-10.5494
▁Pri	-10.5494
▁shit	-10.5495
▁tolerant	-10.5497
▁freak	-10.5498
▁race	-10.5501
▁crowded	-10.5504
▁extent	-10.5505
▁perfectly	-10.5506
▁errors	-10.551
▁theater	-10.5512
▁Fr	-10.5513
▁borders	-10.5513
▁options	-10.5513
▁details	-10.5513
▁apart	-10.5514
▁suggested	-10.5514
▁freely	-10.5516
▁badly	-10.5519
vid	-10.5519
▁low	-10.5522
aller	-10.5527
▁suffering	-10.5531
▁liar	-10.5532
▁elect	-10.5532
▁tw	-10.5541
ans	-10.5543
▁Clea	-10.5546
orld	-10.5551
▁value	-10.5556
▁hook	-10.5557
▁watches	-10.5559
▁bitter	-10.5562
▁skin	-10.5565
▁band	-10.5575
▁192	-10.5576
▁shared	-10.5581
giving	-10.5594
li	-10.5596
▁pour	-10.5598
▁screams	-10.5601
▁spy	-10.5608
▁legs	-10.5612
gy	-10.5622
nce	-10.5622
▁Mother	-10.5622
▁Whatever	-10.5631
▁photos	-10.5631
▁hid	-10.5636
▁alter	-10.5637
▁intentions	-10.5639
▁starting	-10.5644
▁lack	-10.5646
▁cleaning	-10.565
▁Sir	-10.567
▁paying	-10.5689
connected	-10.5726
▁sta	-10.5726
▁grade	-10.573
do	-10.5731
▁tip	-10.5731
▁7	-10.5739
▁Cal	-10.5741
▁difficulty	-10.5744
stern	-10.5756
▁angel	-10.5765
dy	-10.5779
arents	-10.5794
▁Mars	-10.58
▁charm	-10.5821
et	-10.583
▁poems	-10.584
▁depends	-10.5841
get	-10.5842
▁bu	-10.5853
ark	-10.5854
our	-10.5864
▁states	-10.5868
either	-10.5878
atch	-10.5894
▁admire	-10.5902
▁nations	-10.5902
▁ID	-10.5903
▁press	-10.5907
na	-10.5923
▁studies	-10.5949
▁regret	-10.5957
▁colors	-10.5961
▁pieces	-10.5966
ative	-10.5984
lright	-10.5996
▁streets	-10.6007
▁Play	-10.6021
oney	-10.6022
▁player	-10.6028
▁increase	-10.6033
▁orders	-10.6067
▁follows	-10.6098
ral	-10.6117
tha	-10.6118
gun	-10.6138
ught	-10.6153
▁Ope	-10.6159
▁Ku	-10.6163
▁V	-10.6183
ture	-10.6196
▁Luc	-10.6228
▁interrupt	-10.6241
▁le	-10.6244
▁hero	-10.6264
ins	-10.6308
iety	-10.6309
▁tra	-10.6328
verybody	-10.633
▁addict	-10.6333
▁si	-10.6334
▁wars	-10.6337
sion	-10.635
lar	-10.636
factory	-10.6363
▁mar	-10.6414
dies	-10.644
ick	-10.6468
cial	-10.6493
▁classic	-10.6507
▁ro	-10.651
▁lea	-10.6514
▁site	-10.6526
▁Mrs	-10.6537
bel	-10.6553
ge	-10.6555
▁Jud	-10.6572
tar	-10.6575
L	-10.6592
ded	-10.6596
▁Turk	-10.6633
▁po	-10.6639
▁hell	-10.669
ho	-10.6693
▁lover	-10.6706
ug	-10.6761
▁na	-10.6762
▁Wa	-10.6765
▁Abo	-10.6778
▁concentrate	-10.6779
00	-10.6785
▁u	-10.6787
▁Wo	-10.6801
▁Pe	-10.6815
▁pleas	-10.6827
ag	-10.6832
▁beings	-10.6869
▁mosques	-10.6903
nyway	-10.6949
king	-10.6953
ac	-10.697
T	-10.7031
▁plans	-10.7039
▁200	-10.7052
ts	-10.7107
mi	-10.7113
by	-10.7114
co	-10.7121
▁Ri	-10.7127
wake	-10.7139
acted	-10.7153
▁carrie	-10.7157
▁ab	-10.7164
▁gas	-10.7169
▁suitabl	-10.717
ely	-10.72
▁mid	-10.7204
ough	-10.7229
▁pe	-10.7245
firm	-10.7256
▁har	-10.7259
▁prove	-10.7263
▁pot	-10.7279
▁cover	-10.7328
ited	-10.7343
here	-10.7345
▁top	-10.7353
▁Bri	-10.7359
▁feels	-10.7418
▁severe	-10.7421
▁Georg	-10.7433
▁Co	-10.7435
uble	-10.7449
▁explo	-10.7459
▁com	-10.746
▁serve	-10.7462
▁ch	-10.7471
▁Cat	-10.7476
the	-10.7482
▁par	-10.7515
8	-10.7531
ko	-10.7545
rove	-10.7555
C	-10.7564
ra	-10.7569
▁pet	-10.7595
view	-10.7598
▁ke	-10.7609
educated	-10.7624
gur	-10.7638
ied	-10.764
Thank	-10.7663
▁blond	-10.7665
grandfather	-10.7669
Mom	-10.7673
▁scream	-10.7683
emember	-10.7704
To	-10.7705
▁prop	-10.7727
▁demand	-10.7738
▁record	-10.7755
▁detective	-10.7756
▁joke	-10.7758
uck	-10.7759
▁regard	-10.7759
▁mountain	-10.777
▁result	-10.7772
▁egg	-10.7776
▁dollar	-10.7776
ors	-10.778
▁intelligen	-10.778
▁arriv	-10.7783
▁debt	-10.7792
mental	-10.7798
losing	-10.7799
▁ev	-10.7815
known	-10.784
▁talent	-10.784
▁cultur	-10.7843
▁kid	-10.7845
▁rose	-10.7862
▁mini	-10.7865
sense	-10.7878
ener	-10.7893
▁disappoint	-10.7908
▁require	-10.7908
▁graduate	-10.7909
▁escape	-10.7909
▁cr	-10.7912
▁terribl	-10.7915
ric	-10.7917
▁fail	-10.7918
chool	-10.7936
▁illegal	-10.7938
▁financial	-10.7938
▁exact	-10.794
▁ship	-10.7942
▁recent	-10.7944
▁scor	-10.7945
▁strawberr	-10.7948
▁Satan	-10.7948
▁stomach	-10.7949
▁prosper	-10.795
%	-10.795
▁1939	-10.795
▁Afghanistan	-10.795
▁Brazil	-10.795
▁Darwin	-10.795
▁Mongolia	-10.795
▁Toronto	-10.795
▁Translate	-10.795
▁Wikipedia	-10.795
▁X	-10.795
▁argument	-10.795
▁briefcase	-10.795
▁centuries	-10.795
▁conflict	-10.795
▁criminal	-10.795
▁diamond	-10.795
▁dignity	-10.795
▁dismissed	-10.795
▁economy	-10.795
▁emergency	-10.795
▁explanation	-10.795
▁fantasy	-10.795
▁independen	-10.795
▁kopeks	-10.795
▁liberal	-10.795
▁nutritious	-10.795
▁otherwise	-10.795
▁oxygen	-10.795
▁pepper	-10.795
▁period	-10.795
▁principles	-10.795
▁privilege	-10.795
▁properly	-10.795
▁refugees	-10.795
▁regularly	-10.795
▁religious	-10.795
▁sandwich	-10.795
▁significant	-10.795
▁suitcase	-10.795
▁suspicious	-10.795
▁toothbrush	-10.795
▁unexpected	-10.795
▁uniform	-10.795
▁violin	-10.795
▁volunteer	-10.795
▁Persian	-10.795
▁ceiling	-10.795
▁concert	-10.795
▁dessert	-10.795
▁document	-10.795
▁jazz	-10.795
▁ladder	-10.795
▁phrase	-10.795
▁prettier	-10.795
▁tattoo	-10.795
▁Practic	-10.795
▁micro	-10.795
▁research	-10.795
▁poker	-10.795
▁apology	-10.795
▁automatic	-10.795
▁current	-10.795
▁disagree	-10.795
▁strict	-10.795
▁wisdom	-10.795
▁shameful	-10.795
▁Scotland	-10.795
▁Defen	-10.795
▁crisis	-10.795
▁literature	-10.795
▁split	-10.795
▁field	-10.795
▁kilometers	-10.795
▁cricket	-10.795
▁reservation	-10.795
▁enorm	-10.795
▁worthwhile	-10.795
▁Unfortunately	-10.795
▁South	-10.795
▁2018	-10.795
▁monkey	-10.795
▁squirt	-10.795
▁conclusion	-10.795
▁percent	-10.795
11.	-10.795
▁Human	-10.795
▁carpet	-10.795
▁battle	-10.795
▁scale	-10.795
▁selfish	-10.795
▁emerged	-10.795
▁okay	-10.795
▁Yumi	-10.795
▁curious	-10.795
▁click	-10.795
▁experi	-10.795
▁assistance	-10.795
▁service	-10.795
▁watermelon	-10.795
▁drama	-10.795
▁25	-10.795
▁process	-10.795
▁Under	-10.795
▁salad	-10.795
▁relieve	-10.795
▁197	-10.795
▁museum	-10.795
▁Turkish	-10.795
▁fifteen	-10.795
▁occupation	-10.795
▁court	-10.795
▁relativ	-10.7951
▁honor	-10.7951
▁liberty	-10.7951
▁reply	-10.7951
▁prevent	-10.7951
▁monster	-10.7951
▁freezing	-10.7951
▁miserable	-10.7951
▁dumb	-10.7951
▁21	-10.7951
▁examination	-10.7951
▁supper	-10.7952
▁indeed	-10.7952
▁contract	-10.7952
▁professional	-10.7952
▁vote	-10.7952
▁Mexico	-10.7952
▁Nara	-10.7952
▁snowman	-10.7952
▁delight	-10.7952
▁cities	-10.7952
▁humor	-10.7952
▁stick	-10.7952
▁spoon	-10.7952
▁accent	-10.7952
▁proposal	-10.7952
▁discussion	-10.7953
▁reward	-10.7953
▁ugly	-10.7953
▁winning	-10.7953
▁rude	-10.7953
▁toilet	-10.7953
▁kilo	-10.7953
▁glance	-10.7953
▁instantly	-10.7953
▁personality	-10.7953
▁spring	-10.7953
▁golden	-10.7953
▁vase	-10.7953
▁edge	-10.7954
▁explosive	-10.7954
▁literally	-10.7954
▁imam	-10.7954
▁impression	-10.7955
▁prank	-10.7955
▁direction	-10.7955
▁intentionally	-10.7956
▁pants	-10.7956
▁dirty	-10.7957
▁vain	-10.7957
▁revealed	-10.7957
▁interviewed	-10.7957
▁chess	-10.7957
▁sunny	-10.7958
▁CD	-10.7959
▁painful	-10.7959
▁honey	-10.7959
▁observe	-10.7961
▁expert	-10.7961
ces	-10.7963
▁engineer	-10.7963
▁careful	-10.7964
▁sixty	-10.7965
uthorities	-10.7965
▁impact	-10.7965
▁climate	-10.7965
▁Talk	-10.7965
▁stoat	-10.7966
▁mystery	-10.7966
▁accompanie	-10.7967
▁North	-10.7967
▁soap	-10.7968
▁louder	-10.7969
▁embarrassed	-10.797
▁positive	-10.797
▁crashed	-10.797
▁rob	-10.797
▁punished	-10.797
▁frightened	-10.797
▁incredible	-10.7971
▁cancel	-10.7971
rture	-10.7972
▁polite	-10.7975
▁recovered	-10.7977
dium	-10.7977
▁ignored	-10.7978
▁verb	-10.798
▁removed	-10.798
▁iron	-10.798
▁earthquakes	-10.7981
▁slight	-10.7982
▁manager	-10.7984
▁finds	-10.7986
▁pride	-10.7986
▁design	-10.7988
▁adventure	-10.7988
▁wheat	-10.799
▁perish	-10.7992
▁Find	-10.7992
▁required	-10.7994
▁inject	-10.7997
▁Ask	-10.7998
▁stronger	-10.8
▁seriously	-10.8001
▁18	-10.8002
▁Book	-10.8003
▁mix	-10.8004
▁actor	-10.8007
oth	-10.8009
▁defend	-10.8009
▁Speaking	-10.8011
▁Almost	-10.8011
▁kicking	-10.8015
▁forgetful	-10.8019
▁image	-10.8027
▁attraction	-10.8028
▁Day	-10.8032
▁noobs	-10.8033
▁larger	-10.8034
▁prostitutes	-10.8034
▁survived	-10.8034
▁fooled	-10.8036
▁laun	-10.8037
▁falling	-10.804
▁traditional	-10.804
alling	-10.8049
▁indisp	-10.8049
▁hunt	-10.8056
▁candy	-10.8057
▁artist	-10.8059
▁ticked	-10.8061
▁divorced	-10.8062
▁flu	-10.8062
▁jam	-10.8063
▁Work	-10.8064
▁gold	-10.8074
▁rare	-10.8076
hood	-10.808
▁robber	-10.8081
▁guests	-10.8084
▁ideals	-10.8086
▁smoked	-10.8086
▁ghosts	-10.8088
▁shooting	-10.8092
▁bribe	-10.8099
▁ticks	-10.81
▁board	-10.8106
▁products	-10.811
▁successful	-10.8111
scription	-10.8114
▁corr	-10.8121
▁growing	-10.8121
▁experienced	-10.8123
▁Sato	-10.8133
coming	-10.8134
▁vo	-10.8136
▁rough	-10.8144
▁union	-10.8146
▁spots	-10.8151
▁robb	-10.8161
▁style	-10.8166
▁loca	-10.8173
▁cheer	-10.8174
ong	-10.8176
▁foreigner	-10.8178
▁cops	-10.8183
▁score	-10.8183
ware	-10.8185
▁strangers	-10.8199
▁messenger	-10.8207
ol	-10.8213
▁third	-10.8214
▁contribut	-10.8225
med	-10.8228
▁impos	-10.8229
ki	-10.8235
▁Bot	-10.8243
▁Kha	-10.8247
ty	-10.8268
▁sum	-10.827
▁workers	-10.8274
▁goals	-10.8299
oes	-10.8308
▁forces	-10.8309
▁Ba	-10.8312
▁stink	-10.8318
▁Jews	-10.8319
▁wind	-10.832
occupied	-10.8322
▁stu	-10.8324
▁product	-10.8356
5.	-10.8359
▁lessons	-10.836
▁rainy	-10.8361
Be	-10.8376
served	-10.8413
▁translations	-10.8415
ipping	-10.8423
▁bare	-10.8427
▁holes	-10.8432
▁clubs	-10.8452
▁Pol	-10.8457
▁import	-10.8477
ack	-10.8496
▁Gu	-10.8514
▁tr	-10.8516
65	-10.8519
▁facts	-10.8522
▁verses	-10.8526
ongratulat	-10.8549
ure	-10.8562
▁hom	-10.8582
▁fin	-10.8584
▁respond	-10.8595
▁Ten	-10.8604
lation	-10.8623
lapto	-10.8627
▁seconds	-10.863
▁understanding	-10.8655
▁Jo	-10.8657
rol	-10.8662
where	-10.8666
icated	-10.8668
venge	-10.8676
▁hesitate	-10.8684
av	-10.869
ssive	-10.8692
▁celebrate	-10.8692
▁writer	-10.8695
ps	-10.87
▁measure	-10.8704
▁exercise	-10.8707
rush	-10.8711
▁pound	-10.8711
▁ease	-10.8719
ollow	-10.8734
cy	-10.8745
lo	-10.8757
▁base	-10.879
▁humans	-10.8796
enty	-10.8808
ced	-10.8808
▁separate	-10.8813
store	-10.8839
istic	-10.8849
▁con	-10.8872
▁wound	-10.888
▁buildings	-10.8901
▁fill	-10.8902
ld	-10.8906
ens	-10.8909
cles	-10.8909
urned	-10.8916
▁clapp	-10.8948
ox	-10.8949
▁secrets	-10.8954
rang	-10.8954
▁Shi	-10.897
▁Drive	-10.8974
ot	-10.8983
mbles	-10.8998
ze	-10.9004
ese	-10.9018
Two	-10.904
my	-10.9041
▁communit	-10.9042
▁organize	-10.9059
mal	-10.9109
▁Ar	-10.9122
▁famili	-10.9131
ational	-10.9158
ning	-10.9159
idnight	-10.9168
▁oppose	-10.9216
iness	-10.9258
ping	-10.926
up	-10.9302
tion	-10.9304
ger	-10.9316
ities	-10.9327
▁reasons	-10.9333
▁shad	-10.9345
chi	-10.9359
▁Un	-10.9361
▁heat	-10.9363
threatening	-10.9389
ond	-10.9397
ta	-10.9404
ned	-10.9408
ama	-10.9424
▁practic	-10.9443
▁Ha	-10.9446
▁promote	-10.9451
▁din	-10.9453
ized	-10.9467
pressed	-10.9483
zing	-10.9489
ka	-10.9507
fe	-10.952
▁Da	-10.9529
iff	-10.9535
tained	-10.9555
bo	-10.9557
▁shoulder	-10.9571
▁walks	-10.9592
yon	-10.9597
▁limit	-10.9599
▁pig	-10.9604
He	-10.9625
vious	-10.9664
right	-10.9668
▁fa	-10.9691
uch	-10.9721
raise	-10.9779
▁ste	-10.9793
▁bou	-10.9807
▁despi	-10.982
rel	-10.9826
ching	-10.9831
like	-10.9835
▁colds	-10.9861
▁che	-10.9895
▁Ro	-10.9935
ole	-10.9974
▁Univers	-10.9994
▁rooms	-11.0002
▁coloni	-11.0038
ny	-11.0046
▁mis	-11.0046
hink	-11.0063
pha	-11.0064
,000	-11.0068
▁ob	-11.0075
illed	-11.0084
iny	-11.0092
▁ar	-11.0096
hed	-11.0103
▁hop	-11.0128
▁industr	-11.013
▁struggle	-11.0134
lled	-11.016
▁mot	-11.0162
ches	-11.0171
ast	-11.0172
▁stops	-11.0179
▁Tel	-11.021
▁vi	-11.0252
▁rap	-11.0263
pe	-11.0328
ppo	-11.0343
ants	-11.0354
arely	-11.0369
ilitar	-11.039
▁rat	-11.0406
▁Wal	-11.041
ious	-11.0435
▁50	-11.0473
wel	-11.0485
▁ag	-11.0486
▁include	-11.0493
miles	-11.0508
▁mass	-11.0519
▁dr	-11.0523
bed	-11.055
▁Mi	-11.0557
▁reco	-11.057
oleste	-11.0586
▁col	-11.0594
▁typi	-11.0609
▁seri	-11.062
▁dev	-11.0626
▁lov	-11.0679
▁Mu	-11.0702
ended	-11.0724
room	-11.0736
ala	-11.075
O	-11.0758
▁bur	-11.0759
Please	-11.0781
▁comp	-11.0815
ile	-11.0822
ured	-11.0844
▁Kl	-11.0871
have	-11.088
teen	-11.0882
▁Fa	-11.0883
ath	-11.0885
▁rais	-11.0887
nia	-11.0906
urn	-11.0907
under	-11.0931
rom	-11.0932
conscious	-11.0936
▁Bru	-11.0939
heart	-11.0951
▁De	-11.0953
nt	-11.0956
nother	-11.0958
ding	-11.0962
100	-11.0963
And	-11.0964
itated	-11.0982
working	-11.0984
sexual	-11.0986
2	-11.0994
▁Mo	-11.0995
human	-11.0996
style	-11.0998
American	-11.1003
Oh	-11.1009
So	-11.1015
ved	-11.1022
▁Sea	-11.1042
six	-11.1044
ounding	-11.1051
N	-11.1053
Y	-11.1066
▁mathematic	-11.1067
▁password	-11.1068
▁investigator	-11.1069
olution	-11.1075
Well	-11.1081
▁sorrow	-11.1083
awa	-11.1084
held	-11.1084
▁reserve	-11.1092
drid	-11.1093
▁wi	-11.1093
▁ghost	-11.1094
▁holiday	-11.1101
▁guest	-11.1101
▁cousin	-11.1102
▁Lib	-11.1114
sed	-11.1115
▁benefi	-11.1126
▁bee	-11.1127
▁v	-11.1129
nswer	-11.1131
▁bright	-11.1135
▁Ab	-11.1136
nounce	-11.1157
ditionally	-11.1159
▁occup	-11.1163
▁tru	-11.1171
▁More	-11.1174
ainted	-11.1195
▁politic	-11.1197
▁ideal	-11.1198
▁sex	-11.1203
▁phones	-11.1207
▁thoughts	-11.121
q	-11.1213
▁willing	-11.1214
▁Africa	-11.1221
ject	-11.1223
▁remove	-11.1244
▁terror	-11.1245
▁build	-11.1257
▁Wash	-11.1259
uccess	-11.127
peech	-11.127
▁memoriz	-11.1272
nvestigators	-11.1276
▁democra	-11.1276
▁comfort	-11.1277
nternational	-11.1278
▁Si	-11.1278
ncluded	-11.1278
▁ham	-11.1279
▁effect	-11.1281
clusion	-11.1283
▁(	-11.1283
▁grammatical	-11.1283
)	-11.1283
”	-11.1283
▁April	-11.1283
▁Chicken	-11.1283
▁Halloween	-11.1283
▁Harvard	-11.1283
▁Laurie	-11.1283
▁October	-11.1283
▁Sentences	-11.1283
▁Shakespeare	-11.1283
▁Shanghai	-11.1283
▁Tanaka	-11.1283
▁Thursday	-11.1283
▁Tripoli	-11.1283
▁abandoned	-11.1283
▁ambassador	-11.1283
▁anniversary	-11.1283
▁assault	-11.1283
▁autumn	-11.1283
▁behavior	-11.1283
▁cinema	-11.1283
▁circle	-11.1283
▁conscience	-11.1283
▁conservative	-11.1283
▁discriminat	-11.1283
▁disgrace	-11.1283
▁disregard	-11.1283
▁elevator	-11.1283
▁exaggerate	-11.1283
▁exhausted	-11.1283
▁extraordinar	-11.1283
▁genius	-11.1283
▁hydrogen	-11.1283
▁indicate	-11.1283
▁inevitable	-11.1283
▁injuries	-11.1283
▁jungle	-11.1283
▁mailbox	-11.1283
▁miracle	-11.1283
▁neighbour	-11.1283
▁occasion	-11.1283
▁pharmacy	-11.1283
▁pronunciation	-11.1283
▁purchase	-11.1283
▁schedule	-11.1283
▁scientific	-11.1283
▁stunned	-11.1283
▁symptoms	-11.1283
▁unbearabl	-11.1283
▁unlucky	-11.1283
▁verdict	-11.1283
▁violence	-11.1283
▁volleyball	-11.1283
▁Berlin	-11.1283
▁intrigu	-11.1283
▁laundry	-11.1283
▁ruthless	-11.1283
é	-11.1283
▁Depression	-11.1283
▁Romans	-11.1283
▁Seriously	-11.1283
▁orphan	-11.1283
▁yucky	-11.1283
▁zero	-11.1283
▁asthma	-11.1283
▁basket	-11.1283
▁dentist	-11.1283
hampagne	-11.1283
lobal	-11.1283
▁Canadian	-11.1283
▁Catholic	-11.1283
▁Louder	-11.1283
▁determin	-11.1283
▁eliminate	-11.1283
▁harvest	-11.1283
▁Norway	-11.1283
▁Washington	-11.1283
▁calculat	-11.1283
▁portra	-11.1283
▁aliens	-11.1283
▁footsteps	-11.1283
▁sneez	-11.1283
▁zoo	-11.1283
▁Street	-11.1283
▁exempt	-11.1283
▁crawl	-11.1283
▁Robert	-11.1283
▁decline	-11.1283
▁individual	-11.1283
▁insurance	-11.1283
▁journey	-11.1283
▁picnic	-11.1283
▁Green	-11.1283
▁focus	-11.1283
▁specific	-11.1283
▁froze	-11.1283
▁whistle	-11.1283
▁Aaron	-11.1283
▁Quick	-11.1283
▁insisted	-11.1283
▁Hungarian	-11.1283
▁puppy	-11.1283
▁dumpster	-11.1283
▁declar	-11.1283
▁adopt	-11.1283
▁imagination	-11.1283
▁resort	-11.1283
▁jacket	-11.1283
▁prize	-11.1283
▁invitation	-11.1283
▁afterwards	-11.1283
▁Peace	-11.1283
▁Kids	-11.1283
▁Generally	-11.1283
▁population	-11.1284
▁spoil	-11.1284
▁relax	-11.1284
▁cartoon	-11.1284
▁Grand	-11.1284
▁unusual	-11.1284
▁pleasure	-11.1284
▁flash	-11.1284
▁cooperation	-11.1284
▁handbag	-11.1284
▁conviction	-11.1284
osaur	-11.1284
▁magic	-11.1284
▁abusive	-11.1284
▁uncon	-11.1284
▁congratulate	-11.1284
▁hammer	-11.1284
▁deaf	-11.1284
necessarily	-11.1284
▁adjust	-11.1284
▁depressed	-11.1284
▁creative	-11.1284
scope	-11.1284
hidi	-11.1284
▁Jackson	-11.1285
▁department	-11.1285
▁electricity	-11.1285
▁snack	-11.1285
▁Lebanon	-11.1285
▁familiar	-11.1285
▁babies	-11.1285
▁Always	-11.1285
▁Latin	-11.1285
▁weakness	-11.1285
▁gentlemen	-11.1285
▁spouse	-11.1285
▁organization	-11.1285
jah	-11.1285
▁rescue	-11.1285
▁Taro	-11.1285
▁forums	-11.1285
▁robot	-11.1285
▁habit	-11.1285
▁Kong	-11.1285
▁pissed	-11.1285
▁strawberries	-11.1285
▁regain	-11.1285
▁Rock	-11.1286
▁textbook	-11.1286
▁compli	-11.1286
▁surgeon	-11.1286
▁football	-11.1286
▁network	-11.1286
▁scientist	-11.1286
▁economically	-11.1286
▁oppressi	-11.1286
▁cruel	-11.1286
▁technolog	-11.1287
▁committe	-11.1287
▁addiction	-11.1287
▁teenager	-11.1287
▁easi	-11.1287
80	-11.1287
▁butcher	-11.1287
▁denied	-11.1288
▁witness	-11.1288
▁dump	-11.1288
▁35	-11.1289
▁spade	-11.1289
▁trap	-11.1289
▁poetry	-11.1289
▁bleeding	-11.129
▁horrible	-11.129
▁revenge	-11.129
▁expression	-11.129
avor	-11.129
▁creed	-11.1291
▁shaking	-11.1291
▁online	-11.1291
▁legal	-11.1291
30	-11.1291
▁Finally	-11.1291
▁beaut	-11.1292
▁iP	-11.1292
▁paranoid	-11.1293
▁baptized	-11.1293
▁immature	-11.1293
▁movement	-11.1293
▁negative	-11.1293
▁philosopher	-11.1293
▁summoned	-11.1293
▁Wood	-11.1294
▁beginning	-11.1294
▁humanity	-11.1295
▁rubb	-11.1295
▁nap	-11.1295
▁memorize	-11.1296
▁duck	-11.1296
▁humiliate	-11.1296
▁upper	-11.1297
▁grand	-11.1297
▁Fish	-11.1299
▁mark	-11.13
▁increasing	-11.13
▁excited	-11.13
▁bubbl	-11.1301
▁Kabyle	-11.1303
▁Once	-11.1304
▁beef	-11.1304
▁Right	-11.1305
▁kidnapped	-11.1305
▁Alice	-11.1306
▁Over	-11.1306
▁heaven	-11.1307
▁square	-11.1308
▁nerve	-11.1309
▁riding	-11.1309
minated	-11.1309
▁circus	-11.1309
▁artificial	-11.131
▁cru	-11.131
▁distan	-11.1311
▁tiff	-11.1312
▁injury	-11.1313
▁oven	-11.1313
▁motion	-11.1317
▁initia	-11.1317
▁Bil	-11.1318
▁fulfill	-11.1318
▁tele	-11.1318
▁threat	-11.1319
▁illus	-11.1319
▁Mark	-11.1319
▁drag	-11.1319
▁below	-11.132
▁Moses	-11.1321
▁filling	-11.1322
rifle	-11.1323
edible	-11.1327
▁screaming	-11.1327
▁Iraq	-11.1327
▁degrees	-11.1328
▁weapons	-11.1328
▁bananas	-11.1328
▁challenges	-11.1328
▁anxi	-11.1332
errific	-11.1334
▁candies	-11.1336
▁14	-11.1337
▁passion	-11.1338
▁Cut	-11.1339
▁maid	-11.134
▁defeat	-11.134
▁delay	-11.1342
▁deer	-11.1342
ivorce	-11.1343
▁Union	-11.1345
democracy	-11.1345
▁confirm	-11.1345
▁African	-11.1345
▁deny	-11.1347
urine	-11.1347
▁raped	-11.1351
▁resent	-11.1352
▁safely	-11.1352
▁adore	-11.1353
▁member	-11.1354
▁unite	-11.1354
▁vice	-11.1355
rust	-11.1357
▁Google	-11.1358
▁justif	-11.136
▁golf	-11.136
▁higher	-11.1363
burg	-11.1363
▁Lock	-11.1364
▁closely	-11.1367
▁repeated	-11.1368
▁poisoned	-11.1369
▁discussed	-11.137
▁Ze	-11.1372
aring	-11.1372
▁blocked	-11.1376
▁hug	-11.1377
▁spir	-11.1377
▁Drink	-11.1379
jam	-11.138
stalled	-11.1381
nspir	-11.1385
▁sources	-11.1388
▁coin	-11.1389
▁flat	-11.1391
▁distincti	-11.1392
lves	-11.1393
▁resigned	-11.1393
▁ta	-11.1394
▁capaci	-11.1398
▁exten	-11.1399
▁wishes	-11.1399
▁dear	-11.14
ghett	-11.14
▁brand	-11.1401
▁shocked	-11.1403
▁classmates	-11.1406
▁soldiers	-11.1406
▁benefits	-11.1407
▁snakes	-11.1408
▁breathe	-11.141
▁muff	-11.1411
▁coins	-11.1411
▁dish	-11.1412
▁cookies	-11.1413
▁added	-11.1418
▁self	-11.1419
▁scars	-11.142
▁tick	-11.1421
▁gra	-11.1426
▁attending	-11.1426
▁shake	-11.1428
▁loser	-11.1432
ebook	-11.1434
▁propos	-11.1439
iers	-11.1441
▁joy	-11.1444
truck	-11.1447
▁musical	-11.1448
▁Word	-11.1449
▁elde	-11.1452
resist	-11.1453
wa	-11.1454
ial	-11.1454
▁section	-11.1467
▁Ver	-11.1468
▁turb	-11.1469
▁cur	-11.1473
▁Ali	-11.1474
▁bug	-11.148
▁moral	-11.1481
directly	-11.1487
▁excuse	-11.1489
▁candle	-11.1489
▁roo	-11.1491
▁yo	-11.1502
▁sham	-11.1503
▁expense	-11.1504
▁talents	-11.1506
▁rearing	-11.1526
▁parti	-11.1527
▁shade	-11.1528
▁records	-11.1532
▁4	-11.1539
tal	-11.1546
▁youth	-11.1554
▁Him	-11.1554
▁cast	-11.1555
even	-11.1555
▁jokes	-11.1556
▁attac	-11.1559
▁regards	-11.1559
ations	-11.1559
eval	-11.1563
▁detectives	-11.1564
▁Mar	-11.1566
ber	-11.1572
▁dates	-11.1574
ns	-11.1581
njoy	-11.1585
▁fled	-11.1586
▁worker	-11.1601
▁Ale	-11.161
▁travell	-11.1613
ically	-11.1617
▁complains	-11.1623
▁audi	-11.1625
omen	-11.1626
▁Learn	-11.1636
z	-11.1641
▁figures	-11.1642
▁joint	-11.1667
▁lion	-11.1671
im	-11.1673
▁addressed	-11.1675
▁Asia	-11.168
▁blonde	-11.1693
mount	-11.1712
▁fate	-11.1713
▁endur	-11.1714
for	-11.1719
lect	-11.1719
▁Won	-11.1732
▁desert	-11.1742
iful	-11.1744
lung	-11.1745
cm	-11.1746
hair	-11.1755
▁loss	-11.1761
▁yell	-11.1775
▁theft	-11.1775
▁socialis	-11.1779
▁interfere	-11.1783
▁events	-11.1789
▁deed	-11.1794
▁rise	-11.1795
▁machines	-11.1802
rate	-11.1806
lower	-11.1807
▁1,	-11.1822
▁wise	-11.1825
4	-11.1829
▁answering	-11.1835
given	-11.184
▁resting	-11.1843
▁occurre	-11.1853
▁mild	-11.1875
▁searche	-11.1875
▁gamble	-11.1908
used	-11.1918
▁Grac	-11.1925
▁predict	-11.1929
▁sne	-11.1946
▁sexual	-11.1955
rus	-11.1961
▁Algerians	-11.1972
arbi	-11.1977
▁charges	-11.1988
oodbye	-11.1994
op	-11.2
▁pun	-11.2005
▁wears	-11.2021
▁Part	-11.2026
▁typ	-11.2027
handed	-11.203
▁Spo	-11.2032
▁blow	-11.2039
▁condo	-11.2044
▁spa	-11.2051
▁wave	-11.2053
ised	-11.2064
▁acc	-11.2085
distribute	-11.2104
▁grant	-11.2111
▁cl	-11.2115
▁bone	-11.2119
▁sin	-11.2122
▁tale	-11.2126
ility	-11.2129
▁forest	-11.2131
▁seats	-11.2132
▁imagine	-11.2134
▁min	-11.2137
sters	-11.2142
▁pure	-11.2145
inally	-11.2146
▁liter	-11.2147
▁ending	-11.2165
▁Ok	-11.217
▁tests	-11.2176
▁drown	-11.2176
▁spell	-11.2185
titude	-11.2188
▁showe	-11.2198
rcraft	-11.2217
▁dec	-11.2218
▁gi	-11.2239
gust	-11.2244
▁lovely	-11.2248
▁acts	-11.2266
▁incredibl	-11.2267
▁pages	-11.2268
hold	-11.2271
▁Ka	-11.2279
ering	-11.2305
een	-11.2331
▁skip	-11.235
▁Star	-11.2351
▁extremis	-11.2353
▁wh	-11.236
▁fighter	-11.2372
anger	-11.2373
of	-11.2379
▁recover	-11.2391
▁hill	-11.2398
lack	-11.2399
easing	-11.2403
▁mall	-11.2424
was	-11.2426
len	-11.2434
ear	-11.2441
▁Com	-11.2462
ures	-11.2466
▁mothers	-11.2485
▁Ta	-11.2485
nything	-11.25
ani	-11.2502
▁100	-11.2537
fore	-11.2539
▁syn	-11.254
ache	-11.255
▁swi	-11.2552
▁5	-11.2556
▁Fe	-11.2557
cademy	-11.2561
audi	-11.257
▁walls	-11.2622
▁stores	-11.2635
▁critici	-11.2642
tune	-11.2648
ig	-11.2648
▁envi	-11.2675
▁pr	-11.2693
▁bedrooms	-11.2747
▁rum	-11.2748
lan	-11.2751
ord	-11.276
▁fli	-11.2765
▁sir	-11.2768
cut	-11.2777
▁communicate	-11.2795
▁Ra	-11.2806
ya	-11.2818
nnocence	-11.2861
▁tempt	-11.287
new	-11.2895
aziness	-11.2897
▁roll	-11.2907
riko	-11.2914
▁rese	-11.2931
▁pi	-11.2951
abilit	-11.2953
▁employe	-11.2953
▁lands	-11.2953
▁str	-11.296
▁bal	-11.2967
ob	-11.2977
ds	-11.2978
▁toleran	-11.2989
tail	-11.299
wn	-11.3039
▁disp	-11.3041
constitution	-11.3046
▁Su	-11.3077
can	-11.3087
▁promi	-11.31
day	-11.3119
▁Less	-11.313
ents	-11.3143
▁cock	-11.3157
▁convers	-11.316
sible	-11.3206
▁recogniz	-11.3251
nch	-11.3254
ging	-11.3259
ural	-11.3261
ones	-11.327
aged	-11.3286
▁applie	-11.3287
▁matters	-11.3297
alth	-11.3302
lies	-11.3306
tory	-11.3309
ners	-11.3317
ey	-11.332
▁riches	-11.3328
mate	-11.3332
1.	-11.3349
▁purs	-11.3383
pping	-11.3392
con	-11.3394
mon	-11.3446
▁pol	-11.3464
▁stain	-11.3469
traged	-11.3489
▁Dea	-11.3526
un	-11.3556
liable	-11.3571
▁happi	-11.3608
▁neare	-11.3643
ether	-11.3666
novat	-11.3669
raged	-11.3719
▁charg	-11.3738
proved	-11.3749
moking	-11.375
alk	-11.3767
ud	-11.3782
well	-11.3828
fully	-11.3842
▁teas	-11.3857
lement	-11.3859
▁je	-11.389
▁Pr	-11.3911
rd	-11.3926
▁j	-11.3936
rried	-11.3938
▁15	-11.3941
▁ass	-11.3945
amp	-11.397
▁ko	-11.3975
▁starts	-11.4
gation	-11.4014
▁imp	-11.4026
ophi	-11.4031
▁thi	-11.4046
tched	-11.4051
vision	-11.4063
tand	-11.4081
▁factor	-11.409
minded	-11.4118
▁medi	-11.4134
ecut	-11.4145
▁Mari	-11.4157
▁pan	-11.4164
iz	-11.419
tten	-11.4241
sure	-11.4243
▁plant	-11.4273
▁app	-11.4287
▁houses	-11.4295
▁ones	-11.4311
▁vul	-11.4315
Is	-11.4316
rb	-11.4317
shi	-11.4323
don	-11.4364
▁faces	-11.4367
▁Le	-11.4373
ears	-11.4373
you	-11.4388
▁rec	-11.4389
▁Laugh	-11.4392
▁critic	-11.4392
ami	-11.4401
▁ac	-11.4407
worthy	-11.4416
▁bas	-11.4436
umid	-11.4439
▁Vi	-11.4445
j	-11.4456
pite	-11.4464
oo	-11.4487
cord	-11.4487
ons	-11.449
B	-11.4496
ery	-11.4558
ft	-11.4569
confident	-11.4572
lap	-11.4612
▁unle	-11.4633
▁Sp	-11.465
ea	-11.4688
▁blas	-11.47
ank	-11.4711
▁compet	-11.4713
▁Compa	-11.4767
▁pat	-11.4788
▁Che	-11.4796
bra	-11.4817
port	-11.482
eceived	-11.483
rated	-11.4839
▁nu	-11.4847
▁pled	-11.4856
omething	-11.4874
lent	-11.4879
▁tour	-11.4881
▁Bir	-11.4891
ift	-11.4912
craft	-11.4926
lite	-11.4958
des	-11.4962
▁guar	-11.497
idn	-11.498
▁serv	-11.4982
work	-11.4983
▁dra	-11.499
▁rev	-11.5002
egard	-11.5002
ran	-11.5009
▁host	-11.5016
ries	-11.5035
▁god	-11.5043
mum	-11.5061
ither	-11.5064
Some	-11.5085
cked	-11.5099
▁dies	-11.5105
▁represent	-11.5139
mart	-11.516
▁Tim	-11.5179
▁etern	-11.5206
▁El	-11.5226
lingu	-11.5232
▁Teach	-11.5254
▁itch	-11.528
yo	-11.5283
heating	-11.5293
econd	-11.5316
▁claim	-11.534
house	-11.5352
Why	-11.5355
▁Des	-11.5358
▁appreciat	-11.5363
▁exp	-11.5379
▁whi	-11.5385
How	-11.5385
ops	-11.5388
▁pla	-11.5399
ftar	-11.5405
ain	-11.5409
▁occur	-11.5415
ible	-11.5425
ety	-11.5428
▁expe	-11.5434
gue	-11.5436
▁combin	-11.5443
ncil	-11.5452
▁fac	-11.5466
odbye	-11.5513
izing	-11.5514
▁homes	-11.5518
▁Driv	-11.5523
nent	-11.5537
ttle	-11.5561
▁exc	-11.5563
Don	-11.558
itude	-11.5588
▁author	-11.5595
▁Wi	-11.5596
read	-11.561
tri	-11.5618
v	-11.5626
ump	-11.5627
▁wit	-11.5631
▁wrap	-11.5658
▁slave	-11.5662
bet	-11.5678
hen	-11.5683
ports	-11.5702
▁obli	-11.5703
▁reme	-11.5707
▁vis	-11.5715
ssengers	-11.5725
▁Ru	-11.5749
▁Au	-11.5752
P	-11.5764
▁associat	-11.5768
lights	-11.578
gic	-11.5781
tional	-11.5812
pre	-11.5816
Sure	-11.5823
down	-11.5823
heard	-11.5826
water	-11.5834
ories	-11.5836
class	-11.5858
tay	-11.5859
fire	-11.5867
gram	-11.5868
▁ignor	-11.5868
gu	-11.5868
▁Fro	-11.5873
▁snu	-11.5874
▁Know	-11.5875
change	-11.5876
▁cha	-11.5883
▁201	-11.5896
great	-11.5897
▁vers	-11.5905
food	-11.5906
ssenti	-11.5909
hungry	-11.5914
atic	-11.5915
▁compa	-11.5916
▁doll	-11.5921
▁definite	-11.5922
▁direct	-11.5942
board	-11.5944
ham	-11.5946
icked	-11.5949
Yeah	-11.5949
hole	-11.5951
▁Ja	-11.5957
different	-11.5964
▁smil	-11.5969
Nothing	-11.597
ult	-11.5983
bar	-11.5988
unny	-11.5991
▁scar	-11.5992
clear	-11.5996
got	-11.5996
solve	-11.6002
foot	-11.6005
answered	-11.601
tterly	-11.6015
section	-11.6025
riches	-11.6026
Con	-11.6027
IS	-11.6031
comfortable	-11.6032
locked	-11.6045
▁ninet	-11.6051
▁Chris	-11.6053
▁custom	-11.6054
cent	-11.6054
moral	-11.6057
ibi	-11.6062
bul	-11.6065
▁victim	-11.6068
▁pupil	-11.6068
workers	-11.6073
uess	-11.6079
▁soldier	-11.6086
▁comment	-11.6086
▁classmate	-11.609
G	-11.6092
▁snake	-11.6094
▁cookie	-11.6098
▁option	-11.61
▁detail	-11.61
loved	-11.6102
▁stamp	-11.6105
▁border	-11.6107
▁prostitute	-11.611
▁error	-11.611
▁noob	-11.6116
▁cure	-11.6119
glasses	-11.6121
ier	-11.6144
ightning	-11.6156
▁polic	-11.6162
udi	-11.617
▁clu	-11.6171
▁choos	-11.6179
▁sla	-11.6181
Vi	-11.6184
ise	-11.6188
▁discover	-11.619
ability	-11.6192
▁physic	-11.6192
ology	-11.6194
▁racis	-11.6213
elu	-11.6216
▁impress	-11.6218
▁maj	-11.6219
▁Georgia	-11.6221
▁disturb	-11.6231
▁shell	-11.6233
▁punish	-11.6237
▁embarrass	-11.6238
▁frighten	-11.6238
estic	-11.6239
▁crash	-11.6239
▁bark	-11.624
▁scree	-11.624
▁disappear	-11.6242
▁possibilit	-11.6243
▁guilt	-11.6245
▁Hurr	-11.6245
▁possibl	-11.6249
▁engine	-11.6253
▁confus	-11.6256
▁rid	-11.6257
▁annoy	-11.6257
▁saving	-11.6258
raffic	-11.626
plane	-11.6261
poo	-11.6263
▁appro	-11.6263
icket	-11.6265
graphy	-11.6265
wimming	-11.627
▁crowd	-11.627
quir	-11.6271
▁differ	-11.6277
▁profession	-11.6278
ootball	-11.6279
▁civil	-11.6279
▁priva	-11.628
▁govern	-11.628
▁porn	-11.628
▁quar	-11.628
ontinue	-11.628
▁necess	-11.628
▁affect	-11.6281
zuk	-11.6281
hannel	-11.6282
▁electric	-11.6282
▁Spani	-11.6282
▁$	-11.6282
▁hypo	-11.6283
▁Democrat	-11.6283
▁Magdalena	-11.6283
▁Sebast	-11.6283
▁accommodat	-11.6283
▁architectur	-11.6283
▁diagnos	-11.6283
▁sympath	-11.6283
*	-11.6283
advantage	-11.6283
isfortunes	-11.6283
stanbul	-11.6283
ه	-11.6283
▁Alexandria	-11.6283
▁Attention	-11.6283
▁Bejaia	-11.6283
▁Belgium	-11.6283
▁Carlos	-11.6283
▁Chopin	-11.6283
▁Croatia	-11.6283
▁December	-11.6283
▁Edinburgh	-11.6283
▁Elizabeth	-11.6283
▁Estonia	-11.6283
▁Explain	-11.6283
▁Francisco	-11.6283
▁Hamlet	-11.6283
▁Hiroshi	-11.6283
▁Hokkaido	-11.6283
▁Morocco	-11.6283
▁Mustafa	-11.6283
▁Norwegian	-11.6283
▁Picasso	-11.6283
▁Sachiko	-11.6283
▁Spirit	-11.6283
▁Swahili	-11.6283
▁Tuesday	-11.6283
▁Ukrain	-11.6283
▁Uyghur	-11.6283
▁Yamada	-11.6283
▁aggressive	-11.6283
▁ambition	-11.6283
▁antibiotics	-11.6283
▁arrogan	-11.6283
▁attorney	-11.6283
▁calendar	-11.6283
▁circumstances	-11.6283
▁condemn	-11.6283
▁consequences	-11.6283
▁consumption	-11.6283
▁corresponde	-11.6283
▁custody	-11.6283
▁dartboard	-11.6283
▁database	-11.6283
▁distinguish	-11.6283
▁equipment	-11.6283
▁establishment	-11.6283
▁exclusive	-11.6283
▁fascist	-11.6283
▁fingerprint	-11.6283
▁fragile	-11.6283
▁furniture	-11.6283
▁gorgeous	-11.6283
▁horizon	-11.6283
▁infidel	-11.6283
▁intimidat	-11.6283
▁kindergarten	-11.6283
▁lieutenant	-11.6283
▁mafia	-11.6283
▁manufactur	-11.6283
▁mechanic	-11.6283
▁milkshake	-11.6283
▁observant	-11.6283
▁octopus	-11.6283
▁playground	-11.6283
▁potatoes	-11.6283
▁poverty	-11.6283
▁practising	-11.6283
▁predator	-11.6283
▁professor	-11.6283
▁puzzled	-11.6283
▁racket	-11.6283
▁relief	-11.6283
▁satisfactory	-11.6283
▁scorpions	-11.6283
▁semester	-11.6283
▁souvenir	-11.6283
▁spectacular	-11.6283
▁strategy	-11.6283
▁subscribe	-11.6283
▁sunrise	-11.6283
▁sunscreen	-11.6283
▁supervisor	-11.6283
▁suspicion	-11.6283
▁trousers	-11.6283
▁tunnel	-11.6283
▁unavoidable	-11.6283
▁unpredictab	-11.6283
▁vilify	-11.6283
▁whiplash	-11.6283
▁Silence	-11.6283
convenien	-11.6283
▁Greek	-11.6283
▁Romania	-11.6283
▁accomplish	-11.6283
▁acknowledge	-11.6283
▁fascinat	-11.6283
▁irritat	-11.6283
▁nowadays	-11.6283
▁origina	-11.6283
▁peanuts	-11.6283
▁radical	-11.6283
▁spiders	-11.6283
▁stubborn	-11.6283
▁Armenia	-11.6283
▁acquaint	-11.6283
▁calligraphy	-11.6283
▁crippl	-11.6283
pathy	-11.6283
▁civilization	-11.6283
▁conceal	-11.6283
▁suburb	-11.6283
▁eyebrow	-11.6283
▁Ocean	-11.6283
▁disrespect	-11.6283
▁gossip	-11.6283
▁plumber	-11.6283
▁abortion	-11.6283
▁intellectual	-11.6283
▁surface	-11.6283
▁deliver	-11.6283
▁integr	-11.6283
▁priorities	-11.6283
▁wildfire	-11.6283
▁astonish	-11.6283
▁lethal	-11.6283
▁participate	-11.6283
▁Spider	-11.6283
▁disabled	-11.6283
▁curtain	-11.6283
▁consciousness	-11.6283
▁revolv	-11.6283
▁backyard	-11.6283
▁contemp	-11.6283
▁object	-11.6283
▁paralyz	-11.6283
▁leisure	-11.6283
▁servants	-11.6283
▁supermarket	-11.6283
▁Congress	-11.6283
▁discount	-11.6283
▁eleven	-11.6283
▁Dutch	-11.6283
▁forehead	-11.6283
▁buddy	-11.6283
▁corrupt	-11.6283
▁partnership	-11.6283
▁possesse	-11.6283
▁belief	-11.6283
▁airtight	-11.6283
▁substance	-11.6283
▁blog	-11.6283
▁advertise	-11.6283
▁cynic	-11.6283
▁hostage	-11.6283
▁handwriting	-11.6283
▁$1	-11.6283
▁alliance	-11.6283
▁certifi	-11.6283
▁prostitution	-11.6283
▁Fuji	-11.6283
▁client	-11.6283
▁chaos	-11.6283
▁righteous	-11.6283
BC	-11.6284
▁distort	-11.6284
▁tuna	-11.6284
▁blanket	-11.6284
▁crossroad	-11.6284
▁obedien	-11.6284
▁3,000	-11.6284
▁Indeed	-11.6284
▁helicopter	-11.6284
▁aircraft	-11.6284
▁bleach	-11.6284
▁fittest	-11.6284
ocaine	-11.6284
▁empire	-11.6284
▁essay	-11.6284
▁precede	-11.6284
▁resume	-11.6284
▁wrestl	-11.6284
▁duties	-11.6284
▁alternative	-11.6284
▁papa	-11.6284
▁digging	-11.6284
▁sunset	-11.6284
▁Yoko	-11.6284
▁funeral	-11.6284
▁starving	-11.6284
▁unique	-11.6284
▁partner	-11.6284
▁2003	-11.6284
▁misery	-11.6284
▁corner	-11.6284
▁remarkable	-11.6284
▁Texa	-11.6284
▁steep	-11.6284
▁3,000,000	-11.6284
▁Damn	-11.6284
▁worries	-11.6284
▁grape	-11.6284
▁ignorance	-11.6284
▁pearl	-11.6284
eleph	-11.6284
▁defenseless	-11.6284
▁bullet	-11.6284
▁arrange	-11.6284
▁lemon	-11.6285
▁affection	-11.6285
▁ladies	-11.6285
ecca	-11.6285
▁Faster	-11.6285
▁ridiculous	-11.6285
Collect	-11.6285
estimate	-11.6285
▁testified	-11.6285
▁flex	-11.6285
▁porch	-11.6285
▁basement	-11.6285
▁17	-11.6285
▁Republican	-11.6285
▁blackboard	-11.6285
▁Robot	-11.6285
▁Rob	-11.6285
▁beforehand	-11.6285
▁skinny	-11.6285
pines	-11.6286
▁melted	-11.6286
▁Jump	-11.6286
▁command	-11.6286
ggled	-11.6286
▁hastily	-11.6286
▁silk	-11.6286
▁Karam	-11.6286
▁kingdom	-11.6286
erenc	-11.6286
▁scarf	-11.6286
▁Iranian	-11.6286
▁unemployment	-11.6286
▁factories	-11.6286
▁melts	-11.6286
▁prostrat	-11.6286
▁Adam	-11.6286
▁violat	-11.6286
▁trading	-11.6286
▁civilian	-11.6287
▁Lisa	-11.6287
▁Charl	-11.6287
▁frequently	-11.6287
▁potent	-11.6287
▁historic	-11.6287
▁darkness	-11.6287
▁tomato	-11.6287
▁40	-11.6287
▁Flower	-11.6288
▁freeze	-11.6288
▁consent	-11.6288
▁data	-11.6288
▁Hope	-11.6288
▁content	-11.6288
▁neck	-11.6288
▁Henry	-11.6289
▁Hira	-11.6289
▁Shizu	-11.6289
▁sickness	-11.6289
▁queen	-11.6289
▁pornograph	-11.6289
▁peeking	-11.6289
▁Treat	-11.6289
▁potable	-11.6289
▁unlikely	-11.6289
▁campus	-11.6289
▁related	-11.6289
▁Surely	-11.6289
▁obsess	-11.6289
▁faithful	-11.6289
▁raven	-11.6289
▁lady	-11.6289
▁coron	-11.629
▁defense	-11.629
▁shelf	-11.629
rison	-11.629
▁broth	-11.629
zak	-11.629
▁Again	-11.629
▁ancest	-11.629
employment	-11.6291
▁abide	-11.6291
▁powerless	-11.6291
▁meaningless	-11.6291
▁appeal	-11.6291
▁attendance	-11.6291
nonym	-11.6292
▁cows	-11.6292
alism	-11.6292
▁quot	-11.6292
ctic	-11.6293
▁nuts	-11.6293
▁feather	-11.6293
▁skate	-11.6293
▁cloak	-11.6293
▁oneself	-11.6293
▁Div	-11.6293
▁chemist	-11.6294
▁Clearly	-11.6295
▁March	-11.6296
▁merit	-11.6296
▁rising	-11.6297
escue	-11.6297
Impossible	-11.6297
▁nick	-11.6297
▁slum	-11.6297
sitive	-11.6297
ncing	-11.6297
▁pitch	-11.6298
▁Militar	-11.6298
▁wheel	-11.6298
▁false	-11.6299
bsence	-11.6299
▁acid	-11.6299
▁stab	-11.63
▁published	-11.63
▁diary	-11.63
▁collapsed	-11.63
rithm	-11.63
▁trembl	-11.63
▁Polish	-11.6301
▁cough	-11.6301
reams	-11.6301
▁confessed	-11.6302
▁registered	-11.6302
▁hous	-11.6302
▁location	-11.6303
▁modes	-11.6304
▁sober	-11.6304
▁print	-11.6304
32	-11.6304
quarter	-11.6304
▁dwell	-11.6305
▁neg	-11.6306
▁pop	-11.6306
▁conduct	-11.6306
▁hijabi	-11.6306
▁donkey	-11.6307
▁breed	-11.6307
▁fortune	-11.6307
▁residenc	-11.6307
hoose	-11.6308
▁Austrian	-11.6308
▁Albanian	-11.6308
▁Paul	-11.6309
drift	-11.6309
▁smelt	-11.6309
diot	-11.631
▁financially	-11.631
▁illegally	-11.631
▁float	-11.6311
▁Swed	-11.6311
iece	-11.6311
▁basis	-11.6312
▁brain	-11.6313
▁stew	-11.6314
▁Meg	-11.6314
▁sank	-11.6314
▁psychiatrist	-11.6315
▁rape	-11.6316
▁Yid	-11.6316
▁weep	-11.6317
▁perfection	-11.6317
▁Clear	-11.6317
quired	-11.6317
▁magn	-11.6318
▁Reach	-11.6318
▁epi	-11.6319
▁everyday	-11.6319
▁modern	-11.632
▁fluent	-11.632
▁preserve	-11.6321
▁strongest	-11.6321
inguistic	-11.6321
▁brea	-11.6321
▁Hebr	-11.6322
▁naught	-11.6323
▁atheist	-11.6323
▁flaw	-11.6323
▁somehow	-11.6325
▁outraged	-11.6326
▁fift	-11.6327
▁vol	-11.6328
tech	-11.6329
▁soft	-11.633
rupt	-11.633
▁facilit	-11.6331
▁deter	-11.6331
▁discovery	-11.6332
▁Colo	-11.6333
▁halt	-11.6333
▁supplie	-11.6335
▁mood	-11.6335
arily	-11.6335
▁disturbed	-11.6335
▁brake	-11.6336
▁impressed	-11.6339
▁reasonable	-11.634
▁chest	-11.634
▁benefit	-11.634
▁identif	-11.634
▁nail	-11.6342
▁ticking	-11.6343
▁Lol	-11.6343
ape	-11.6344
▁burst	-11.6344
▁terrorize	-11.6345
▁nons	-11.6346
▁plates	-11.6347
▁screen	-11.6348
▁warmer	-11.6349
▁barked	-11.6349
▁Georgian	-11.6353
▁Homs	-11.6356
ija	-11.6356
▁deriv	-11.6357
▁num	-11.6357
uated	-11.6357
▁euros	-11.6358
▁excelle	-11.6361
skirts	-11.6361
▁pandas	-11.6362
ess	-11.6364
▁standards	-11.6364
▁Byzantines	-11.6364
▁customers	-11.6365
▁territor	-11.6367
otic	-11.6367
aradise	-11.6368
▁Honest	-11.637
▁Alg	-11.637
▁shooter	-11.637
▁astro	-11.637
▁trans	-11.6372
▁Shake	-11.6372
▁arriving	-11.6375
▁correctly	-11.6378
inated	-11.6378
▁fu	-11.6379
▁forbid	-11.638
▁Sin	-11.6381
▁hospitality	-11.6386
ival	-11.6388
▁psychologi	-11.6389
▁recorded	-11.6391
▁solv	-11.6393
▁heavi	-11.6394
▁tools	-11.6397
erous	-11.64
apers	-11.6401
▁thrill	-11.6402
redit	-11.6405
ously	-11.6405
▁mus	-11.6408
org	-11.6408
▁gray	-11.6408
alent	-11.641
▁Port	-11.641
▁Bang	-11.6412
ules	-11.6413
▁confidence	-11.6416
▁effective	-11.6417
viv	-11.6419
▁convict	-11.6419
▁wild	-11.6421
▁practised	-11.6422
▁financ	-11.6423
riel	-11.6426
▁Hungar	-11.6426
▁goods	-11.6427
ashed	-11.6429
▁soul	-11.6429
▁Break	-11.6429
▁genu	-11.643
rative	-11.6431
▁90	-11.6433
▁myster	-11.6434
▁jury	-11.6436
▁brow	-11.6438
▁overlook	-11.6439
▁smoker	-11.644
cted	-11.644
nglish	-11.6441
▁twin	-11.6443
▁inv	-11.6444
▁Bud	-11.6446
▁fixing	-11.6446
naut	-11.6448
▁poorly	-11.6448
oodle	-11.6452
▁cra	-11.6452
▁gather	-11.6454
▁conque	-11.6454
▁Boil	-11.6463
▁baker	-11.6463
▁hang	-11.6465
lding	-11.647
▁greeting	-11.6472
▁deadly	-11.6472
if	-11.6476
gnes	-11.6477
▁staring	-11.6483
▁thou	-11.6485
▁Ea	-11.6485
▁dust	-11.6492
▁denounc	-11.6492
▁Flor	-11.6495
cept	-11.6495
▁cleaner	-11.6495
▁stress	-11.6497
▁container	-11.6498
▁businesses	-11.6499
▁pupils	-11.6502
▁victims	-11.6502
▁comments	-11.6503
icide	-11.6503
▁prick	-11.6504
▁physics	-11.6505
▁customs	-11.6505
▁Bou	-11.6505
▁que	-11.6507
ontrol	-11.6508
▁electroc	-11.6508
▁ja	-11.6513
orate	-11.6517
▁City	-11.6519
▁jet	-11.6522
▁defin	-11.6523
▁slaves	-11.6526
nlighten	-11.6528
▁urge	-11.653
▁anti	-11.6537
▁Clau	-11.6544
rbi	-11.6555
ix	-11.6558
▁link	-11.6564
▁icy	-11.6564
▁neat	-11.6574
▁closer	-11.6577
▁waves	-11.6583
located	-11.6586
▁Lou	-11.6588
▁jell	-11.6589
▁cent	-11.659
▁prey	-11.6593
oreign	-11.6593
etective	-11.6596
▁96	-11.6597
▁fake	-11.6602
title	-11.6602
▁non	-11.6606
▁owner	-11.6606
▁Anna	-11.6609
▁Hall	-11.6611
▁Pa	-11.662
▁sorrows	-11.6622
▁plain	-11.6626
▁Yeah	-11.6628
etic	-11.6631
▁frame	-11.6638
▁mathematics	-11.6646
▁passwords	-11.6646
▁waiter	-11.665
▁compass	-11.6653
gs	-11.6655
▁investigators	-11.6657
▁detain	-11.6658
▁army	-11.666
▁bru	-11.6665
▁lifetime	-11.6673
▁farmer	-11.6673
▁Main	-11.6675
▁Kor	-11.6678
▁intelligent	-11.6678
▁moan	-11.6684
translatable	-11.6693
▁Stat	-11.6699
▁included	-11.6705
izar	-11.6721
▁ensur	-11.6729
▁belonging	-11.6733
asting	-11.674
▁Must	-11.6741
melons	-11.6748
▁lately	-11.6752
uc	-11.6757
ext	-11.6761
special	-11.6765
▁Thai	-11.6767
manner	-11.677
▁art	-11.6773
abi	-11.678
▁demands	-11.6781
▁eighty	-11.6784
▁Ke	-11.6787
▁bloody	-11.6794
being	-11.6795
▁basic	-11.6795
▁thug	-11.6796
▁Non	-11.6796
▁operate	-11.68
gar	-11.6824
▁associate	-11.6825
lution	-11.6827
▁Ti	-11.6829
mokers	-11.6832
▁fran	-11.6837
onomy	-11.6839
ler	-11.6849
▁mor	-11.6851
▁Tu	-11.6853
▁Erk	-11.6859
mad	-11.6865
toms	-11.6867
▁coll	-11.6876
yman	-11.6879
▁squat	-11.6889
▁boil	-11.6891
▁cooked	-11.6894
▁Cho	-11.6896
▁oblig	-11.6899
▁pest	-11.6905
▁tender	-11.6912
ff	-11.6917
backs	-11.6918
▁heel	-11.6943
du	-11.6959
toxic	-11.6959
▁swing	-11.6966
▁rip	-11.6969
arcel	-11.697
nder	-11.697
irefighters	-11.6974
▁Acco	-11.6979
ron	-11.6979
▁Sally	-11.6986
utterflies	-11.6993
▁crow	-11.6996
▁greed	-11.7001
▁Zam	-11.7004
erable	-11.7009
▁acce	-11.7009
▁fee	-11.7016
ster	-11.7018
ney	-11.7021
▁kidnapp	-11.703
▁citizens	-11.7032
igh	-11.7033
▁Sport	-11.7037
▁camel	-11.7038
5	-11.7052
ual	-11.706
▁educated	-11.7063
sick	-11.7082
▁Beat	-11.7088
▁beac	-11.7092
ians	-11.7092
▁deca	-11.7094
▁sand	-11.71
ri	-11.7107
pi	-11.7111
tically	-11.713
▁view	-11.7131
▁Rear	-11.7133
ress	-11.7137
ith	-11.714
ried	-11.7151
▁kn	-11.7163
▁gro	-11.717
ael	-11.7171
▁Ford	-11.7172
ike	-11.7176
▁Arabi	-11.7178
▁Frankl	-11.7178
broad	-11.7181
▁Te	-11.719
nji	-11.7202
▁mum	-11.7202
ax	-11.7234
▁fasting	-11.7235
▁Alo	-11.7236
rrifying	-11.726
▁comb	-11.7264
▁stir	-11.7266
harming	-11.727
▁va	-11.7278
▁proce	-11.7281
▁suff	-11.7288
ighting	-11.7316
imp	-11.7321
rrified	-11.7324
▁Pape	-11.7331
▁sour	-11.7333
rink	-11.7335
▁hum	-11.7335
central	-11.734
▁communi	-11.7368
elect	-11.7371
▁ve	-11.7379
dish	-11.7395
ects	-11.7398
vel	-11.7418
ium	-11.7429
▁Nic	-11.7445
mbled	-11.7445
Exc	-11.7451
role	-11.746
▁fr	-11.7463
▁Jam	-11.7467
gh	-11.7472
▁visiting	-11.7476
rely	-11.7477
pol	-11.748
▁Iran	-11.7483
▁ende	-11.7495
gra	-11.7525
▁plu	-11.7533
▁Car	-11.7546
xim	-11.7566
▁representati	-11.7569
▁reporter	-11.7581
laughter	-11.7583
▁Firef	-11.7588
ittle	-11.7604
▁Hom	-11.7605
Rab	-11.7607
50	-11.7615
▁boo	-11.7636
nize	-11.7639
oretically	-11.7652
▁tooth	-11.7659
▁offens	-11.767
ou	-11.7686
irst	-11.7708
▁file	-11.7711
▁rained	-11.7715
▁Kari	-11.7718
state	-11.7728
▁communicat	-11.7762
▁haste	-11.7769
▁futures	-11.7787
▁appl	-11.779
mos	-11.7795
ara	-11.7803
guard	-11.7807
osed	-11.7816
bil	-11.7818
evi	-11.7829
▁redde	-11.7844
jugati	-11.7846
gli	-11.7847
io	-11.7848
ram	-11.7858
▁accounts	-11.7869
comp	-11.787
▁bra	-11.787
▁regi	-11.7872
test	-11.7873
dar	-11.7881
tive	-11.7904
?!"	-11.7915
▁pencils	-11.7929
limate	-11.7948
lot	-11.7954
mbass	-11.7977
▁Bi	-11.7982
oc	-11.7982
Zionist	-11.7984
▁slam	-11.7993
▁mi	-11.7998
▁awaken	-11.8001
ndered	-11.802
aches	-11.8027
flies	-11.8027
▁logo	-11.8036
▁pres	-11.8038
▁forg	-11.804
▁ruins	-11.8043
ppor	-11.8048
plicit	-11.8058
istry	-11.806
no	-11.8065
▁mile	-11.8066
aviar	-11.8066
ai	-11.8067
Three	-11.807
ddle	-11.8077
nel	-11.8092
▁populat	-11.8096
▁ref	-11.811
▁dri	-11.8115
aging	-11.8119
air	-11.8133
ush	-11.8134
▁ends	-11.8139
trol	-11.8153
table	-11.8157
fluenc	-11.8164
witch	-11.8166
▁creat	-11.817
verse	-11.818
ost	-11.8186
sions	-11.819
bu	-11.8194
▁chat	-11.8212
▁messages	-11.8216
think	-11.8253
hange	-11.8263
rted	-11.8281
lip	-11.8312
▁rate	-11.8314
▁panic	-11.832
▁capt	-11.835
▁points	-11.8368
▁Z	-11.8369
bb	-11.8377
▁experiences	-11.8402
▁z	-11.8426
▁fan	-11.8443
tions	-11.8453
▁chemi	-11.8477
od	-11.8482
▁struggl	-11.8491
▁industri	-11.8499
league	-11.8509
▁wan	-11.8511
▁Emm	-11.8524
aving	-11.8532
tended	-11.8535
▁Willi	-11.8556
eel	-11.8581
ap	-11.859
ital	-11.8595
▁favo	-11.8613
▁sweets	-11.8616
pie	-11.8617
ton	-11.8619
iberty	-11.8619
▁instruct	-11.862
▁cameras	-11.8635
▁demonstrat	-11.8637
▁laws	-11.8646
alman	-11.8653
bble	-11.8659
han	-11.8663
▁tight	-11.868
rite	-11.8683
▁investigat	-11.8683
▁abus	-11.8713
ball	-11.8719
eter	-11.8797
oonlight	-11.8804
coloniz	-11.881
▁Sof	-11.8847
owned	-11.8847
den	-11.8854
▁den	-11.8856
ls	-11.8863
▁considerabl	-11.8878
▁Dis	-11.8889
▁Smok	-11.8907
ante	-11.8908
▁arch	-11.8919
son	-11.8923
ouble	-11.8943
▁gl	-11.8953
▁insan	-11.8965
▁pause	-11.8968
▁cooks	-11.8971
▁Mon	-11.8979
▁toys	-11.8998
▁updat	-11.9021
oca	-11.9036
▁pursu	-11.9039
▁pers	-11.9045
▁Pra	-11.9046
aking	-11.907
66	-11.9072
▁soc	-11.9074
▁mani	-11.9076
▁closes	-11.9078
Thi	-11.9103
patient	-11.9106
▁Qu	-11.9147
▁planes	-11.9165
▁sincere	-11.9165
▁Hal	-11.9184
ust	-11.9184
Ab	-11.9187
tra	-11.9201
ountry	-11.9227
indled	-11.9234
▁nei	-11.9244
urists	-11.9253
ving	-11.9255
uted	-11.9259
▁ne	-11.9269
▁Di	-11.9287
signed	-11.9291
ives	-11.9301
▁pri	-11.9302
▁senat	-11.9307
▁Atlant	-11.9316
nior	-11.9329
igger	-11.935
emptin	-11.9356
▁Conc	-11.9371
▁counter	-11.938
▁counts	-11.9389
▁16	-11.9389
▁Hind	-11.9395
ip	-11.9402
nic	-11.9408
▁height	-11.9418
eir	-11.946
bled	-11.9462
▁Jul	-11.948
ines	-11.9485
own	-11.9489
▁Hung	-11.9495
usage	-11.9553
lated	-11.9555
▁concentrat	-11.9576
▁fist	-11.959
bove	-11.9599
bit	-11.9622
▁ph	-11.9641
▁tend	-11.9645
mas	-11.9653
▁sal	-11.9662
omed	-11.9673
▁pond	-11.9676
▁hatch	-11.9683
▁pett	-11.9691
shed	-11.9707
▁medic	-11.9713
▁Ice	-11.9719
▁Na	-11.9743
▁bake	-11.9749
▁Riv	-11.9781
▁moments	-11.9783
uma	-11.9786
▁log	-11.9793
ves	-11.9797
ward	-11.9799
▁commun	-11.9825
abo	-11.9826
ssed	-11.9851
imitation	-11.9855
▁Cou	-11.9865
▁En	-11.9889
▁del	-11.9899
▁Fat	-11.9927
umb	-11.9929
era	-11.995
wed	-11.9988
▁sy	-12.0006
nor	-12.0016
▁sur	-12.0019
nta	-12.0044
itness	-12.0059
--	-12.012
ash	-12.0124
▁assemble	-12.0128
▁pil	-12.0139
nsible	-12.016
▁assembl	-12.017
hr	-12.018
sity	-12.0206
▁Tru	-12.0263
rung	-12.0273
▁...	-12.0299
▁sole	-12.0308
▁laz	-12.0338
▁replace	-12.035
▁presen	-12.0376
eb	-12.0402
tters	-12.0428
raw	-12.0428
▁heal	-12.0433
▁inspect	-12.0435
▁mal	-12.0453
part	-12.046
▁prai	-12.0476
▁myth	-12.0479
nes	-12.0486
ionary	-12.0493
ales	-12.0493
▁Hus	-12.0503
discre	-12.0521
omebody	-12.0545
word	-12.0638
▁Ev	-12.0652
▁reve	-12.0661
aise	-12.067
▁rug	-12.07
▁bik	-12.0704
nly	-12.0716
ang	-12.0772
▁fea	-12.078
▁compel	-12.0784
tility	-12.0786
▁Fre	-12.0787
rides	-12.0801
sult	-12.0808
pit	-12.0842
ences	-12.0863
ckers	-12.0865
we	-12.087
▁lit	-12.0874
erc	-12.088
▁fem	-12.0881
▁Za	-12.0884
eaking	-12.0908
▁braver	-12.0909
▁Wha	-12.0912
▁stri	-12.0921
Sami	-12.0941
now	-12.0966
▁sor	-12.1002
warming	-12.1019
▁promot	-12.102
▁appli	-12.102
onstitution	-12.1025
▁Atlanti	-12.1048
meters	-12.114
aster	-12.1145
▁ea	-12.1146
eed	-12.1147
ago	-12.1147
early	-12.1164
▁mission	-12.1169
▁Count	-12.1177
▁forc	-12.1269
ec	-12.1273
indu	-12.1327
▁ru	-12.1367
bsta	-12.1385
▁pursue	-12.1389
▁listens	-12.1394
▁temp	-12.1424
iza	-12.1435
ncredibly	-12.1435
bout	-12.146
▁196	-12.147
let	-12.1494
line	-12.1509
dro	-12.1527
▁mon	-12.1528
lance	-12.1533
ior	-12.154
Fi	-12.1547
▁soci	-12.1556
▁separat	-12.1563
dow	-12.1563
top	-12.1566
▁swo	-12.161
▁desp	-12.1614
▁wri	-12.1615
tter	-12.1642
eaten	-12.166
iss	-12.166
▁hearts	-12.1662
▁Je	-12.1695
ira	-12.1697
▁ward	-12.1703
96	-12.1717
tock	-12.1726
▁tolera	-12.1727
dress	-12.1739
▁mist	-12.1766
▁Hu	-12.1802
mpl	-12.181
eless	-12.1815
ense	-12.1823
▁agenc	-12.1836
▁investigate	-12.1836
bia	-12.1836
antic	-12.1871
▁male	-12.1878
▁195	-12.1889
▁bull	-12.19
▁demonstrate	-12.1911
▁instru	-12.193
sine	-12.1937
▁practical	-12.1943
edicat	-12.1955
▁kills	-12.1957
gage	-12.1974
hile	-12.1987
ctive	-12.1995
▁Eli	-12.2009
▁phon	-12.2009
danger	-12.2018
iffe	-12.2035
▁refle	-12.204
▁apologiz	-12.2041
▁mat	-12.2057
nothe	-12.2067
▁impo	-12.2078
▁heads	-12.2082
aham	-12.2119
▁stalk	-12.2119
▁bl	-12.216
▁academ	-12.2162
▁compani	-12.2166
▁sl	-12.2172
tism	-12.2175
iled	-12.2188
▁runn	-12.2216
▁sus	-12.2219
olish	-12.2222
▁spil	-12.2248
▁hunte	-12.2258
logg	-12.2281
apid	-12.2318
mp	-12.2323
avi	-12.2335
tom	-12.2351
▁sho	-12.2357
orni	-12.238
qui	-12.2381
res	-12.2411
did	-12.2424
appreciated	-12.245
▁Dar	-12.2454
unior	-12.2462
za	-12.2473
van	-12.2477
▁Col	-12.2511
▁pad	-12.2517
rac	-12.2533
▁inf	-12.254
ease	-12.2542
She	-12.2567
eration	-12.2598
ays	-12.2599
ba	-12.2628
▁increas	-12.2663
▁activi	-12.2674
ind	-12.2685
icles	-12.2691
ration	-12.2694
▁exercis	-12.2701
▁measur	-12.2719
ars	-12.2735
eath	-12.274
▁wet	-12.274
ail	-12.276
ize	-12.2778
▁loc	-12.2786
We	-12.2795
▁agon	-12.2829
▁hos	-12.2833
▁celebrat	-12.2859
ase	-12.2892
06	-12.2893
▁Zionis	-12.293
▁tha	-12.2949
▁hesitat	-12.2951
▁areas	-12.298
ating	-12.2988
▁Nation	-12.3014
▁Liber	-12.308
▁oak	-12.3085
▁regrett	-12.3106
▁tre	-12.311
other	-12.3111
▁Ever	-12.3112
di	-12.3147
▁cro	-12.3154
nian	-12.3158
story	-12.3173
life	-12.32
ood	-12.3294
▁rem	-12.3295
▁tho	-12.3326
ool	-12.3327
thing	-12.335
back	-12.3362
rian	-12.3373
tributed	-12.3408
▁ju	-12.3414
sk	-12.3414
▁importan	-12.3436
ory	-12.348
▁bro	-12.3483
▁Fire	-12.3508
elete	-12.3524
teria	-12.3566
▁litera	-12.3576
▁Forg	-12.3588
ered	-12.3614
efore	-12.364
what	-12.365
xi	-12.365
▁whip	-12.3654
trate	-12.3657
ser	-12.367
▁giv	-12.367
nfortunately	-12.3685
▁Light	-12.3699
gest	-12.3751
riving	-12.3782
▁Po	-12.3793
Do	-12.3794
▁sn	-12.3844
nk	-12.3845
▁Wonder	-12.3851
ands	-12.3873
llow	-12.3884
mor	-12.3893
ique	-12.3906
ale	-12.3906
▁becom	-12.3911
about	-12.3913
▁stea	-12.392
met	-12.3925
love	-12.393
ters	-12.393
cat	-12.3937
echnical	-12.396
▁unre	-12.3971
une	-12.3993
entral	-12.3999
▁gambl	-12.4008
uary	-12.4008
ying	-12.401
▁forgett	-12.4016
▁los	-12.4027
sts	-12.4052
▁Mammo	-12.406
long	-12.4077
▁activ	-12.4097
▁Kar	-12.412
road	-12.4136
erson	-12.4145
arbor	-12.4147
nature	-12.4185
diction	-12.4217
▁Sev	-12.4275
▁qua	-12.4279
▁Frank	-12.4287
▁Bu	-12.4297
py	-12.4313
issan	-12.432
ficient	-12.4392
▁scr	-12.4396
ngels	-12.4399
▁milde	-12.4399
▁arc	-12.4407
▁perv	-12.4419
▁connect	-12.4425
evil	-12.4442
▁admir	-12.4445
ested	-12.4462
▁Nati	-12.4463
sty	-12.4472
▁Swit	-12.4486
ead	-12.4496
cious	-12.4524
rop	-12.4529
eading	-12.453
▁Fir	-12.4588
ooner	-12.4605
rum	-12.4614
They	-12.4647
▁Roo	-12.4652
stable	-12.4657
▁robbe	-12.4675
but	-12.4698
▁supp	-12.4699
rie	-12.4719
ened	-12.4722
ove	-12.4736
▁judg	-12.4744
luc	-12.4768
▁occupie	-12.4769
good	-12.4777
ower	-12.4796
lands	-12.4796
mb	-12.4801
lu	-12.4806
tude	-12.4817
▁Con	-12.4818
omewhere	-12.4818
eas	-12.4826
rice	-12.4861
pleas	-12.4865
▁spit	-12.4867
died	-12.4879
father	-12.4894
tition	-12.4903
ca	-12.4927
bus	-12.4934
ading	-12.496
over	-12.4966
▁butterfl	-12.4976
ulgar	-12.4978
▁excit	-12.4982
▁deco	-12.4988
▁mart	-12.4989
ckled	-12.499
▁accu	-12.4994
zy	-12.4997
▁opera	-12.5039
Can	-12.5044
iv	-12.5047
again	-12.5057
▁misse	-12.5064
urry	-12.5067
▁tool	-12.5076
20	-12.5085
rch	-12.5104
▁60	-12.5107
90	-12.5119
itch	-12.5127
Are	-12.5142
English	-12.5145
gger	-12.5146
▁remo	-12.5147
Who	-12.517
▁admi	-12.5198
▁env	-12.5203
friend	-12.5208
nybody	-12.5209
▁ear	-12.521
rence	-12.5213
aries	-12.5213
▁prev	-12.5215
nner	-12.5227
▁assu	-12.5236
und	-12.5237
ends	-12.524
eria	-12.5242
ished	-12.5287
▁sevent	-12.5293
▁cu	-12.5311
alon	-12.5322
▁pill	-12.5325
pecia	-12.5329
V	-12.5334
happy	-12.5344
exy	-12.5346
Did	-12.5373
▁drip	-12.539
first	-12.5408
yal	-12.541
▁Beaut	-12.5411
believe	-12.5413
omic	-12.5421
entity	-12.5426
ru	-12.5434
nam	-12.5434
found	-12.5451
lad	-12.5468
ort	-12.5469
iro	-12.5477
looking	-12.5481
head	-12.5489
tective	-12.5516
▁valu	-12.5522
reign	-12.553
▁Ga	-12.5531
ribes	-12.5533
die	-12.5535
hard	-12.5537
two	-12.5585
tern	-12.5588
cue	-12.559
ices	-12.5595
ending	-12.56
▁ri	-12.56
▁deserv	-12.5607
lue	-12.5607
Japanese	-12.562
▁ster	-12.5629
ght	-12.5638
run	-12.5655
rge	-12.567
parents	-12.5674
order	-12.5674
born	-12.5682
▁coun	-12.5689
▁spe	-12.5696
All	-12.5711
swim	-12.5721
▁Ei	-12.5734
▁strang	-12.5737
▁Ko	-12.5739
Muslims	-12.5744
acks	-12.5747
frame	-12.5748
▁electro	-12.5751
some	-12.5756
important	-12.5775
invited	-12.5775
▁hoste	-12.5777
wife	-12.5785
jury	-12.5788
▁thirt	-12.5791
hunt	-12.5792
burn	-12.5795
wrote	-12.5803
aturally	-12.5808
oreover	-12.5817
boy	-12.5822
throw	-12.5823
pelled	-12.5826
perfect	-12.5827
thank	-12.5831
walk	-12.584
ore	-12.5841
laim	-12.5841
stinctive	-12.5842
9	-12.5842
apple	-12.5857
worker	-12.586
ffle	-12.5862
▁sol	-12.5863
appe	-12.5866
slept	-12.5868
alist	-12.5869
ab	-12.587
rned	-12.5872
bedroom	-12.588
building	-12.5884
Al	-12.5886
panic	-12.5894
easy	-12.5895
four	-12.5896
husband	-12.5899
ctor	-12.59
H	-12.5908
efinitely	-12.591
▁raisin	-12.5913
knife	-12.5914
popular	-12.5918
minute	-12.5921
five	-12.5921
chair	-12.5923
principal	-12.5926
Wait	-12.5926
mons	-12.5929
social	-12.5929
surviv	-12.5931
young	-12.594
piece	-12.594
convict	-12.5941
understood	-12.5944
mother	-12.5946
defend	-12.5947
pack	-12.5947
market	-12.595
confidence	-12.5952
Ann	-12.5953
club	-12.5953
middle	-12.5955
effective	-12.5958
normal	-12.5958
refrigerator	-12.5962
▁Avi	-12.5968
Esperanto	-12.5968
Should	-12.5968
law	-12.5969
writer	-12.5969
June	-12.5969
shirt	-12.5969
official	-12.5971
bridge	-12.5972
changing	-12.5973
lifetime	-12.5975
Google	-12.5976
physic	-12.5976
City	-12.5977
existence	-12.5977
example	-12.5978
Muiriel	-12.5978
bag	-12.5979
satisfied	-12.5979
figure	-12.598
ele	-12.5982
spoken	-12.5982
▁smo	-12.5988
broken	-12.599
▁logic	-12.599
18	-12.5991
boat	-12.5993
▁improv	-12.5993
200	-12.5994
golf	-12.5995
length	-12.5996
brand	-12.5996
crowded	-12.6
cool	-12.6003
▁respons	-12.6003
washed	-12.6004
half	-12.6008
culture	-12.6008
onsider	-12.6015
Kind	-12.6016
▁psycho	-12.6017
eacher	-12.6017
license	-12.6018
▁fro	-12.602
friendly	-12.6025
sign	-12.6025
Hus	-12.6027
rowned	-12.6029
tender	-12.6033
U	-12.6033
confirm	-12.6033
closed	-12.6041
sources	-12.6041
moon	-12.6042
defeat	-12.6048
liter	-12.605
emocracy	-12.6055
speed	-12.6055
inter	-12.6056
opical	-12.6059
rontier	-12.606
draw	-12.6061
▁relation	-12.6062
icture	-12.6064
14	-12.6065
honest	-12.6068
▁lun	-12.6069
angel	-12.6074
▁Byzantine	-12.6078
kindle	-12.6078
aware	-12.6081
▁panda	-12.6087
▁char	-12.6087
▁euro	-12.6093
▁challenge	-12.6095
▁banana	-12.6095
▁weapon	-12.6096
▁standard	-12.6097
▁degree	-12.6097
corn	-12.6099
dventure	-12.61
image	-12.6101
public	-12.6103
▁source	-12.6103
▁earthquake	-12.6103
▁customer	-12.6105
▁insect	-12.6107
Man	-12.6107
▁surpris	-12.6111
shamed	-12.6111
▁terrorist	-12.6113
har	-12.612
irport	-12.6121
cards	-12.6121
ccident	-12.6123
Ah	-12.6124
waiting	-12.6128
fu	-12.614
acting	-12.6141
▁decei	-12.6143
▁celebr	-12.6146
hol	-12.6146
▁predi	-12.6148
hour	-12.6148
ats	-12.615
weet	-12.6151
▁assist	-12.6153
arou	-12.6156
▁wil	-12.6159
▁persua	-12.616
J	-12.616
lines	-12.6164
▁recei	-12.6168
fired	-12.617
rtificial	-12.6171
arch	-12.6173
▁circu	-12.6174
ackle	-12.6174
mention	-12.6174
▁fulfil	-12.6176
▁prepar	-12.6188
aper	-12.619
▁conv	-12.6192
▁troubl	-12.6195
▁pul	-12.6196
▁moder	-12.6198
product	-12.6198
aria	-12.6201
linguist	-12.6202
▁continu	-12.6202
▁Zion	-12.6204
▁Tsu	-12.6205
appro	-12.6207
dvice	-12.6208
▁Q	-12.6208
▁punc	-12.6209
affl	-12.621
▁Pro	-12.6211
quake	-12.6211
izes	-12.6213
force	-12.6213
▁Russia	-12.6217
▁sung	-12.6218
▁Albania	-12.6219
▁Austria	-12.6219
nimals	-12.6223
volved	-12.6224
▁imitat	-12.6229
▁confess	-12.6234
perately	-12.6236
▁guid	-12.6237
tie	-12.6238
consider	-12.6239
▁collapse	-12.6239
▁publishe	-12.6239
charge	-12.6239
gne	-12.624
mu	-12.624
▁philosoph	-12.6242
▁deb	-12.6242
▁register	-12.6242
▁negativ	-12.6243
▁immatur	-12.6243
▁paranoi	-12.6243
▁baptize	-12.6243
▁adventur	-12.6244
▁interview	-12.6245
▁involve	-12.6246
▁prostitut	-12.6247
▁apologi	-12.6248
▁invit	-12.6249
▁summon	-12.6249
thinking	-12.625
▁destroy	-12.6251
▁lonel	-12.6251
xes	-12.6251
▁reveal	-12.6252
fortunate	-12.6252
▁rub	-12.6253
▁qualit	-12.6254
▁horribl	-12.6255
com	-12.6256
▁recogni	-12.6257
▁Writ	-12.6257
tribution	-12.6258
▁Sam	-12.6258
▁dictionar	-12.6258
▁plate	-12.6259
▁styl	-12.6259
separa	-12.626
▁comfortabl	-12.6261
eeping	-12.6262
▁defens	-12.6262
believ	-12.6263
cycl	-12.6263
ducted	-12.6264
▁outrage	-12.6265
▁complet	-12.6266
Sha	-12.6266
Par	-12.6267
ban	-12.6267
ern	-12.6267
▁pizz	-12.6268
▁retir	-12.6268
▁Salim	-12.6268
iculous	-12.6269
cientist	-12.6269
atoeba	-12.6269
▁Mexic	-12.627
trophy	-12.627
uddenly	-12.6271
▁teenage	-12.6271
tudents	-12.6271
hin	-12.6271
▁economic	-12.6271
▁contra	-12.6272
▁frequent	-12.6272
▁State	-12.6273
Here	-12.6273
urgeon	-12.6273
domina	-12.6274
▁absolute	-12.6274
gnore	-12.6274
estroy	-12.6274
ortunately	-12.6276
uoka	-12.6276
▁conta	-12.6276
▁Leban	-12.6277
emorize	-12.6277
essenger	-12.6277
▁Republic	-12.6277
epartment	-12.6278
nvite	-12.6278
quare	-12.6278
iscussion	-12.6278
hysics	-12.6279
▁gentlem	-12.6279
entlemen	-12.6279
spects	-12.6279
ethod	-12.6279
ember	-12.6279
▁villa	-12.628
▁fals	-12.628
roperty	-12.628
▁economical	-12.628
,000,000.	-12.628
ossibl	-12.6281
eligion	-12.6281
▁remark	-12.6281
▁numb	-12.6281
lectricity	-12.6281
leeping	-12.6281
xercise	-12.6281
elicopter	-12.6281
▁cooperat	-12.6281
xactly	-12.6281
arriage	-12.6281
▁instant	-12.6281
▁unemploy	-12.6281
espect	-12.6281
▁curio	-12.6282
forgiv	-12.6282
finite	-12.6282
dvertis	-12.6282
cific	-12.6282
▁blank	-12.6282
ticipat	-12.6283
▁intellect	-12.6283
س	-12.6283
م	-12.6283
و	-12.6283
ع	-12.6283
velope	-12.6283
İ	-12.6283
Kab	-12.6283
consum	-12.6283
hologist	-12.6283
«	-12.6283
»	-12.6283
ö	-12.6283
а	-12.6283
ص	-12.6283
ى	-12.6283
ي	-12.6283
“	-12.6283
→	-12.6283
☭	-12.6283
あ	-12.6283
civiliz	-12.6283
ا	-12.6283
▁journ	-12.6283
ifteen	-12.6283
▁vegeta	-12.6283
omputers	-12.6283
riends	-12.6283
nguish	-12.6284
ndition	-12.6284
licious	-12.6284
▁Scot	-12.6284
vili	-12.6284
enefic	-12.6285
tinct	-12.6285
▁champ	-12.6285
▁secur	-12.6285
awyer	-12.6285
mpire	-12.6285
timate	-12.6285
stigat	-12.6285
holic	-12.6286
▁autom	-12.6286
▁aggr	-12.6286
ontact	-12.6286
entionally	-12.6286
sky	-12.6287
pulat	-12.6287
▁demons	-12.6287
appointed	-12.6287
ummer	-12.6288
romise	-12.6288
nication	-12.6288
mitted	-12.6288
trange	-12.6288
▁bapti	-12.6289
ntifie	-12.6289
jud	-12.6289
ummon	-12.629
uction	-12.629
ritici	-12.629
udge	-12.629
cris	-12.6291
Av	-12.6291
bite	-12.6292
idiculous	-12.6292
▁alternat	-12.6293
merged	-12.6294
▁regist	-12.6294
ception	-12.6294
unni	-12.6295
▁dict	-12.6295
rostitutes	-12.6295
▁Satani	-12.6297
istmas	-12.6297
viole	-12.6297
▁volu	-12.6298
▁profi	-12.6299
SA	-12.6299
▁US	-12.6299
▁prior	-12.63
lection	-12.63
▁genero	-12.63
▁scho	-12.6301
▁release	-12.6302
ician	-12.6302
▁prepare	-12.6303
▁Jac	-12.6303
Othe	-12.6304
▁slee	-12.6305
center	-12.6305
ealousy	-12.6307
itz	-12.6308
alyz	-12.6308
ountain	-12.6309
▁hija	-12.6309
▁degr	-12.6309
amples	-12.631
▁dirt	-12.631
▁sacr	-12.631
▁squ	-12.6311
ular	-12.6311
▁desc	-12.6313
Cle	-12.6313
ography	-12.6314
▁demo	-12.6315
▁literal	-12.6315
▁bleed	-12.6316
▁depart	-12.6316
▁coff	-12.6316
ntai	-12.6316
itomi	-12.6318
lowly	-12.632
chari	-12.6321
▁eco	-12.6322
▁Kabyli	-12.6322
istakes	-12.6326
iserable	-12.6327
rief	-12.6327
lican	-12.6327
opul	-12.633
razy	-12.6331
anni	-12.6332
▁organ	-12.6332
▁contin	-12.6334
useum	-12.6336
abies	-12.6338
▁distr	-12.6338
easant	-12.6338
▁tax	-12.6338
guin	-12.6339
▁mosqu	-12.6339
▁jack	-12.6339
shio	-12.634
rker	-12.6341
logical	-12.6341
▁Del	-12.6342
On	-12.6342
▁peek	-12.6344
liance	-12.6344
eakness	-12.6345
gua	-12.6346
rator	-12.6346
iolent	-12.6347
racy	-12.6348
ealous	-12.6348
oids	-12.6349
pedia	-12.6351
obby	-12.6352
▁bloo	-12.6353
tulated	-12.6353
arthquakes	-12.6357
▁amaz	-12.6358
embe	-12.6359
tribu	-12.636
urning	-12.6361
pic	-12.6362
mises	-12.6363
▁eviden	-12.6364
▁las	-12.6364
▁Shak	-12.6364
rote	-12.6365
▁accompan	-12.6366
Fit	-12.6366
tch	-12.6368
▁reside	-12.6368
storm	-12.6369
oub	-12.6372
xpress	-12.6373
inations	-12.6377
raq	-12.6378
▁releas	-12.6378
eanut	-12.6379
▁plum	-12.638
duct	-12.6381
liv	-12.6384
elieve	-12.6384
▁recl	-12.6385
rpor	-12.6389
visible	-12.6391
▁intro	-12.6391
▁sands	-12.6394
▁await	-12.6397
lasse	-12.6398
riously	-12.6403
▁prote	-12.6403
▁comma	-12.6403
▁inform	-12.6403
post	-12.6404
far	-12.6406
▁abso	-12.6407
auce	-12.6408
gi	-12.641
claim	-12.6412
▁irr	-12.6414
allow	-12.6414
▁techn	-12.6419
rrow	-12.6421
▁ignore	-12.6421
▁unde	-12.6424
ij	-12.6427
▁sav	-12.6429
▁hamm	-12.6431
▁luc	-12.6433
▁Aga	-12.6433
▁err	-12.644
▁assistan	-12.6441
▁repe	-12.6442
skirt	-12.6444
Ou	-12.6448
irls	-12.6451
▁mag	-12.6452
cence	-12.6456
ority	-12.6459
▁Terr	-12.6464
97	-12.6472
inste	-12.6473
▁Washing	-12.6473
je	-12.6475
llah	-12.6476
▁conve	-12.648
▁bac	-12.648
▁Christi	-12.648
istered	-12.6482
fina	-12.6491
earl	-12.6499
▁Ob	-12.6501
ditions	-12.6508
lks	-12.651
▁unc	-12.6512
nakes	-12.6515
▁partic	-12.6516
▁absol	-12.6518
ictures	-12.6523
▁competi	-12.6524
▁insu	-12.6531
years	-12.6532
reative	-12.6532
▁Pat	-12.6533
weets	-12.6539
isions	-12.6542
uality	-12.6547
▁Yu	-12.6549
erries	-12.6552
eat	-12.6553
▁surviv	-12.6554
eeting	-12.6555
retend	-12.6556
ience	-12.6557
▁dissol	-12.6559
lp	-12.656
▁relations	-12.6561
alib	-12.6562
operation	-12.6566
zed	-12.6568
therland	-12.6571
ubs	-12.6574
indness	-12.6582
duk	-12.6591
hone	-12.6595
lished	-12.6597
▁skat	-12.6598
▁Russ	-12.6599
agon	-12.6605
leans	-12.661
fur	-12.6611
▁Ve	-12.6615
saving	-12.6618
gled	-12.6619
▁Sel	-12.6621
etaria	-12.6623
▁Kon	-12.6626
▁thro	-12.6629
▁Nar	-12.6632
▁quest	-12.6648
lc	-12.6651
eal	-12.6653
nning	-12.6655
ality	-12.666
▁indivi	-12.6662
▁Christ	-12.6663
roject	-12.6666
ideo	-12.6666
ization	-12.6668
eve	-12.6675
lastic	-12.6679
oldly	-12.6683
zha	-12.6691
yla	-12.6694
icted	-12.6698
slim	-12.67
livi	-12.6702
ula	-12.6704
▁Far	-12.6704
▁Sud	-12.6706
llo	-12.6708
tr	-12.6714
ques	-12.6715
▁tease	-12.6723
peak	-12.6723
rest	-12.6733
emed	-12.6737
▁path	-12.674
gr	-12.6741
evenge	-12.6747
▁unfo	-12.6748
zzl	-12.6751
scal	-12.6751
oice	-12.6751
stone	-12.6751
coat	-12.6753
cide	-12.6753
cate	-12.6755
drew	-12.6782
▁terrifi	-12.6783
ndle	-12.6795
member	-12.6795
▁exce	-12.6797
▁Fra	-12.6801
▁Mil	-12.6804
▁Jan	-12.6812
▁dep	-12.6814
rivi	-12.6818
De	-12.6826
▁Ram	-12.683
▁stare	-12.6832
oki	-12.6832
rup	-12.6855
arking	-12.6856
▁ambu	-12.686
ifle	-12.6861
▁shoe	-12.6868
ws	-12.6875
rished	-12.6876
ately	-12.6877
iage	-12.6892
▁Oc	-12.6895
▁Pl	-12.6897
sely	-12.6905
▁Inter	-12.6925
idden	-12.6929
equa	-12.6929
ndance	-12.6933
refer	-12.6941
▁fur	-12.6945
elax	-12.6947
kno	-12.6963
ugar	-12.6974
make	-12.6981
ply	-12.6999
laying	-12.7001
tual	-12.7004
demic	-12.702
nice	-12.7042
usl	-12.7043
▁Fi	-12.7044
efined	-12.7044
agge	-12.7047
stance	-12.705
ccount	-12.7054
per	-12.7055
ky	-12.706
▁eng	-12.7071
unda	-12.7075
▁hospitals	-12.7078
vance	-12.7087
orses	-12.7089
▁Cath	-12.7089
▁ignora	-12.7097
▁congr	-12.7106
solution	-12.7116
than	-12.7125
hat	-12.7133
uts	-12.7156
works	-12.7161
▁eart	-12.7174
mid	-12.7176
rough	-12.7184
plain	-12.7189
mity	-12.719
ids	-12.7199
inging	-12.7204
owl	-12.7206
earning	-12.7207
ntly	-12.7211
ates	-12.7211
astle	-12.7214
▁attracti	-12.7222
eautiful	-12.7229
▁crazi	-12.7253
mic	-12.7259
town	-12.7277
▁compu	-12.7283
obs	-12.7286
yed	-12.7287
▁mill	-12.7296
gues	-12.7301
▁invent	-12.7304
▁Fin	-12.7312
bec	-12.7323
capita	-12.7332
▁ugl	-12.7332
rless	-12.7334
10,	-12.7338
wned	-12.7338
▁tim	-12.735
lets	-12.7355
▁smi	-12.736
pri	-12.7369
fa	-12.7394
▁qu	-12.7408
nowledge	-12.742
▁propo	-12.7426
maze	-12.7427
▁separati	-12.7464
▁invest	-12.7476
reten	-12.749
ails	-12.7494
elf	-12.7495
hor	-12.7499
▁Or	-12.7501
them	-12.7503
ogram	-12.7528
▁suspe	-12.7537
aimed	-12.754
▁Mum	-12.7545
▁pie	-12.7545
vy	-12.7548
rizes	-12.7555
▁Ky	-12.7591
void	-12.7596
strian	-12.7629
bly	-12.7642
eeling	-12.7654
retty	-12.7661
theist	-12.7667
▁exe	-12.7675
ssible	-12.7682
▁te	-12.769
▁hal	-12.7692
At	-12.7695
gly	-12.7709
▁tran	-12.771
rightened	-12.7715
▁abilit	-12.7719
eason	-12.7723
▁bore	-12.7725
uslim	-12.7727
so	-12.7728
ttack	-12.7731
▁excite	-12.7743
gall	-12.7749
uld	-12.7753
▁salar	-12.7755
usan	-12.7756
arr	-12.7762
▁sto	-12.7777
▁tro	-12.7779
bert	-12.7787
eels	-12.7794
▁Sure	-12.7798
andas	-12.7805
!!	-12.7808
Ra	-12.7808
▁deni	-12.7824
rich	-12.7827
▁tire	-12.783
hanging	-12.7833
tories	-12.7845
dnes	-12.7846
▁conscious	-12.7876
lthy	-12.7885
wit	-12.789
else	-12.7898
As	-12.7902
▁Aa	-12.7903
▁suppl	-12.7918
heal	-12.7918
ingdom	-12.7921
mall	-12.7922
umn	-12.7929
cking	-12.7953
amenta	-12.7959
▁Lay	-12.7966
wave	-12.7982
rj	-12.7985
▁wal	-12.8024
▁appe	-12.8026
0,000	-12.8033
ining	-12.8034
nded	-12.8042
treated	-12.8051
rain	-12.8054
▁pos	-12.8055
▁ad	-12.8066
dd	-12.8088
▁kin	-12.8096
▁kne	-12.8118
que	-12.8134
rapped	-12.8134
▁abu	-12.8136
▁authorit	-12.8157
iving	-12.8168
sit	-12.8172
sav	-12.8181
cl	-12.8183
ount	-12.8184
arches	-12.8187
▁abou	-12.8194
nese	-12.8232
eda	-12.8235
eeing	-12.8253
wer	-12.8255
ura	-12.8266
rget	-12.8271
uti	-12.8273
▁stre	-12.8289
saw	-12.8305
▁Mid	-12.8306
rement	-12.8323
Not	-12.8334
▁ren	-12.8348
lying	-12.8355
▁Cla	-12.8367
otel	-12.8384
▁shar	-12.8413
▁dire	-12.8416
▁Hol	-12.848
▁terr	-12.849
tening	-12.8497
▁swea	-12.8522
bas	-12.8527
inf	-12.8533
ffici	-12.8555
atur	-12.8556
emons	-12.8558
credibly	-12.8559
▁Mist	-12.8562
▁floo	-12.8572
sun	-12.8574
dge	-12.8596
▁Tho	-12.8675
past	-12.8688
lim	-12.8696
brace	-12.8711
oka	-12.8714
▁webs	-12.8722
dded	-12.8732
ci	-12.8734
treat	-12.8737
pan	-12.8752
▁Cl	-12.8788
▁Sc	-12.8788
ni	-12.8837
rson	-12.8854
kly	-12.8857
mist	-12.8863
▁rott	-12.8873
dles	-12.888
▁diale	-12.8898
paired	-12.8919
phones	-12.9003
▁bi	-12.9011
▁Fea	-12.9017
▁techni	-12.9028
ep	-12.904
▁8	-12.9041
ently	-12.9053
unted	-12.9059
▁Mat	-12.9077
ude	-12.909
bru	-12.9099
peration	-12.9118
▁nin	-12.9131
erg	-12.9142
▁scre	-12.9168
tton	-12.9206
▁clos	-12.9211
ib	-12.9212
▁el	-12.9239
act	-12.9253
lt	-12.9264
shm	-12.929
▁cal	-12.9295
mus	-12.9299
nut	-12.9304
tist	-12.9344
eleg	-12.9348
ocke	-12.937
tant	-12.9385
redi	-12.9392
dding	-12.941
str	-12.9415
ita	-12.9415
onderful	-12.9432
hough	-12.9434
nged	-12.9453
ork	-12.9458
orse	-12.9463
▁Mus	-12.9525
ilk	-12.9541
bing	-12.9571
▁seaw	-12.9585
▁bedr	-12.9628
▁ki	-12.9654
▁identi	-12.967
▁explosi	-12.9682
elt	-12.9691
fortunately	-12.9713
ven	-12.9773
bors	-12.9791
ogic	-12.9801
▁plea	-12.9803
pread	-12.9826
▁sc	-12.983
▁Georgi	-12.9834
▁cho	-12.9844
unts	-12.9858
ings	-12.9883
ased	-12.9892
els	-12.9921
uji	-12.9949
iko	-12.9974
ona	-12.9987
ired	-12.999
egre	-12.9998
▁Bet	-13.0008
ater	-13.0026
uzz	-13.003
seful	-13.0056
ups	-13.0072
▁Ye	-13.0081
miss	-13.0086
uri	-13.0094
tensi	-13.0123
rmally	-13.0131
▁Gra	-13.0137
▁collecti	-13.0163
au	-13.0167
lin	-13.0198
icy	-13.0212
▁Mer	-13.0213
stated	-13.0229
ets	-13.0243
eachers	-13.0279
low	-13.0284
ites	-13.0353
Fil	-13.0385
▁cleane	-13.0406
▁goo	-13.0423
ses	-13.047
earing	-13.0471
▁acco	-13.0484
gard	-13.0515
heoretically	-13.0523
neration	-13.0544
▁parad	-13.0548
▁Wil	-13.0604
▁bec	-13.0643
nag	-13.0643
sing	-13.0657
elling	-13.0668
▁rot	-13.0669
eak	-13.0676
polite	-13.0697
▁swee	-13.0713
▁Les	-13.0741
▁disc	-13.0744
ome	-13.0745
▁Pan	-13.0822
urg	-13.0853
tack	-13.0869
qu	-13.087
bee	-13.0891
nking	-13.0896
ef	-13.0927
▁fed	-13.0942
▁fou	-13.097
ugg	-13.0989
▁regula	-13.0993
aw	-13.0999
00,000	-13.1003
▁massa	-13.1008
has	-13.1056
▁prot	-13.1063
▁Bos	-13.107
▁gen	-13.1077
condit	-13.1081
▁gla	-13.1087
mput	-13.1152
tor	-13.1186
essi	-13.1186
llen	-13.1211
▁wha	-13.1221
iron	-13.1252
▁nois	-13.1284
nted	-13.1287
otten	-13.1296
ford	-13.1303
▁fla	-13.1321
nnocent	-13.1398
arned	-13.1426
sert	-13.1459
lous	-13.1476
ille	-13.1487
grate	-13.1494
Then	-13.1516
▁behav	-13.1544
eady	-13.1551
▁mak	-13.1592
rt	-13.1599
aki	-13.1609
ti	-13.1611
ement	-13.1653
▁Men	-13.1658
▁Rea	-13.1704
pen	-13.1717
sho	-13.174
▁fir	-13.1779
▁Ber	-13.189
▁dru	-13.1891
hu	-13.1907
este	-13.1909
round	-13.2008
ddy	-13.2015
tized	-13.2044
idate	-13.2059
▁trac	-13.2073
row	-13.2121
milit	-13.2134
▁dam	-13.2189
iction	-13.2248
ere	-13.23
ooked	-13.2367
▁consi	-13.2375
race	-13.2378
▁confiden	-13.2391
▁mos	-13.2424
ledge	-13.2445
arching	-13.2482
iden	-13.2485
ained	-13.2488
udes	-13.2517
lock	-13.2522
▁Pi	-13.2525
ruth	-13.2536
talking	-13.2554
thers	-13.2623
art	-13.2634
olate	-13.2649
aken	-13.2659
tu	-13.2701
lane	-13.2731
tel	-13.2758
▁cont	-13.2764
▁anim	-13.2769
la	-13.2852
...?	-13.2888
leased	-13.2896
hut	-13.2912
Sh	-13.2912
▁produc	-13.295
lay	-13.2953
ounded	-13.2998
em	-13.3002
▁compan	-13.3022
rump	-13.3043
lass	-13.306
assport	-13.3075
▁gar	-13.3108
sha	-13.3113
sale	-13.3123
ours	-13.3162
tial	-13.3189
aughter	-13.3196
▁comm	-13.3196
▁insur	-13.3265
▁compete	-13.3281
tish	-13.3296
▁chee	-13.331
eek	-13.3312
tin	-13.3314
pens	-13.3368
▁Ay	-13.3406
▁imm	-13.3418
ree	-13.3438
likely	-13.3439
▁spre	-13.3473
ressing	-13.3484
aved	-13.3496
igation	-13.3521
▁san	-13.3549
bi	-13.3551
athe	-13.3576
sted	-13.3624
gency	-13.3687
trust	-13.371
▁note	-13.3716
▁Cana	-13.3755
tles	-13.3896
izz	-13.3939
▁pag	-13.3965
ound	-13.3978
oul	-13.3979
ssing	-13.4044
ause	-13.4148
kills	-13.4164
call	-13.4179
▁user	-13.4185
easure	-13.4259
yp	-13.4308
aste	-13.431
wan	-13.4338
owing	-13.4433
sa	-13.45
▁uni	-13.4505
Re	-13.4543
▁bri	-13.4561
▁Ther	-13.4565
▁flow	-13.4568
▁pit	-13.4702
▁Net	-13.4747
imme	-13.4774
▁Universit	-13.4811
days	-13.4832
inner	-13.4861
▁Whe	-13.4905
sent	-13.4919
▁darke	-13.4951
▁roads	-13.4969
swords	-13.5082
sn	-13.5146
▁Cha	-13.5187
▁hun	-13.5202
▁Athe	-13.5216
▁Fo	-13.5302
mmed	-13.5304
sive	-13.545
▁len	-13.5464
▁amus	-13.5513
▁imagina	-13.5571
▁fathers	-13.5595
natur	-13.5605
▁surv	-13.5649
aining	-13.566
ano	-13.5696
earned	-13.573
ined	-13.5763
60	-13.5844
assword	-13.5857
rtu	-13.5879
▁ours	-13.5884
▁dar	-13.591
▁pu	-13.5931
▁dete	-13.5938
name	-13.5959
car	-13.5967
yes	-13.5971
▁imagin	-13.6045
ows	-13.6138
▁bel	-13.6196
enter	-13.6282
▁conver	-13.6324
ots	-13.6357
unity	-13.642
give	-13.651
▁ali	-13.6547
ored	-13.6574
▁Anim	-13.6614
anti	-13.6629
Jul	-13.6642
▁arou	-13.6642
garia	-13.6697
sting	-13.6729
ewell	-13.678
▁Ad	-13.6832
unger	-13.6958
ja	-13.6993
oss	-13.708
▁communicati	-13.7147
rist	-13.7181
rab	-13.7209
▁shou	-13.727
mo	-13.7278
ocking	-13.7339
▁listene	-13.7342
ompany	-13.7575
zz	-13.7709
hit	-13.7774
card	-13.785
rk	-13.7917
che	-13.8029
umor	-13.8037
▁swor	-13.8228
nn	-13.826
ass	-13.8343
Layla	-13.8394
vation	-13.8404
that	-13.8461
▁happ	-13.8495
vert	-13.8653
spected	-13.8684
▁biologi	-13.8806
lowing	-13.8921
rugg	-13.9035
▁und	-13.9109
geon	-13.911
pers	-13.9111
rcy	-13.9173
▁travelle	-13.9221
▁stat	-13.9299
etter	-13.9375
▁fol	-13.9423
pos	-13.9455
date	-13.9604
▁lif	-13.9624
etty	-13.9716
onsen	-13.9738
isten	-13.9755
wo	-13.9816
isit	-13.9857
ancer	-13.9857
▁bitte	-13.9869
▁Min	-14.0036
erb	-14.0058
strate	-14.0069
(	-14.0097
X	-14.0098
$	-14.0099
€	-14.01
Z	-14.0101
Q	-14.0102
K	-14.0103
E	-14.0104
W	-14.0105
ames	-14.0105
